<pad>	0
<unk>	0
<bos>	0
<eos>	0
<sep>	0
<mask>	0
▁t	-0
he	-1
in	-2
▁a	-3
on	-4
▁the	-5
er	-6
▁s	-7
ti	-8
re	-9
▁o	-10
en	-11
an	-12
▁c	-13
▁=	-14
is	-15
te	-16
▁p	-17
▁w	-18
▁f	-19
al	-20
▁of	-21
es	-22
▁1	-23
or	-24
▁an	-25
▁m	-26
▁b	-27
▁d	-28
▁(	-29
tion	-30
le	-31
00	-32
at	-33
▁in	-34
ro	-35
it	-36
▁to	-37
▁n	-38
ar	-39
▁2	-40
▁is	-41
ing	-42
▁and	-43
as	-44
▁T	-45
si	-46
ic	-47
et	-48
ex	-49
ra	-50
ed	-51
▁h	-52
nt	-53
tic	-54
ou	-55
▁re	-56
ve	-57
▁sy	-58
exp	-59
sion	-60
▁3	-61
ent	-62
▁S	-63
▁A	-64
ol	-65
▁-	-66
▁th	-67
il	-68
▁l	-69
nthe	-70
nthetic	-71
▁e	-72
ac	-73
▁+	-74
▁synthetic	-75
▁*	-76
im	-77
expan	-78
expansion	-79
▁g	-80
ation	-81
st	-82
um	-83
om	-84
▁$	-85
▁C	-86
ec	-87
ow	-88
ul	-89
▁The	-90
ate	-91
qu	-92
ri	-93
▁for	-94
▁en	-95
ce	-96
▁4	-97
▁5	-98
▁P	-99
▁u	-100
se	-101
▁pro	-102
th	-103
ir	-104
ber	-105
▁#	-106
▁we	-107
▁I	-108
▁st	-109
id	-110
_00	-111
sw	-112
int	-113
▁x	-114
ho	-115
if	-116
swer	-117
▁0	-118
▁L	-119
▁v	-120
ig	-121
am	-122
ur	-123
ay	-124
ot	-125
ly	-126
▁on	-127
▁num	-128
ut	-129
▁k	-130
ab	-131
▁\	-132
▁B	-133
▁6	-134
▁be	-135
▁y	-136
ge	-137
▁that	-138
▁are	-139
ad	-140
▁"	-141
▁R	-142
▁con	-143
ith	-144
lo	-145
ver	-146
un	-147
▁by	-148
tep	-149
el	-150
ers	-151
--	-152
▁number	-153
ct	-154
▁F	-155
▁can	-156
▁D	-157
▁as	-158
▁H	-159
ind	-160
ch	-161
▁10	-162
od	-163
ase	-164
▁/	-165
▁with	-166
▁it	-167
her	-168
ple	-169
iv	-170
▁de	-171
^2	-172
▁N	-173
▁at	-174
▁com	-175
ist	-176
our	-177
▁pr	-178
up	-179
ity	-180
▁W	-181
ud	-182
▁M	-183
▁r	-184
ine	-185
us	-186
ore	-187
.0	-188
**	-189
eed	-190
ction	-191
ted	-192
▁8	-193
▁Let	-194
▁po	-195
ment	-196
▁E	-197
ill	-198
ht	-199
▁al	-200
ach	-201
10	-202
ice	-203
ter	-204
all	-205
▁An	-206
▁sp	-207
▁7	-208
▁or	-209
▁wh	-210
▁**	-211
rom	-212
tive	-213
▁sol	-214
▁వ	-215
res	-216
ime	-217
ations	-218
▁le	-219
**:	-220
ort	-221
ds	-222
▁answer	-223
▁12	-224
tal	-225
ath	-226
ue	-227
est	-228
▁lo	-229
der	-230
pp	-231
▁total	-232
▁co	-233
",	-234
▁per	-235
▁from	-236
▁find	-237
▁equ	-238
ain	-239
ak	-240
▁un	-241
),	-242
ance	-243
▁Step	-244
▁ra	-245
ave	-246
ag	-247
▁'	-248
▁`	-249
cul	-250
లు	-251
age	-252
్ర	-253
_000	-254
ార	-255
▁9	-256
▁man	-257
▁bo	-258
sp	-259
gra	-260
▁he	-261
))	-262
▁each	-263
▁Answer	-264
▁0.	-265
and	-266
▁print	-267
▁if	-268
▁qu	-269
ure	-270
ass	-271
ph	-272
rac	-273
▁will	-274
▁|	-275
▁this	-276
▁pl	-277
్య	-278
▁val	-279
wo	-280
ear	-281
":	-282
▁ప	-283
rite	-284
fer	-285
pl	-286
▁ro	-287
12	-288
rain	-289
▁G	-290
ess	-291
em	-292
000	-293
▁O	-294
alcul	-295
to	-296
ents	-297
▁hour	-298
ices	-299
▁has	-300
▁In	-301
▁క	-302
ack	-303
iti	-304
▁స	-305
▁20	-306
▁ex	-307
ite	-308
du	-309
▁have	-310
▁sec	-311
ck	-312
gram	-313
ip	-314
ble	-315
▁im	-316
▁cl	-317
yth	-318
▁su	-319
ld	-320
are	-321
ution	-322
ork	-323
ard	-324
▁If	-325
▁program	-326
iz	-327
▁was	-328
50	-329
▁two	-330
ated	-331
ich	-332
ython	-333
irst	-334
de	-335
▁Th	-336
ulti	-337
▁time	-338
▁(1	-339
port	-340
ap	-341
ys	-342
లో	-343
ays	-344
ute	-345
▁whe	-346
▁def	-347
frac	-348
out	-349
}{	-350
ount	-351
low	-352
▁step	-353
▁న	-354
▁multi	-355
hoices	-356
▁us	-357
ight	-358
ant	-359
ang	-360
ame	-361
roup	-362
▁solve	-363
ew	-364
▁calcul	-365
0,	-366
▁[	-367
▁Choices	-368
).	-369
tim	-370
▁many	-371
estion	-372
ence	-373
▁stud	-374
ire	-375
▁which	-376
(1	-377
end	-378
▁ab	-379
▁fun	-380
orm	-381
----	-382
/2	-383
▁write	-384
ile	-385
cho	-386
▁comp	-387
▁100	-388
▁గ	-389
act	-390
ree	-391
ంద	-392
own	-393
▁To	-394
▁z	-395
0.	-396
per	-397
▁ar	-398
ace	-399
iles	-400
les	-401
▁question	-402
▁sh	-403
di	-404
ink	-405
▁Python	-406
ect	-407
▁{	-408
న్	-409
▁Now	-410
▁15	-411
▁hours	-412
ond	-413
ik	-414
iven	-415
▁ch	-416
▁first	-417
ail	-418
▁need	-419
ft	-420
▁se	-421
▁one	-422
▁U	-423
etw	-424
▁function	-425
ies	-426
bs	-427
_0	-428
rig	-429
▁ఉ	-430
▁ret	-431
▁year	-432
urn	-433
one	-434
ory	-435
get	-436
ని	-437
16	-438
▁log	-439
ince	-440
20	-441
▁par	-442
os	-443
▁point	-444
▁form	-445
▁not	-446
ాయ	-447
erv	-448
▁J	-449
ther	-450
ative	-451
▁dist	-452
▁1.	-453
▁so	-454
log	-455
its	-456
tem	-457
ry	-458
▁me	-459
eng	-460
$.	-461
cc	-462
▁equation	-463
▁produ	-464
▁$\	-465
్త	-466
▁group	-467
డి	-468
▁app	-469
ere	-470
abil	-471
ax	-472
choice	-473
oun	-474
▁min	-475
▁given	-476
▁ad	-477
ast	-478
ust	-479
ode	-480
):	-481
-1	-482
cl	-483
able	-484
▁resp	-485
="	-486
▁train	-487
▁than	-488
xt	-489
▁2.	-490
ks	-491
ff	-492
▁exp	-493
▁work	-494
▁How	-495
▁import	-496
▁rel	-497
▁calculate	-498
▁there	-499
▁met	-500
ary	-501
ms	-502
15	-503
25	-504
్రా	-505
▁dat	-506
ability	-507
ign	-508
▁19	-509
▁math	-510
ues	-511
▁do	-512
▁class	-513
▁So	-514
▁value	-515
ength	-516
▁dif	-517
0)	-518
▁use	-519
14	-520
▁return	-521
ult	-522
val	-523
▁tak	-524
op	-525
▁Wh	-526
▁మ	-527
▁about	-528
▁వి	-529
▁comple	-530
▁up	-531
▁all	-532
tial	-533
sq	-534
ug	-535
▁cont	-536
▁1:	-537
▁students	-538
▁.	-539
(2	-540
▁how	-541
ంలో	-542
ould	-543
▁km	-544
ta	-545
ide	-546
▁tr	-547
▁2:	-548
న్న	-549
een	-550
teg	-551
ans	-552
fore	-553
▁30	-554
▁18	-555
fter	-556
▁mat	-557
berg	-558
▁no	-559
ంది	-560
etween	-561
ize	-562
▁where	-563
uten	-564
▁speed	-565
utenberg	-566
▁gutenberg	-567
ome	-568
/3	-569
▁differ	-570
▁res	-571
18	-572
1,	-573
▁16	-574
ments	-575
▁sc	-576
13	-577
▁K	-578
▁between	-579
క్	-580
▁prob	-581
$,	-582
▁their	-583
▁bu	-584
av	-585
▁j	-586
ong	-587
▁ver	-588
▁other	-589
▁years	-590
eter	-591
19	-592
▁then	-593
")	-594
▁fol	-595
▁25	-596
▁&	-597
▁What	-598
ll	-599
.5	-600
hase	-601
rt	-602
▁50	-603
▁using	-604
▁X	-605
▁There	-606
▁order	-607
్రామ	-608
enc	-609
ాల	-610
▁new	-611
▁sum	-612
▁both	-613
ari	-614
form	-615
▁భ	-616
ey	-617
▁get	-618
▁Since	-619
▁We	-620
▁గ్రామ	-621
▁str	-622
▁V	-623
);	-624
▁integ	-625
ally	-626
2,	-627
ార్	-628
40	-629
▁cur	-630
atus	-631
▁set	-632
▁rem	-633
ning	-634
Phase	-635
right	-636
ord	-637
▁length	-638
▁probability	-639
("	-640
▁his	-641
▁out	-642
▁,	-643
▁wik	-644
ial	-645
▁op	-646
'.	-647
ంగ	-648
▁60	-649
sh	-650
▁ele	-651
▁rate	-652
cal	-653
రు	-654
par	-655
▁div	-656
2.	-657
ors	-658
▁mod	-659
ss	-660
1.	-661
▁3.	-662
▁solution	-663
verage	-664
▁cost	-665
ject	-666
మి	-667
itig	-668
▁Sp	-669
▁హ	-670
▁what	-671
ric	-672
▁భూ	-673
▁అ	-674
▁values	-675
▁kde	-676
ild	-677
▁pa	-678
2)	-679
▁let	-680
▁requ	-681
po	-682
ective	-683
▁she	-684
▁``	-685
abase	-686
▁follow	-687
und	-688
ound	-689
ుం	-690
ange	-691
▁am	-692
▁40	-693
so	-694
tions	-695
▁its	-696
60	-697
▁ద	-698
▁```	-699
వస	-700
cent	-701
..	-702
▁Q	-703
▁?	-704
▁were	-705
^3	-706
▁gra	-707
▁more	-708
▁they	-709
pe	-710
▁pe	-711
▁14	-712
ater	-713
irc	-714
igh	-715
ok	-716
▁inc	-717
▁same	-718
▁product	-719
mp	-720
▁1**:	-721
▁2**:	-722
▁1/	-723
17	-724
heck	-725
▁tri	-726
ub	-727
vel	-728
ates	-729
ion	-730
nown	-731
▁after	-732
▁three	-733
▁int	-734
angle	-735
▁fl	-736
▁ర	-737
▁బ	-738
▁3:	-739
ty	-740
▁200	-741
▁కి	-742
met	-743
bserv	-744
30	-745
▁plan	-746
ection	-747
ula	-748
ia	-749
ery	-750
▁these	-751
time	-752
▁average	-753
▁ev	-754
▁నుం	-755
80	-756
▁te	-757
_2	-758
▁24	-759
ost	-760
▁distance	-761
▁నుండి	-762
the	-763
3,	-764
▁tim	-765
tool	-766
▁Con	-767
▁back	-768
lease	-769
ive	-770
▁inter	-771
▁This	-772
▁area	-773
^{	-774
sqrt	-775
▁numbers	-776
▁formula	-777
▁into	-778
▁inst	-779
▁second	-780
ెక్	-781
▁i	-782
▁files	-783
_{	-784
call	-785
▁initi	-786
11	-787
ts	-788
bservation	-789
3_	-790
rix	-791
blem	-792
▁run	-793
▁sub	-794
ati	-795
▁const	-796
▁Please	-797
▁Com	-798
▁database	-799
▁who	-800
▁sys	-801
▁days	-802
cture	-803
ాయి	-804
otal	-805
ెక్ట	-806
▁vari	-807
plic	-808
100	-809
ating	-810
45	-811
ాలు	-812
',	-813
ask	-814
▁max	-815
Action	-816
▁result	-817
▁system	-818
▁Rs	-819
og	-820
ెక్టార్	-821
▁Pro	-822
Observation	-823
75	-824
hr	-825
con	-826
aining	-827
▁హెక్టార్	-828
▁హెక్టార్లు	-829
1)	-830
ical	-831
▁squ	-832
imum	-833
▁ఉన్న	-834
hes	-835
rib	-836
▁36	-837
▁only	-838
emory	-839
▁fact	-840
ov	-841
xity	-842
ens	-843
▁dec	-844
math	-845
ouse	-846
▁Ex	-847
isk	-848
▁<	-849
▁over	-850
▁వ్య	-851
--------	-852
raw	-853
ress	-854
▁భూమి	-855
▁size	-856
known	-857
row	-858
▁think	-859
ER	-860
##	-861
▁tra	-862
మీ	-863
▁Y	-864
▁13	-865
▁must	-866
ుత	-867
▁###	-868
▁appro	-869
ous	-870
min	-871
train	-872
▁line	-873
▁$$	-874
▁key	-875
▁pos	-876
ards	-877
▁unknown	-878
ual	-879
▁Speed	-880
▁cm	-881
ూర	-882
▁(2	-883
(-	-884
▁Find	-885
▁1,	-886
inking	-887
▁3**:	-888
▁mar	-889
▁possi	-890
pi	-891
status	-892
utes	-893
▁price	-894
5,	-895
▁1)	-896
_1	-897
▁వ్యవస	-898
▁posi	-899
▁el	-900
ian	-901
ople	-902
pro	-903
onse	-904
▁times	-905
▁sim	-906
eg	-907
▁Thinking	-908
put	-909
ener	-910
టి	-911
▁sm	-912
udit	-913
▁them	-914
sc	-915
led	-916
")`	-917
▁De	-918
▁add	-919
▁Time	-920
loy	-921
tif	-922
▁Therefore	-923
ext	-924
ffer	-925
hed	-926
▁case	-927
కి	-928
▁points	-929
▁her	-930
▁cho	-931
ator	-932
8.	-933
▁sel	-934
3)	-935
sin	-936
▁For	-937
▁prof	-938
▁ind	-939
▁day	-940
▁జ	-941
▁initial	-942
▁row	-943
▁define	-944
over	-945
abel	-946
ror	-947
ral	-948
99	-949
▁equal	-950
▁80	-951
4,	-952
▁following	-953
▁≈	-954
inal	-955
}$	-956
▁4.	-957
▁17	-958
▁cor	-959
▁Re	-960
32	-961
▁:	-962
▁when	-963
▁count	-964
▁arch	-965
rit	-966
▁చ	-967
ason	-968
5)	-969
్ల	-970
▁col	-971
▁×	-972
▁any	-973
▁draw	-974
▁conn	-975
▁2,	-976
onds	-977
▁St	-978
ero	-979
▁ఉన్నాయి	-980
కర	-981
answer	-982
olve	-983
▁possible	-984
cos	-985
▁such	-986
▁pre	-987
▁comm	-988
art	-989
ected	-990
▁people	-991
()	-992
sum	-993
ccess	-994
ie	-995
▁square	-996
▁ter	-997
com	-998
ulation	-999
partial	-1000
▁house	-1001
ek	-1002
sider	-1003
clud	-1004
{"	-1005
▁dire	-1006
▁you	-1007
▁left	-1008
▁test	-1009
ular	-1010
▁require	-1011
▁instance	-1012
▁dis	-1013
itext	-1014
shard	-1015
103_	-1016
ency	-1017
▁wikitext	-1018
vi	-1019
▁percent	-1020
}`	-1021
▁deg	-1022
▁vol	-1023
▁trains	-1024
▁గ్రామం	-1025
▁bec	-1026
▁`{"	-1027
cd	-1028
reate	-1029
36	-1030
back	-1031
▁%	-1032
ru	-1033
ient	-1034
▁had	-1035
▁minutes	-1036
ake	-1037
text	-1038
{1	-1039
▁also	-1040
▁tow	-1041
lic	-1042
▁old	-1043
▁ways	-1044
use	-1045
▁miles	-1046
▁but	-1047
ze	-1048
▁play	-1049
▁circ	-1050
24	-1051
ithm	-1052
itigations	-1053
▁0.0	-1054
db	-1055
yn	-1056
ately	-1057
▁problem	-1058
▁ఆ	-1059
rent	-1060
▁under	-1061
ower	-1062
▁would	-1063
NS	-1064
uch	-1065
▁mon	-1066
▁equations	-1067
▁వ్యవసాయ	-1068
dition	-1069
▁None	-1070
▁age	-1071
▁right	-1072
alf	-1073
hod	-1074
ob	-1075
ample	-1076
ables	-1077
▁des	-1078
ased	-1079
▁Par	-1080
▁దూర	-1081
bo	-1082
ross	-1083
▁id	-1084
by	-1085
▁దూరంలో	-1086
▁5.	-1087
sec	-1088
ick	-1089
4)	-1090
▁side	-1091
▁go	-1092
tra	-1093
ffic	-1094
▁gener	-1095
▁ang	-1096
hen	-1097
ware	-1098
▁small	-1099
▁oper	-1100
▁ve	-1101
ose	-1102
->	-1103
xim	-1104
ever	-1105
▁ag	-1106
tio	-1107
▁while	-1108
error	-1109
▁check	-1110
pt	-1111
▁pop	-1112
▁11	-1113
2}	-1114
{1}{	-1115
▁clo	-1116
▁pass	-1117
▁does	-1118
▁Pl	-1119
▁true	-1120
path	-1121
33	-1122
▁car	-1123
▁seconds	-1124
త్త	-1125
pres	-1126
roug	-1127
ential	-1128
_0000	-1129
ases	-1130
ma	-1131
gor	-1132
▁end	-1133
▁archite	-1134
▁down	-1135
▁non	-1136
▁lar	-1137
▁read	-1138
ish	-1139
io	-1140
▁zero	-1141
mat	-1142
ces	-1143
▁take	-1144
▁amount	-1145
▁units	-1146
(0,	-1147
)$	-1148
29	-1149
ied	-1150
▁flag	-1151
కు	-1152
70	-1153
ystem	-1154
dt	-1155
78	-1156
ank	-1157
▁writ	-1158
▁dig	-1159
▁Task	-1160
▁fe	-1161
cted	-1162
count	-1163
ify	-1164
▁approxim	-1165
ords	-1166
▁list	-1167
bb	-1168
{\	-1169
▁En	-1170
ls	-1171
ote	-1172
▁half	-1173
▁DNS	-1174
35	-1175
ne	-1176
▁code	-1177
▁ac	-1178
▁Z	-1179
▁least	-1180
ves	-1181
▁45	-1182
')	-1183
tical	-1184
▁He	-1185
▁four	-1186
▁ఉంది	-1187
▁height	-1188
▁current	-1189
ోగ	-1190
3.	-1191
28	-1192
▁reg	-1193
▁exce	-1194
ides	-1195
num	-1196
▁Then	-1197
ource	-1198
plement	-1199
▁positive	-1200
uffer	-1201
▁stand	-1202
code	-1203
ings	-1204
oug	-1205
▁algor	-1206
26	-1207
day	-1208
▁file	-1209
▁optim	-1210
▁deter	-1211
రా	-1212
orph	-1213
▁3,	-1214
cdot	-1215
▁cent	-1216
▁iter	-1217
app	-1218
▁relative	-1219
▁mean	-1220
▁complete	-1221
uring	-1222
▁much	-1223
old	-1224
ons	-1225
rough	-1226
▁At	-1227
su	-1228
ix	-1229
▁backup	-1230
▁\\	-1231
ants	-1232
▁should	-1233
▁}	-1234
iel	-1235
tain	-1236
ature	-1237
alys	-1238
44	-1239
▁2)	-1240
▁graph	-1241
ird	-1242
ict	-1243
round	-1244
▁long	-1245
90	-1246
▁less	-1247
('	-1248
tit	-1249
▁ratio	-1250
ecution	-1251
omorph	-1252
alysis	-1253
▁match	-1254
▁Call	-1255
istance	-1256
],	-1257
▁label	-1258
▁radi	-1259
▁Calcul	-1260
QL	-1261
imit	-1262
-1)	-1263
▁Ch	-1264
ib	-1265
▁algorithm	-1266
▁Here	-1267
2:	-1268
bin	-1269
date	-1270
logs	-1271
్తు	-1272
▁Qu	-1273
▁Comple	-1274
▁reason	-1275
sy	-1276
ume	-1277
▁remaining	-1278
▁ser	-1279
▁different	-1280
▁ite	-1281
76	-1282
▁incre	-1283
▁sin	-1284
space	-1285
▁repres	-1286
▁-1	-1287
▁stru	-1288
ets	-1289
▁method	-1290
PI	-1291
edia	-1292
▁rec	-1293
▁profit	-1294
▁Complexity	-1295
));	-1296
▁population	-1297
very	-1298
▁week	-1299
▁->	-1300
,000	-1301
▁before	-1302
left	-1303
▁dep	-1304
▁divis	-1305
sql	-1306
▁cy	-1307
▁ల	-1308
▁integer	-1309
▁sq	-1310
▁ear	-1311
reated	-1312
▁Total	-1313
▁prime	-1314
any	-1315
sed	-1316
mine	-1317
ray	-1318
▁month	-1319
arget	-1320
▁48	-1321
▁elements	-1322
▁sign	-1323
ific	-1324
ines	-1325
▁port	-1326
ep	-1327
▁sur	-1328
(\	-1329
sing	-1330
▁pol	-1331
▁range	-1332
olog	-1333
ర్	-1334
▁notif	-1335
▁filesystem	-1336
▁maximum	-1337
ension	-1338
▁angle	-1339
48	-1340
^2)	-1341
aus	-1342
ove	-1343
▁0,	-1344
4.	-1345
▁$2	-1346
theta	-1347
▁త	-1348
group	-1349
read	-1350
ause	-1351
als	-1352
(3	-1353
▁>	-1354
▁inters	-1355
head	-1356
ipedia	-1357
▁However	-1358
▁గ్రామంలో	-1359
▁cos	-1360
▁wikipedia	-1361
▁der	-1362
ages	-1363
gether	-1364
now	-1365
sive	-1366
point	-1367
66	-1368
andom	-1369
ars	-1370
▁Calculate	-1371
RO	-1372
ock	-1373
name	-1374
yp	-1375
▁standard	-1376
▁mid	-1377
▁sa	-1378
olution	-1379
ale	-1380
▁integers	-1381
▁response	-1382
ring	-1383
▁difference	-1384
plica	-1385
other	-1386
/2)	-1387
write	-1388
▁weight	-1389
lf	-1390
ervice	-1391
▁matching	-1392
ged	-1393
etwork	-1394
▁did	-1395
▁respective	-1396
ren	-1397
ులు	-1398
▁numer	-1399
▁gre	-1400
▁data	-1401
96	-1402
matrix	-1403
▁Parse	-1404
▁deriv	-1405
ci	-1406
▁architecture	-1407
fine	-1408
of	-1409
""	-1410
▁build	-1411
pr	-1412
▁1.0	-1413
▁Use	-1414
▁di	-1415
▁sequ	-1416
metry	-1417
▁trans	-1418
▁high	-1419
lock	-1420
ops	-1421
ppa	-1422
▁35	-1423
▁distrib	-1424
atta	-1425
▁target	-1426
buffer	-1427
attappa	-1428
line	-1429
95	-1430
▁π	-1431
▁towards	-1432
▁network	-1433
▁meters	-1434
ins	-1435
*:	-1436
▁(-	-1437
▁pay	-1438
▁matrix	-1439
▁First	-1440
▁mph	-1441
▁triangle	-1442
▁factor	-1443
▁500	-1444
Risk	-1445
size	-1446
్రం	-1447
itigation	-1448
▁mitigations	-1449
Mitigation	-1450
▁28	-1451
▁paint	-1452
tern	-1453
▁score	-1454
▁head	-1455
▁=>	-1456
▁2.0	-1457
▁orig	-1458
mb	-1459
rees	-1460
imension	-1461
ctor	-1462
▁ne	-1463
ise	-1464
ద్య	-1465
▁120	-1466
ety	-1467
ike	-1468
▁dx	-1469
▁workspace	-1470
▁source	-1471
98	-1472
vent	-1473
air	-1474
▁Al	-1475
rb	-1476
ield	-1477
ంట	-1478
▁(3	-1479
lete	-1480
earch	-1481
▁tw	-1482
▁student	-1483
oks	-1484
(0)	-1485
▁writing	-1486
["	-1487
▁lead	-1488
▁audit	-1489
▁pair	-1490
essage	-1491
ారు	-1492
▁includ	-1493
▁Rel	-1494
▁pers	-1495
▁requirements	-1496
not	-1497
hn	-1498
▁event	-1499
atement	-1500
▁meet	-1501
▁char	-1502
▁some	-1503
▁every	-1504
▁element	-1505
▁27	-1506
("$	-1507
▁den	-1508
ided	-1509
mathbb	-1510
esp	-1511
fact	-1512
ption	-1513
osi	-1514
/5	-1515
▁పో	-1516
38	-1517
ced	-1518
46	-1519
▁np	-1520
యోగ	-1521
▁approximately	-1522
we	-1523
▁API	-1524
ాన	-1525
local	-1526
▁It	-1527
▁third	-1528
xy	-1529
orted	-1530
lemetry	-1531
jective	-1532
▁running	-1533
▁reach	-1534
▁1000	-1535
▁respond	-1536
▁water	-1537
▁because	-1538
27	-1539
▁√	-1540
▁path	-1541
▁fail	-1542
ither	-1543
kattappa	-1544
^(	-1545
ven	-1546
▁ని	-1547
▁సర	-1548
▁together	-1549
ade	-1550
▁index	-1551
▁cap	-1552
MB	-1553
_5	-1554
▁power	-1555
▁through	-1556
▁direction	-1557
ump	-1558
ంగ్	-1559
▁విద్య	-1560
ities	-1561
▁intersection	-1562
▁Jo	-1563
▁self	-1564
ember	-1565
డు	-1566
ాని	-1567
▁nums	-1568
}{\	-1569
ends	-1570
▁ప్ర	-1571
▁radius	-1572
}.	-1573
▁విని	-1574
SC	-1575
▁0.5	-1576
▁fra	-1577
▁random	-1578
▁Analysis	-1579
AL	-1580
▁groups	-1581
▁consider	-1582
▁Define	-1583
2.16	-1584
▁వినియోగ	-1585
▁sides	-1586
▁90	-1587
service	-1588
▁1/2	-1589
▁exact	-1590
▁base	-1591
▁used	-1592
▁exceed	-1593
$",	-1594
self	-1595
▁ob	-1596
▁taken	-1597
eys	-1598
2.168.	-1599
▁status	-1600
▁సరఫ	-1601
ather	-1602
▁constant	-1603
tes	-1604
▁Rate	-1605
alls	-1606
AT	-1607
oney	-1608
)^2	-1609
▁space	-1610
▁విద్యుత	-1611
్వ	-1612
_3	-1613
urity	-1614
▁make	-1615
▁6.	-1616
}\	-1617
face	-1618
▁Un	-1619
▁కే	-1620
▁acc	-1621
ash	-1622
▁compute	-1623
effic	-1624
▁combin	-1625
▁rece	-1626
▁26	-1627
త్తి	-1628
▁cover	-1629
])	-1630
23	-1631
ten	-1632
▁emp	-1633
▁circle	-1634
వి	-1635
▁ph	-1636
ting	-1637
inder	-1638
85	-1639
▁next	-1640
mod	-1641
dd	-1642
▁sup	-1643
▁company	-1644
▁Relative	-1645
▁means	-1646
▁mov	-1647
'(	-1648
ones	-1649
▁larg	-1650
▁ed	-1651
▁corre	-1652
43	-1653
▁bl	-1654
iod	-1655
▁contain	-1656
ges	-1657
▁kmph	-1658
▁కేంద	-1659
▁during	-1660
(1,	-1661
total	-1662
▁else	-1663
▁structure	-1664
SE	-1665
▁variables	-1666
▁bound	-1667
▁twice	-1668
ply	-1669
▁conf	-1670
ంచ	-1671
ynam	-1672
▁నీ	-1673
▁memory	-1674
2.168.1.	-1675
▁ఇ	-1676
ంగా	-1677
omorphic	-1678
oll	-1679
▁start	-1680
▁Thus	-1681
que	-1682
red	-1683
▁సౌ	-1684
▁determine	-1685
requ	-1686
▁box	-1687
osite	-1688
word	-1689
▁fin	-1690
▁pi	-1691
▁since	-1692
hip	-1693
▁Using	-1694
▁perform	-1695
chool	-1696
స్తు	-1697
▁real	-1698
/4	-1699
▁curve	-1700
ాగ	-1701
▁Ar	-1702
gine	-1703
▁Query	-1704
▁respectively	-1705
ల్ల	-1706
కర్య	-1707
▁సౌకర్య	-1708
ditions	-1709
▁sele	-1710
loc	-1711
ps	-1712
ots	-1713
▁)	-1714
▁Two	-1715
ns	-1716
▁coeffic	-1717
్ప	-1718
ved	-1719
load	-1720
▁aut	-1721
▁4,	-1722
▁know	-1723
ecute	-1724
ats	-1725
gs	-1726
▁She	-1727
asy	-1728
▁takes	-1729
rec	-1730
యం	-1731
▁closed	-1732
▁optimal	-1733
ayer	-1734
bstit	-1735
cular	-1736
7,	-1737
▁22	-1738
ardware	-1739
▁నీటి	-1740
లి	-1741
▁gir	-1742
▁వా	-1743
ures	-1744
▁feet	-1745
FF	-1746
▁logic	-1747
ination	-1748
ression	-1749
success	-1750
(1)	-1751
▁3)	-1752
LE	-1753
▁complexity	-1754
▁32	-1755
plication	-1756
▁సరఫరా	-1757
▁operations	-1758
▁–	-1759
ule	-1760
egin	-1761
▁project	-1762
ving	-1763
ormal	-1764
▁been	-1765
▁degrees	-1766
dic	-1767
rating	-1768
▁fo	-1769
ference	-1770
begin	-1771
ible	-1772
▁travel	-1773
89	-1774
▁కింది	-1775
mbol	-1776
tices	-1777
▁cross	-1778
▁implement	-1779
metric	-1780
▁complex	-1781
▁terms	-1782
((	-1783
▁table	-1784
▁period	-1785
▁(5	-1786
47	-1787
for	-1788
eline	-1789
$$	-1790
▁uint	-1791
atency	-1792
step	-1793
▁boys	-1794
+1	-1795
▁After	-1796
uild	-1797
atis	-1798
akes	-1799
49	-1800
▁address	-1801
light	-1802
----------------	-1803
▁300	-1804
ology	-1805
▁Sy	-1806
▁off	-1807
ాం	-1808
cess	-1809
cle	-1810
▁last	-1811
ined	-1812
▁inv	-1813
▁update	-1814
▁70	-1815
▁saf	-1816
▁]	-1817
▁Requ	-1818
▁conditions	-1819
str	-1820
▁em	-1821
▁spec	-1822
6,	-1823
▁వార	-1824
రి	-1825
tract	-1826
omial	-1827
ives	-1828
▁map	-1829
▁cle	-1830
4:	-1831
]:	-1832
python	-1833
▁2*	-1834
ట్	-1835
eters	-1836
▁digit	-1837
htt	-1838
▁cri	-1839
▁sal	-1840
▁money	-1841
max	-1842
rue	-1843
ames	-1844
▁person	-1845
▁5,	-1846
బడి	-1847
▁degree	-1848
▁tem	-1849
},	-1850
▁_	-1851
▁choose	-1852
▁original	-1853
▁output	-1854
▁books	-1855
▁minimum	-1856
▁(4	-1857
alse	-1858
box	-1859
▁inf	-1860
▁keyword	-1861
replica	-1862
65	-1863
▁75	-1864
▁kg	-1865
▁cer	-1866
ానికి	-1867
▁pres	-1868
▁prop	-1869
▁పై	-1870
ling	-1871
here	-1872
▁live	-1873
కె	-1874
తర	-1875
▁relations	-1876
▁5)	-1877
anning	-1878
▁design	-1879
**2	-1880
/100	-1881
▁vertices	-1882
77	-1883
▁150	-1884
▁now	-1885
▁red	-1886
▁numerical	-1887
▁5-	-1888
ways	-1889
▁local	-1890
pose	-1891
▁prov	-1892
▁sold	-1893
▁arr	-1894
▁volume	-1895
బడిన	-1896
})	-1897
synthetic	-1898
▁Run	-1899
▁dt	-1900
▁21	-1901
▁On	-1902
ద్	-1903
ified	-1904
▁Tool	-1905
▁సి	-1906
▁engine	-1907
▁పా	-1908
▁even	-1909
▁field	-1910
▁found	-1911
mid	-1912
oc	-1913
8,	-1914
▁caus	-1915
▁query	-1916
22	-1917
ational	-1918
▁want	-1919
▁common	-1920
▁unit	-1921
▁param	-1922
esponse	-1923
orem	-1924
▁opp	-1925
▁surface	-1926
enti	-1927
▁dom	-1928
idence	-1929
▁dimension	-1930
▁partic	-1931
ists	-1932
మా	-1933
ier	-1934
▁occ	-1935
▁team	-1936
esign	-1937
▁addition	-1938
టు	-1939
IT	-1940
▁either	-1941
▁పైబడిన	-1942
man	-1943
Response	-1944
mon	-1945
▁uni	-1946
ering	-1947
▁dynam	-1948
backup	-1949
▁Build	-1950
▁Im	-1951
▁execution	-1952
▁q	-1953
▁సం	-1954
level	-1955
SI	-1956
▁$5	-1957
▁cub	-1958
="/	-1959
▁notific	-1960
SQL	-1961
▁show	-1962
▁pack	-1963
▁flagged	-1964
▁sequence	-1965
▁boundary	-1966
▁{"	-1967
6.	-1968
py	-1969
▁term	-1970
quation	-1971
}$.	-1972
▁23	-1973
▁cut	-1974
▁Consider	-1975
uted	-1976
▁devi	-1977
▁derivative	-1978
▁del	-1979
▁DE	-1980
urch	-1981
ner	-1982
ార్య	-1983
▁certain	-1984
ized	-1985
▁normal	-1986
▁rect	-1987
రాల	-1988
▁expl	-1989
CT	-1990
ural	-1991
▁Write	-1992
▁frequ	-1993
పు	-1994
ircular	-1995
▁linear	-1996
ior	-1997
▁Sup	-1998
▁success	-1999
▁series	-2000
file	-2001
▁∫	-2002
way	-2003
inc	-2004
▁made	-2005
ga	-2006
ought	-2007
▁Train	-2008
▁school	-2009
ired	-2010
▁-2	-2011
88	-2012
pmatrix	-2013
rier	-2014
igrating	-2015
land	-2016
rie	-2017
ude	-2018
value	-2019
score	-2020
▁downtime	-2021
▁mark	-2022
-2	-2023
▁rb	-2024
(10	-2025
idth	-2026
6)	-2027
▁rest	-2028
ron	-2029
ism	-2030
▁search	-2031
స్	-2032
▁differential	-2033
ache	-2034
▁Car	-2035
▁level	-2036
▁dynamic	-2037
▁isomorphic	-2038
▁400	-2039
til	-2040
▁items	-2041
ingle	-2042
gin	-2043
ాలయం	-2044
▁ఈ	-2045
▁critical	-2046
▁vector	-2047
mer	-2048
▁<=	-2049
▁\[	-2050
▁//	-2051
▁like	-2052
▁cycl	-2053
ful	-2054
gre	-2055
▁lit	-2056
/3)	-2057
▁block	-2058
ోద	-2059
onent	-2060
9.	-2061
▁చే	-2062
▁$3	-2063
ourier	-2064
▁కార్య	-2065
▁exactly	-2066
▁(1/	-2067
ily	-2068
▁వినియోగం	-2069
▁Set	-2070
▁most	-2071
▁deploy	-2072
▁your	-2073
side	-2074
ounds	-2075
aly	-2076
192.168.1.	-2077
oth	-2078
aces	-2079
dx	-2080
▁girls	-2081
▁logs	-2082
▁expression	-2083
ుతు	-2084
ulate	-2085
▁colle	-2086
▁Fourier	-2087
^(-	-2088
67	-2089
ిక	-2090
▁buy	-2091
▁needs	-2092
▁doll	-2093
imal	-2094
▁endpoint	-2095
omic	-2096
illing	-2097
▁implementation	-2098
▁≤	-2099
▁dri	-2100
amp	-2101
▁High	-2102
▁Create	-2103
tead	-2104
omega	-2105
వులు	-2106
▁process	-2107
▁100.0	-2108
▁(1,	-2109
▁piec	-2110
▁top	-2111
▁state	-2112
▁divided	-2113
▁volati	-2114
▁building	-2115
fig	-2116
▁game	-2117
▁opposite	-2118
ples	-2119
istic	-2120
imize	-2121
diction	-2122
▁interval	-2123
off	-2124
▁represent	-2125
▁applic	-2126
▁rema	-2127
ee	-2128
▁direct	-2129
▁Distance	-2130
▁containing	-2131
ott	-2132
▁conver	-2133
▁interest	-2134
irm	-2135
▁cannot	-2136
var	-2137
me	-2138
list	-2139
▁sqrt	-2140
▁sample	-2141
▁dy	-2142
▁dev	-2143
జు	-2144
▁Check	-2145
▁clean	-2146
mbols	-2147
=1	-2148
▁ins	-2149
▁failure	-2150
son	-2151
▁fri	-2152
▁moving	-2153
ody	-2154
▁Sylow	-2155
▁sho	-2156
భి	-2157
──	-2158
37	-2159
conn	-2160
▁message	-2161
▁4)	-2162
▁(0.	-2163
▁Suppose	-2164
42	-2165
ane	-2166
58	-2167
esigning	-2168
ilt	-2169
▁occur	-2170
▁sw	-2171
orth	-2172
▁...	-2173
▁pip	-2174
verse	-2175
)]	-2176
▁$1	-2177
▁1/3	-2178
▁heading	-2179
▁related	-2180
rid	-2181
▁pat	-2182
▁cyclic	-2183
ark	-2184
▁him	-2185
▁సిని	-2186
39	-2187
▁bin	-2188
ordin	-2189
formation	-2190
▁across	-2191
\]	-2192
▁Res	-2193
▁part	-2194
^1	-2195
▁శ	-2196
igen	-2197
▁loops	-2198
▁Form	-2199
▁inches	-2200
ients	-2201
▁fraction	-2202
▁(0,	-2203
▁పోష	-2204
/∂	-2205
resp	-2206
▁symp	-2207
▁remainder	-2208
▁autom	-2209
▁model	-2210
రుగ	-2211
▁limit	-2212
▁ris	-2213
ventory	-2214
▁employ	-2215
▁causing	-2216
RE	-2217
_4	-2218
cy	-2219
బ్ల	-2220
.2	-2221
ell	-2222
▁Ob	-2223
▁security	-2224
.,	-2225
7)	-2226
ilest	-2227
ERE	-2228
▁relationship	-2229
loor	-2230
umber	-2231
▁safety	-2232
uting	-2233
▁smallest	-2234
త్ర	-2235
▁roll	-2236
".	-2237
circ	-2238
rate	-2239
co	-2240
stand	-2241
▁enti	-2242
▁subgroup	-2243
▁child	-2244
rack	-2245
▁కేంద్రం	-2246
▁Per	-2247
▁Given	-2248
▁Problem	-2249
aw	-2250
▁example	-2251
▁DESC	-2252
▁Equation	-2253
▁విద్యుత్	-2254
ము	-2255
ype	-2256
ested	-2257
ream	-2258
raint	-2259
▁flags	-2260
▁version	-2261
acter	-2262
ensor	-2263
length	-2264
}(	-2265
ough	-2266
▁engineering	-2267
"]	-2268
▁రో	-2269
▁rows	-2270
▁store	-2271
▁low	-2272
▁deviation	-2273
ivid	-2274
▁five	-2275
64	-2276
0.0	-2277
ROM	-2278
▁sympy	-2279
68	-2280
:0	-2281
rehen	-2282
%.	-2283
(2)	-2284
HERE	-2285
^4	-2286
eta	-2287
▁II	-2288
▁men	-2289
values	-2290
▁digits	-2291
mit	-2292
▁FROM	-2293
ization	-2294
sub	-2295
5.	-2296
▁contin	-2297
▁comprehen	-2298
▁bus	-2299
▁typ	-2300
▁మార్	-2301
▁Project	-2302
ares	-2303
tional	-2304
▁could	-2305
0),	-2306
▁wal	-2307
illion	-2308
statement	-2309
▁WHERE	-2310
▁dollars	-2311
ences	-2312
▁largest	-2313
▁"""	-2314
▁lim	-2315
▁analy	-2316
AB	-2317
(0.	-2318
atch	-2319
▁సాగ	-2320
▁item	-2321
raft	-2322
▁structured	-2323
▁ring	-2324
agination	-2325
ilestones	-2326
tex	-2327
▁above	-2328
వసరాల	-2329
▁che	-2330
▁divisible	-2331
79	-2332
odes	-2333
atisf	-2334
▁solutions	-2335
velo	-2336
(4	-2337
▁med	-2338
▁paths	-2339
▁Objective	-2340
pha	-2341
ull	-2342
1_000	-2343
stage	-2344
▁comprehensive	-2345
▁By	-2346
▁Each	-2347
▁Formulate	-2348
__	-2349
▁city	-2350
boxed	-2351
▁boot	-2352
OT	-2353
▁bas	-2354
▁(2,	-2355
utral	-2356
▁greater	-2357
ned	-2358
tail	-2359
▁fall	-2360
▁being	-2361
▁email	-2362
▁member	-2363
ses	-2364
down	-2365
▁సౌకర్యాలు	-2366
▁SQL	-2367
స్తున్న	-2368
▁When	-2369
▁create	-2370
▁simple	-2371
▁(10	-2372
▁3.0	-2373
▁connection	-2374
eyset	-2375
▁steps	-2376
▁factors	-2377
▁odd	-2378
▁hom	-2379
▁Planning	-2380
▁λ	-2381
▁rates	-2382
IC	-2383
▁+=	-2384
▁Risk	-2385
▁satisf	-2386
▁deployment	-2387
ands	-2388
▁large	-2389
ries	-2390
▁sym	-2391
▁phases	-2392
▁tok	-2393
ZE	-2394
aug	-2395
imeter	-2396
▁capac	-2397
▁contra	-2398
▁latency	-2399
▁best	-2400
▁dual	-2401
▁expected	-2402
▁modes	-2403
55	-2404
▁మార్కె	-2405
prod	-2406
▁Exp	-2407
▁six	-2408
▁risks	-2409
▁bought	-2410
▁tables	-2411
equ	-2412
7.	-2413
34	-2414
▁Pr	-2415
▁fil	-2416
query	-2417
▁5/	-2418
▁ref	-2419
▁percentage	-2420
+2	-2421
place	-2422
▁Execution	-2423
km	-2424
▁respect	-2425
SIZE	-2426
▁New	-2427
▁Solve	-2428
▁frequency	-2429
▁exam	-2430
UFF	-2431
oint	-2432
UFFER	-2433
▁volatile	-2434
నరు	-2435
ances	-2436
aving	-2437
DE	-2438
▁Highlight	-2439
▁Milestones	-2440
91	-2441
ణి	-2442
▁player	-2443
▁automated	-2444
▁Request	-2445
itude	-2446
▁జరుగ	-2447
▁unique	-2448
LECT	-2449
ches	-2450
▁gives	-2451
▁devices	-2452
టీ	-2453
▁load	-2454
▁Mitigations	-2455
bles	-2456
▁4**:	-2457
▁5**:	-2458
▁వనరు	-2459
▁correct	-2460
▁may	-2461
aint	-2462
త్ప	-2463
▁proper	-2464
▁manag	-2465
▁theorem	-2466
▁72	-2467
cost	-2468
▁constraint	-2469
▁42	-2470
▁Conn	-2471
▁Memory	-2472
med	-2473
120	-2474
oid	-2475
▁len	-2476
▁ఉత్ప	-2477
▁domain	-2478
▁multiple	-2479
▁∂	-2480
go	-2481
dump	-2482
=2	-2483
▁required	-2484
_0_	-2485
▁0.1	-2486
iff	-2487
▁firm	-2488
aught	-2489
▁temper	-2490
ిన	-2491
ister	-2492
)/	-2493
▁124	-2494
▁distribution	-2495
500	-2496
valu	-2497
vers	-2498
onents	-2499
inventory	-2500
ert	-2501
ters	-2502
ంటల	-2503
▁functions	-2504
72	-2505
▁పాటు	-2506
_0013	-2507
%,	-2508
ury	-2509
▁cons	-2510
▁0)	-2511
ared	-2512
ynomial	-2513
ann	-2514
orld	-2515
_0017	-2516
factor	-2517
oding	-2518
▁another	-2519
9,	-2520
ూల	-2521
▁వనరుల	-2522
▁$10	-2523
▁They	-2524
▁sets	-2525
ited	-2526
sian	-2527
▁2.4	-2528
▁road	-2529
▁గంటల	-2530
▁retrie	-2531
ness	-2532
▁John	-2533
▁around	-2534
▁enc	-2535
▁star	-2536
+1)	-2537
▁cls	-2538
bstitute	-2539
▁don	-2540
_0014	-2541
▁constru	-2542
▁corresp	-2543
▁information	-2544
omet	-2545
▁try	-2546
_0018	-2547
▁pattern	-2548
dy	-2549
_0016	-2550
ration	-2551
▁Implement	-2552
^\	-2553
▁att	-2554
▁open	-2555
ంజ	-2556
times	-2557
▁blue	-2558
▁ఉత్పత్తి	-2559
▁వ్యవసాయానికి	-2560
{3	-2561
▁marks	-2562
▁hardware	-2563
▁integral	-2564
ils	-2565
▁tank	-2566
▁final	-2567
force	-2568
▁stock	-2569
▁round	-2570
files	-2571
sid	-2572
_001	-2573
memory	-2574
▁pounds	-2575
▁wants	-2576
▁created	-2577
_0019	-2578
bytes	-2579
▁lines	-2580
stud	-2581
ండ	-2582
▁రా	-2583
▁180	-2584
▁verify	-2585
▁capacity	-2586
test	-2587
email	-2588
ived	-2589
http	-2590
▁Sim	-2591
▁assum	-2592
▁As	-2593
leted	-2594
▁elif	-2595
▁exceeding	-2596
tmp	-2597
till	-2598
▁లే	-2599
▁Bob	-2600
▁polynomial	-2601
/10	-2602
▁gu	-2603
▁our	-2604
speed	-2605
▁రోజు	-2606
▁Red	-2607
amma	-2608
▁additional	-2609
▁application	-2610
▁subject	-2611
la	-2612
▁cal	-2613
▁temperature	-2614
ties	-2615
▁$$\	-2616
dig	-2617
▁states	-2618
ision	-2619
._	-2620
▁జన	-2621
▁folder	-2622
▁character	-2623
*(	-2624
tics	-2625
."	-2626
▁$4	-2627
ality	-2628
▁months	-2629
uler	-2630
users	-2631
▁wave	-2632
number	-2633
records	-2634
▁transform	-2635
▁again	-2636
delete	-2637
▁σ	-2638
▁look	-2639
▁without	-2640
▁condition	-2641
reak	-2642
▁type	-2643
▁client	-2644
{2	-2645
▁sem	-2646
ret	-2647
arch	-2648
entif	-2649
billing	-2650
send	-2651
ividual	-2652
inally	-2653
▁2-	-2654
ented	-2655
▁asso	-2656
▁telemetry	-2657
▁36000	-2658
▁'/	-2659
▁desc	-2660
▁peer	-2661
ilar	-2662
▁64	-2663
▁మూల	-2664
▁disc	-2665
▁`[	-2666
104:	-2667
▁బ్య	-2668
▁[14	-2669
▁Ver	-2670
▁act	-2671
ically	-2672
▁Execute	-2673
▁simpl	-2674
▁testing	-2675
▁dot	-2676
▁calculator	-2677
11]	-2678
▁ow	-2679
▁present	-2680
కా	-2681
:02:	-2682
aves	-2683
▁Resolve	-2684
▁production	-2685
▁Connection	-2686
:02:11]	-2687
▁[14:02:11]	-2688
▁notify	-2689
ను	-2690
▁]`	-2691
▁associ	-2692
▁reachable	-2693
▁iteration	-2694
▁notifications	-2695
ah	-2696
▁dou	-2697
sig	-2698
"}`	-2699
_0012	-2700
▁మూలాలు	-2701
api	-2702
vity	-2703
/9	-2704
ల్	-2705
RIT	-2706
▁4.0	-2707
▁smaller	-2708
ంప	-2709
▁sl	-2710
_0015	-2711
▁sen	-2712
▁55	-2713
▁బ్యాం	-2714
▁mach	-2715
▁multiply	-2716
tegra	-2717
▁buffer	-2718
▁defined	-2719
graph	-2720
▁classes	-2721
oman	-2722
8_	-2723
▁సినిమా	-2724
తి	-2725
▁6,	-2726
8)	-2727
▁hr	-2728
▁250	-2729
▁center	-2730
ాప	-2731
enn	-2732
ంజరు	-2733
▁బంజరు	-2734
▁contains	-2735
aj	-2736
{1}{2}	-2737
ward	-2738
_0010	-2739
▁along	-2740
▁sorted	-2741
▁replication	-2742
▁son	-2743
eries	-2744
▁plane	-2745
▁vertex	-2746
▁balls	-2747
▁Su	-2748
▁hyp	-2749
▁eigen	-2750
etch	-2751
▁far	-2752
▁error	-2753
▁cutover	-2754
▁spent	-2755
▁took	-2756
▁denote	-2757
▁Migrating	-2758
hour	-2759
class	-2760
▁costs	-2761
▁limits	-2762
fit	-2763
▁well	-2764
angent	-2765
▁father	-2766
▁within	-2767
0000	-2768
▁manager	-2769
bf	-2770
ustom	-2771
▁65	-2772
ICAL	-2773
▁False	-2774
▁Gre	-2775
figure	-2776
ధి	-2777
created	-2778
▁currently	-2779
agon	-2780
"],	-2781
జ్య	-2782
ament	-2783
▁True	-2784
▁-0.	-2785
▁follows	-2786
▁distributed	-2787
▁7,	-2788
▁hig	-2789
▁raw	-2790
▁stra	-2791
▁server	-2792
మ్	-2793
ees	-2794
▁edges	-2795
subgroup	-2796
▁Hence	-2797
hern	-2798
▁adj	-2799
▁$(	-2800
0)--	-2801
▁array	-2802
▁0.2	-2803
▁fallback	-2804
▁coefficients	-2805
▁av	-2806
▁es	-2807
RITICAL	-2808
-3	-2809
▁divide	-2810
▁individual	-2811
▁{1,	-2812
▁instead	-2813
▁hand	-2814
▁&=	-2815
▁loss	-2816
ech	-2817
▁iterations	-2818
amb	-2819
rol	-2820
inct	-2821
sure	-2822
vious	-2823
tition	-2824
▁increase	-2825
▁stations	-2826
tle	-2827
students	-2828
▁support	-2829
_0020	-2830
▁loop	-2831
▁options	-2832
▁generate	-2833
ending	-2834
2_	-2835
▁tick	-2836
▁Enforce	-2837
ెం	-2838
▁vis	-2839
weight	-2840
_013	-2841
▁600	-2842
anges	-2843
▁Configure	-2844
1_	-2845
user	-2846
▁job	-2847
▁mag	-2848
clu	-2849
▁Sc	-2850
els	-2851
clude	-2852
97	-2853
yle	-2854
udget	-2855
▁Number	-2856
ern	-2857
▁7.	-2858
▁pages	-2859
86	-2860
}{2}	-2861
▁post	-2862
▁still	-2863
▁cup	-2864
▁ఇతర	-2865
▁వాణి	-2866
▁Euler	-2867
▁sent	-2868
▁verified	-2869
▁requested	-2870
_012	-2871
▁region	-2872
▁tangent	-2873
▁20%	-2874
▁based	-2875
ger	-2876
anation	-2877
▁coordin	-2878
duct	-2879
▁వాణిజ్య	-2880
▁user	-2881
egative	-2882
▁Space	-2883
▁leave	-2884
▁walk	-2885
▁apples	-2886
node	-2887
▁components	-2888
▁Ad	-2889
aking	-2890
▁determin	-2891
▁4:	-2892
_0005	-2893
▁pieces	-2894
)(	-2895
▁fund	-2896
డా	-2897
▁ఎ	-2898
▁children	-2899
aster	-2900
▁option	-2901
్యం	-2902
▁ass	-2903
telemetry	-2904
్థ	-2905
cat	-2906
asure	-2907
▁లేని	-2908
▁ent	-2909
▁From	-2910
▁invest	-2911
▁specific	-2912
▁bott	-2913
▁including	-2914
_002	-2915
▁eff	-2916
▁distinct	-2917
92	-2918
▁mother	-2919
▁0$	-2920
alle	-2921
▁1/4	-2922
map	-2923
▁10.	-2924
▁built	-2925
▁colum	-2926
▁Player	-2927
▁ground	-2928
▁Pagination	-2929
ife	-2930
ished	-2931
velop	-2932
▁bool	-2933
▁Keyset	-2934
▁coefficient	-2935
ran	-2936
▁వారం	-2937
▁letters	-2938
▁Designing	-2939
87	-2940
▁-3	-2941
▁mo	-2942
new	-2943
▁det	-2944
▁decimal	-2945
....	-2946
▁Se	-2947
▁Coding	-2948
▁players	-2949
దల	-2950
ారా	-2951
lower	-2952
▁previous	-2953
=\	-2954
▁AM	-2955
▁Draft	-2956
lation	-2957
cm	-2958
▁సమీ	-2959
▁selected	-2960
▁correspond	-2961
1:	-2962
▁$6	-2963
ifold	-2964
▁circular	-2965
32_	-2966
▁3-	-2967
olds	-2968
result	-2969
కృ	-2970
col	-2971
▁ages	-2972
▁cook	-2973
▁(6	-2974
▁pairs	-2975
▁obtain	-2976
year	-2977
▁break	-2978
factorial	-2979
*2	-2980
84	-2981
spsc	-2982
▁name	-2983
▁custom	-2984
▁perimeter	-2985
/7	-2986
order	-2987
▁BUFFER	-2988
ెలు	-2989
angu	-2990
(5	-2991
▁∩	-2992
▁9.	-2993
imiter	-2994
▁firmware	-2995
index	-2996
itial	-2997
▁alloc	-2998
append	-2999
▁hypot	-3000
ON	-3001
▁ampl	-3002
rea	-3003
రణ	-3004
ానం	-3005
▁One	-3006
▁those	-3007
▁arrange	-3008
▁position	-3009
ష్	-3010
▁Dat	-3011
▁pri	-3012
▁signific	-3013
ROR	-3014
rip	-3015
comes	-3016
▁see	-3017
▁Redis	-3018
reatest	-3019
▁products	-3020
▁successful	-3021
cept	-3022
():	-3023
_01	-3024
angular	-3025
ball	-3026
hema	-3027
▁upd	-3028
▁reac	-3029
▁beh	-3030
▁diam	-3031
entity	-3032
▁φ	-3033
▁win	-3034
ording	-3035
ires	-3036
▁friends	-3037
▁retrieve	-3038
(2,	-3039
▁quad	-3040
())	-3041
hom	-3042
ler	-3043
▁allow	-3044
94	-3045
▁veloc	-3046
▁module	-3047
▁52	-3048
_010	-3049
▁bro	-3050
▁marbles	-3051
ploy	-3052
_0002	-3053
alpha	-3054
▁explanation	-3055
oted	-3056
eks	-3057
▁words	-3058
▁covered	-3059
▁inverse	-3060
izz	-3061
▁grow	-3062
▁బ్యాంకు	-3063
▁(3,	-3064
▁fam	-3065
▁link	-3066
▁known	-3067
-1,	-3068
posi	-3069
▁report	-3070
▁variable	-3071
/(	-3072
align	-3073
imin	-3074
▁Sol	-3075
▁ann	-3076
▁way	-3077
▁boxes	-3078
▁@	-3079
▁fill	-3080
▁gall	-3081
▁integra	-3082
▁Comp	-3083
tom	-3084
▁1.5	-3085
▁until	-3086
▁sphere	-3087
శా	-3088
▁fourth	-3089
apun	-3090
uck	-3091
కం	-3092
▁provide	-3093
▁450	-3094
gy	-3095
▁44	-3096
ales	-3097
ests	-3098
omen	-3099
▁got	-3100
solve	-3101
▁metric	-3102
da	-3103
▁54	-3104
▁track	-3105
▁single	-3106
free	-3107
▁roots	-3108
▁performance	-3109
▁8.	-3110
▁చె	-3111
olved	-3112
▁goal	-3113
^2}	-3114
▁Le	-3115
medi	-3116
ctors	-3117
▁root	-3118
▁maximize	-3119
0,000	-3120
▁Note	-3121
atives	-3122
▁nodes	-3123
▁among	-3124
dict	-3125
▁exceeds	-3126
▁Up	-3127
apunov	-3128
gan	-3129
price	-3130
▁cards	-3131
▁produce	-3132
▁calculations	-3133
message	-3134
▁double	-3135
TL	-3136
)))	-3137
▁token	-3138
ిక్	-3139
omin	-3140
్రాలు	-3141
▁budget	-3142
(3)	-3143
▁బాల	-3144
▁estim	-3145
▁రూ	-3146
']	-3147
appro	-3148
▁Sh	-3149
▁10:	-3150
entify	-3151
ene	-3152
ublic	-3153
ailment	-3154
ails	-3155
_0003	-3156
▁align	-3157
ntailment	-3158
▁rectangle	-3159
ival	-3160
▁home	-3161
00,	-3162
▁dz	-3163
▁abs	-3164
▁call	-3165
▁needed	-3166
▁architect	-3167
ixed	-3168
SELECT	-3169
▁greatest	-3170
▁share	-3171
rm	-3172
▁బా	-3173
▁--	-3174
▁240	-3175
▁entire	-3176
sic	-3177
▁(8	-3178
▁having	-3179
▁parameters	-3180
▁dir	-3181
acher	-3182
▁place	-3183
$?	-3184
వు	-3185
▁కో	-3186
ched	-3187
ging	-3188
▁Loc	-3189
▁added	-3190
▁calculated	-3191
-\	-3192
arr	-3193
▁langu	-3194
ains	-3195
part	-3196
▁Area	-3197
▁flow	-3198
▁hist	-3199
▁room	-3200
au	-3201
▁Σ	-3202
హా	-3203
▁select	-3204
▁వ్యవస్థ	-3205
▁2/3	-3206
report	-3207
▁members	-3208
▁ω	-3209
ీడి	-3210
ద్ధి	-3211
▁10%	-3212
digit	-3213
▁paid	-3214
swe	-3215
▁trip	-3216
▁weeks	-3217
▁combinations	-3218
,$	-3219
OM	-3220
▁cre	-3221
▁replica	-3222
ually	-3223
▁parts	-3224
▁Finally	-3225
ది	-3226
pend	-3227
▁---	-3228
▁refle	-3229
}^{	-3230
▁received	-3231
+3	-3232
gl	-3233
arrow	-3234
▁curv	-3235
▁110	-3236
prime	-3237
వృ	-3238
}$,	-3239
ైద	-3240
త్తం	-3241
▁Under	-3242
▁whole	-3243
గా	-3244
ton	-3245
▁$100	-3246
▁plug	-3247
హార	-3248
▁cou	-3249
▁modul	-3250
yapunov	-3251
93	-3252
▁8,	-3253
▁లో	-3254
▁10.0	-3255
▁context	-3256
mut	-3257
phi	-3258
rown	-3259
▁manifold	-3260
▁ఆట	-3261
▁గృ	-3262
utive	-3263
▁Audit	-3264
mathcal	-3265
▁change	-3266
▁(1/2)	-3267
/2,	-3268
▁fast	-3269
mathbf	-3270
▁daught	-3271
▁33	-3272
▁56	-3273
▁Verify	-3274
▁jo	-3275
ming	-3276
▁due	-3277
▁particular	-3278
aced	-3279
▁cache	-3280
▁general	-3281
tri	-3282
▁fem	-3283
sen	-3284
▁$12	-3285
▁kil	-3286
▁10,	-3287
▁main	-3288
▁alignment	-3289
▁represents	-3290
▁corresponding	-3291
74	-3292
▁?,	-3293
▁Any	-3294
▁hash	-3295
ission	-3296
ాస	-3297
une	-3298
కృత	-3299
iled	-3300
opt	-3301
▁Ass	-3302
▁later	-3303
=3	-3304
omes	-3305
rand	-3306
▁సాగు	-3307
▁exponent	-3308
oles	-3309
▁జనన	-3310
▁action	-3311
▁SE	-3312
▁seg	-3313
ready	-3314
▁binary	-3315
//	-3316
ipal	-3317
lead	-3318
type	-3319
▁rout	-3320
▁గ్రం	-3321
ips	-3322
▁విధ	-3323
▁విద్యుత్తు	-3324
▁అభి	-3325
▁మరణ	-3326
▁answe	-3327
▁velocity	-3328
axis	-3329
ipher	-3330
aved	-3331
▁sort	-3332
tomcat	-3333
▁bag	-3334
▁purch	-3335
valuate	-3336
▁Update	-3337
▁గ్రంథ	-3338
▁selling	-3339
▁squares	-3340
▁ఆర	-3341
((0,	-3342
ium	-3343
▁dr	-3344
కర్త	-3345
▁equil	-3346
amental	-3347
wed	-3348
▁sql	-3349
▁input	-3350
▁develop	-3351
▁makes	-3352
ంత	-3353
▁95	-3354
pper	-3355
వృద్ధి	-3356
▁games	-3357
▁Option	-3358
▁Database	-3359
9)	-3360
▁Me	-3361
▁symmetric	-3362
73	-3363
arent	-3364
▁bund	-3365
▁full	-3366
▁Solution	-3367
ata	-3368
▁century	-3369
▁increased	-3370
▁List	-3371
secops	-3372
▁apply	-3373
▁describ	-3374
డీ	-3375
room	-3376
racted	-3377
▁మార్కెటి	-3378
▁∪	-3379
▁redu	-3380
metrics	-3381
symbols	-3382
fficient	-3383
▁heav	-3384
▁struct	-3385
hardware	-3386
▁అభివృద్ధి	-3387
=0	-3388
AC	-3389
▁కూ	-3390
▁నమ	-3391
▁oun	-3392
▁పబ్ల	-3393
▁cases	-3394
21	-3395
utta	-3396
▁pizz	-3397
▁payoff	-3398
▁loc	-3399
▁book	-3400
▁continu	-3401
!)	-3402
▁85	-3403
ows	-3404
▁మైద	-3405
ధాన	-3406
▁Deter	-3407
execute	-3408
▁larger	-3409
▁daughter	-3410
dir	-3411
▁away	-3412
▁కార్యకర్త	-3413
ina	-3414
ained	-3415
check	-3416
▁decre	-3417
▁మైదానం	-3418
ders	-3419
త్రిక	-3420
▁fish	-3421
▁Locate	-3422
▁always	-3423
omorphism	-3424
▁employees	-3425
కాహార	-3426
▁పోలి	-3427
▁paralle	-3428
▁గ్రంథాలయం	-3429
The	-3430
ోదు	-3431
▁ఆటల	-3432
▁gets	-3433
▁proxy	-3434
▁వ్యవసాయం	-3435
▁diff	-3436
▁రీడి	-3437
incipal	-3438
▁పబ్లిక్	-3439
▁రీడింగ్	-3440
ift	-3441
▁AB	-3442
▁రూం	-3443
▁reli	-3444
▁నమోదు	-3445
▁Am	-3446
▁cr	-3447
bability	-3448
▁written	-3449
mediately	-3450
▁confidence	-3451
▁sequential	-3452
▁body	-3453
ుతుంది	-3454
▁Alice	-3455
▁cookies	-3456
▁subtract	-3457
▁connected	-3458
(6	-3459
▁49	-3460
▁బాలల	-3461
ుతున్న	-3462
▁విధంగా	-3463
ised	-3464
▁rot	-3465
▁tan	-3466
▁మరణాల	-3467
▁కార్యాలయం	-3468
ked	-3469
ryp	-3470
▁flo	-3471
▁tran	-3472
▁width	-3473
▁million	-3474
lu	-3475
▁ఏ	-3476
థకం	-3477
_005	-3478
orse	-3479
▁Test	-3480
▁cour	-3481
▁పోలింగ్	-3482
ij	-3483
▁పథకం	-3484
▁style	-3485
▁formed	-3486
▁taking	-3487
rup	-3488
days	-3489
▁hit	-3490
▁contradiction	-3491
నీ	-3492
▁≡	-3493
00)	-3494
ood	-3495
▁rule	-3496
▁ప్రధాన	-3497
సం	-3498
por	-3499
ambda	-3500
ratic	-3501
▁keys	-3502
▁ఆరోగ	-3503
▁roadmap	-3504
hest	-3505
▁Chr	-3506
▁అంగ	-3507
cycle	-3508
▁green	-3509
▁results	-3510
63	-3511
ిత	-3512
^2(	-3513
▁38	-3514
▁ఆశా	-3515
meric	-3516
▁కూడా	-3517
▁Determine	-3518
url	-3519
▁women	-3520
▁records	-3521
▁runs	-3522
▁±	-3523
▁RF	-3524
▁study	-3525
▁pick	-3526
▁నిమి	-3527
▁grams	-3528
▁convert	-3529
▁relation	-3530
1.0	-3531
▁white	-3532
▁leading	-3533
area	-3534
▁విన	-3535
కరంగా	-3536
▁గృహా	-3537
▁Roman	-3538
▁already	-3539
▁నిమిత్తం	-3540
▁గృహావసరాల	-3541
కార	-3542
▁హాలు	-3543
ipy	-3544
▁ri	-3545
▁\[\	-3546
▁12.5	-3547
▁discount	-3548
▁machine	-3549
▁[]	-3550
iver	-3551
త్తిన	-3552
▁coordinates	-3553
▁Port	-3554
▁comput	-3555
▁express	-3556
▁నికరంగా	-3557
▁విత్తిన	-3558
orn	-3559
_0008	-3560
width	-3561
▁2000	-3562
▁cars	-3563
▁except	-3564
▁diameter	-3565
▁fundamental	-3566
▁μ	-3567
ibr	-3568
work	-3569
▁వాడీ	-3570
▁అంగన్	-3571
Distance	-3572
12}	-3573
▁160	-3574
▁eat	-3575
▁29	-3576
▁Eu	-3577
bmatrix	-3578
/8	-3579
ceed	-3580
ginx	-3581
▁few	-3582
nginx	-3583
▁సమీకృత	-3584
▁language	-3585
▁negative	-3586
్తాప	-3587
/6	-3588
డ్	-3589
://	-3590
▁Rot	-3591
_1(	-3592
▁2(	-3593
itch	-3594
tivity	-3595
▁divisor	-3596
▁reliable	-3597
cer	-3598
▁∫[	-3599
▁bul	-3600
▁mil	-3601
▁works	-3602
▁inside	-3603
▁Understand	-3604
▁Δ	-3605
▁layer	-3606
్తాపత్రిక	-3607
icks	-3608
▁trave	-3609
connected	-3610
floor	-3611
▁34	-3612
erial	-3613
▁teacher	-3614
▁వార్తాపత్రిక	-3615
rel	-3616
▁6)	-3617
▁contrib	-3618
▁సహ	-3619
lass	-3620
▁125	-3621
DB	-3622
ిణ	-3623
▁0.00	-3624
▁Post	-3625
▁whose	-3626
▁సౌకర్యం	-3627
▁exper	-3628
▁lower	-3629
▁→	-3630
▁(12	-3631
ience	-3632
state	-3633
▁పోషణ	-3634
abelian	-3635
▁ఆరోగ్యం	-3636
69	-3637
▁eq	-3638
outh	-3639
▁వినోద	-3640
dimension	-3641
=0.	-3642
view	-3643
through	-3644
homology	-3645
గు	-3646
bra	-3647
▁CP	-3648
వుతున్న	-3649
▁liters	-3650
▁string	-3651
▁curvature	-3652
([	-3653
ba	-3654
oT	-3655
▁pot	-3656
▁sit	-3657
▁cand	-3658
▁plt	-3659
▁give	-3660
▁text	-3661
▁statement	-3662
▁θ	-3663
▁9,	-3664
▁5.0	-3665
▁light	-3666
▁Americ	-3667
▁becomes	-3668
▁Lyapunov	-3669
▁cohomology	-3670
▁ద్వ	-3671
*3	-3672
OTA	-3673
▁2"	-3674
▁IoT	-3675
▁lengths	-3676
▁material	-3677
00.	-3678
FOTA	-3679
elta	-3680
▁sales	-3681
▁rectangular	-3682
af	-3683
▁0;	-3684
cket	-3685
options	-3686
▁Deploy	-3687
▁chosen	-3688
▁Perform	-3689
aim	-3690
▁No	-3691
▁gen	-3692
▁exist	-3693
▁propor	-3694
▁working	-3695
fty	-3696
▁ax	-3697
echn	-3698
▁1":	-3699
▁Mar	-3700
▁[0,	-3701
▁below	-3702
▁Initial	-3703
pos	-3704
wise	-3705
CRITICAL	-3706
▁Limiter	-3707
throughput	-3708
dimensional	-3709
▁0.8	-3710
arest	-3711
fect	-3712
ital	-3713
▁mis	-3714
▁assume	-3715
▁!	-3716
home	-3717
────	-3718
▁Ext	-3719
atural	-3720
ేతర	-3721
▁maj	-3722
▁sug	-3723
▁పంప	-3724
asing	-3725
▁tree	-3726
▁scipy	-3727
▁python	-3728
▁correlation	-3729
▁done	-3730
▁mass	-3731
▁bar	-3732
▁Solving	-3733
anti	-3734
▁letter	-3735
tradiction	-3736
▁కేంద్రాలు	-3737
resh	-3738
▁bal	-3739
▁analysis	-3740
▁జరుగుతుంది	-3741
be	-3742
cap	-3743
den	-3744
hods	-3745
imes	-3746
nums	-3747
▁2.5	-3748
angles	-3749
▁symbols	-3750
▁partition	-3751
)--	-3752
▁[/	-3753
wedge	-3754
▁host	-3755
▁quar	-3756
encils	-3757
▁పోషకాహార	-3758
▁characteristic	-3759
_6	-3760
lie	-3761
ిణీ	-3762
ominator	-3763
infty	-3764
reports	-3765
▁పంపిణీ	-3766
▁conflic	-3767
▁produced	-3768
*.	-3769
+4	-3770
version	-3771
▁behav	-3772
▁association	-3773
}}	-3774
▁actual	-3775
▁completed	-3776
▁substitute	-3777
▁bundle	-3778
▁sk	-3779
ATAL	-3780
uster	-3781
▁methods	-3782
▁plat	-3783
▁word	-3784
▁nearest	-3785
▁(4,	-3786
▁repe	-3787
sensor	-3788
▁ద్వారా	-3789
/12	-3790
ighb	-3791
▁(45	-3792
▁cipher	-3793
▁extract	-3794
*}	-3795
].	-3796
▁dogs	-3797
▁వినియోగంలో	-3798
▁వ్యవసాయేతర	-3799
▁140	-3800
▁ball	-3801
▁edge	-3802
▁just	-3803
uit	-3804
▁$50	-3805
▁cubic	-3806
▁Station	-3807
▁defective	-3808
▁quadratic	-3809
▁Entailment	-3810
▁tail	-3811
▁Chern	-3812
▁partial	-3813
*)	-3814
array	-3815
▁scores	-3816
aca	-3817
▁xy	-3818
atic	-3819
▁ext	-3820
anged	-3821
method	-3822
▁choos	-3823
▁heavy	-3824
aintain	-3825
▁season	-3826
▁logical	-3827
oDB	-3828
▁put	-3829
lambda	-3830
ేశ	-3831
▁lag	-3832
SET	-3833
Lock	-3834
rodu	-3835
tick	-3836
▁comb	-3837
▁shir	-3838
▁salary	-3839
▁generated	-3840
-4	-3841
▁800	-3842
▁OFF	-3843
▁race	-3844
▁inequ	-3845
▁Single	-3846
▁ounces	-3847
▁$8	-3848
▁1/6	-3849
▁Work	-3850
search	-3851
▁family	-3852
Con	-3853
▁include	-3854
▁rank	-3855
▁Jack	-3856
▁rabb	-3857
▁reads	-3858
▁minute	-3859
▁natural	-3860
+5	-3861
▁≥	-3862
ATE	-3863
admin	-3864
▁Next	-3865
▁pointer	-3866
▁variety	-3867
2),	-3868
వార	-3869
▁(7	-3870
▁0.3	-3871
greSQL	-3872
▁Joint	-3873
▁income	-3874
wh	-3875
▁ke	-3876
▁food	-3877
స్తున్నారు	-3878
▁buildings	-3879
▁PostgreSQL	-3880
▁going	-3881
▁places	-3882
];	-3883
ipp	-3884
▁37	-3885
▁50%	-3886
▁0.05	-3887
ైన	-3888
ాడు	-3889
cial	-3890
https	-3891
venue	-3892
▁hold	-3893
Series	-3894
▁successfully	-3895
.$	-3896
''(	-3897
▁63	-3898
▁66	-3899
ిల్ల	-3900
distance	-3901
▁behavior	-3902
Ar	-3903
▁say	-3904
▁OFFSET	-3905
▁object	-3906
▁parallel	-3907
▁derivatives	-3908
quad	-3909
▁remov	-3910
Search	-3911
▁strateg	-3912
alp	-3913
xyz	-3914
▁31	-3915
aper	-3916
audit	-3917
▁adjac	-3918
▁బావులు	-3919
overline	-3920
solution	-3921
▁dict	-3922
▁gave	-3923
secutive	-3924
ొస	-3925
▁ge	-3926
▁12.	-3927
▁har	-3928
▁200,	-3929
▁Sorted	-3930
▁10)	-3931
▁cha	-3932
▁Array	-3933
$:	-3934
▁claim	-3935
▁constraints	-3936
sys	-3937
Free	-3938
ారుదల	-3939
ailable	-3940
▁Atomic	-3941
▁outcomes	-3942
▁resolution	-3943
play	-3944
▁0.4	-3945
▁node	-3946
▁central	-3947
(3,	-3948
సెం	-3949
▁Col	-3950
▁You	-3951
▁separ	-3952
▁techn	-3953
▁Rotated	-3954
▁analyze	-3955
▁Circular	-3956
rot	-3957
▁$20	-3958
ellow	-3959
▁isol	-3960
include	-3961
▁checks	-3962
82	-3963
uth	-3964
▁good	-3965
▁answers	-3966
▁neutral	-3967
▁satisfy	-3968
}{3	-3969
▁aud	-3970
stream	-3971
PSC	-3972
cep	-3973
▁Ro	-3974
ufact	-3975
▁measure	-3976
56	-3977
mar	-3978
comb	-3979
ators	-3980
▁libr	-3981
▁magn	-3982
▁Buffer	-3983
iving	-3984
▁City	-3985
▁infin	-3986
ecurity	-3987
ferences	-3988
▁pipeline	-3989
_0006	-3990
▁against	-3991
▁combined	-3992
▁చేస్తున్నారు	-3993
':	-3994
ids	-3995
}$$	-3996
▁dog	-3997
▁cube	-3998
▁వస్తు	-3999
neutral	-4000
▁requires	-4001
గ్	-4002
glish	-4003
▁కోసం	-4004
alpaca	-4005
_78	-4006
▁Can	-4007
bil	-4008
▁conflict	-4009
▁principal	-4010
ల్లి	-4011
inter	-4012
▁96	-4013
sent	-4014
▁Ind	-4015
ERROR	-4016
▁5/18	-4017
syslog	-4018
▁amplitude	-4019
▁39	-4020
▁tax	-4021
plies	-4022
▁tickets	-4023
▁manufact	-4024
▁uses	-4025
▁therm	-4026
▁రోజుకు	-4027
contradiction	-4028
no	-4029
▁25%	-4030
▁hel	-4031
▁platform	-4032
▁wind	-4033
1),	-4034
ొసై	-4035
▁exists	-4036
*5	-4037
...	-4038
rows	-4039
since	-4040
ొసైటీ	-4041
▁Pass	-4042
▁propag	-4043
▁సొసైటీ	-4044
▁Question	-4045
▁IN	-4046
▁db	-4047
ects	-4048
▁fru	-4049
▁These	-4050
filepath	-4051
▁optimization	-4052
చ్	-4053
lit	-4054
▁cyl	-4055
▁perfect	-4056
▁identity	-4057
assi	-4058
▁regular	-4059
▁మార్కెటింగ్	-4060
బ్లీ	-4061
▁sensi	-4062
▁delete	-4063
▁record	-4064
స్త	-4065
lack	-4066
lect	-4067
▁valid	-4068
సెంబ్లీ	-4069
▁scored	-4070
31	-4071
hi	-4072
"""	-4073
10,	-4074
▁er	-4075
▁-->	-4076
▁own	-4077
▁account	-4078
dle	-4079
Gamma	-4080
▁Back	-4081
▁fetch	-4082
▁sever	-4083
▁starting	-4084
:00	-4085
▁fit	-4086
▁deleted	-4087
▁అసెంబ్లీ	-4088
▁consecutive	-4089
-5	-4090
0);	-4091
▁spend	-4092
latency	-4093
▁called	-4094
▁resolved	-4095
81	-4096
let	-4097
ault	-4098
▁Int	-4099
▁లభి	-4100
^5	-4101
ooth	-4102
ోంది	-4103
▁once	-4104
▁Print	-4105
▁public	-4106
ke	-4107
ergy	-4108
host	-4109
ంచిన	-4110
overn	-4111
▁sells	-4112
▁strict	-4113
▁thermal	-4114
▁vectors	-4115
▁relatively	-4116
41	-4117
ంటలు	-4118
▁Found	-4119
-2)	-4120
body	-4121
ceeds	-4122
▁With	-4123
▁profiles	-4124
%)	-4125
cut	-4126
msg	-4127
▁App	-4128
^2,	-4129
unch	-4130
clusion	-4131
(*)	-4132
▁46	-4133
mark	-4134
▁0.6	-4135
▁major	-4136
▁diagon	-4137
▁represented	-4138
్రీ	-4139
▁#5	-4140
event	-4141
▁sell	-4142
▁image	-4143
tee	-4144
▁early	-4145
▁40%	-4146
▁tor	-4147
▁begin	-4148
▁instances	-4149
▁approximate	-4150
▁operational	-4151
=$	-4152
_8	-4153
otes	-4154
isted	-4155
▁File	-4156
▁York	-4157
▁drift	-4158
▁smooth	-4159
▁download	-4160
ST	-4161
pop	-4162
uel	-4163
▁Acc	-4164
airs	-4165
▁1/5	-4166
▁Sum	-4167
reach	-4168
▁5000	-4169
depend	-4170
▁పంటలు	-4171
▁column	-4172
విధ	-4173
gebra	-4174
ition	-4175
recip	-4176
▁"/	-4177
▁Bo	-4178
▁mer	-4179
▁plot	-4180
▁అవసరాల	-4181
▁whether	-4182
▁efficient	-4183
▁వస్తువులు	-4184
▁-\	-4185
▁Is	-4186
▁12)	-4187
urther	-4188
▁neighb	-4189
▁rational	-4190
ago	-4191
duk	-4192
▁నీటిప	-4193
▁propagation	-4194
eq	-4195
resolve	-4196
Security	-4197
izes	-4198
=4	-4199
▁పు	-4200
_006	-4201
tice	-4202
ended	-4203
▁numpy	-4204
▁pencils	-4205
▁నీటిపారుదల	-4206
▁లభిస్తున్న	-4207
▁allocations	-4208
/4)	-4209
div	-4210
len	-4211
▁స్	-4212
amber	-4213
aries	-4214
ories	-4215
ctions	-4216
▁atomic	-4217
▁commit	-4218
▁gallons	-4219
classmethod	-4220
oren	-4221
▁$15	-4222
tient	-4223
▁loads	-4224
▁baseline	-4225
init	-4226
iding	-4227
▁hous	-4228
▁risk	-4229
▁empty	-4230
▁వివిధ	-4231
▁female	-4232
▁randomly	-4233
)}	-4234
▁0:	-4235
▁dump	-4236
▁tear	-4237
▁delays	-4238
▁produces	-4239
▁అవుతున్న	-4240
=["	-4241
orenz	-4242
▁events	-4243
▁అవుతున్నాయి	-4244
71	-4245
.2.	-4246
▁rs	-4247
▁III	-4248
▁rewrite	-4249
▁increases	-4250
asket	-4251
▁here	-4252
▁wall	-4253
ometry	-4254
exceeds	-4255
▁permut	-4256
▁theory	-4257
less	-4258
▁124.	-4259
▁Euro	-4260
▁Send	-4261
▁suit	-4262
▁faster	-4263
▁Passage	-4264
5829	-4265
=8	-4266
KB	-4267
▁All	-4268
percent	-4269
▁transp	-4270
=(	-4271
top	-4272
aches	-4273
▁denominator	-4274
▁bat	-4275
Audit	-4276
▁Runge	-4277
▁Delete	-4278
hostname	-4279
▁archive	-4280
▁mathema	-4281
▁timeout	-4282
▁Extracted	-4283
200	-4284
▁99	-4285
Kutta	-4286
▁cans	-4287
▁ping	-4288
▁resid	-4289
▁Created	-4290
చ్చ	-4291
▁oil	-4292
▁color	-4293
▁world	-4294
deleted	-4295
▁started	-4296
dns	-4297
▁0.9	-4298
▁tre	-4299
scill	-4300
▁Other	-4301
▁Required	-4302
▁hostname	-4303
▁notification	-4304
▁reachability	-4305
}}`	-4306
▁['	-4307
grep	-4308
▁Grep	-4309
▁sine	-4310
582912}	-4311
recipient	-4312
▁12582912}	-4313
▁combination	-4314
IM	-4315
des	-4316
sim	-4317
▁84	-4318
="*.	-4319
cing	-4320
next	-4321
▁1}`	-4322
▁"1.0	-4323
▁median	-4324
CD	-4325
bal	-4326
ley	-4327
ుతోంది	-4328
▁1.0.2.	-4329
▁higher	-4330
▁uptime	-4331
▁circles	-4332
▁immediately	-4333
.2",	-4334
uptime	-4335
▁2.4}`	-4336
▁45091	-4337
▁Saved	-4338
▁36000,	-4339
▁Backup	-4340
reachable	-4341
▁"1.0.2",	-4342
▁operation	-4343
run	-4344
▁360	-4345
89"}`	-4346
▁124}`	-4347
▁making	-4348
▁45091}`	-4349
set	-4350
▁$7	-4351
mean	-4352
▁art	-4353
▁fixed	-4354
▁influ	-4355
▁itself	-4356
SW	-4357
iss	-4358
▁date	-4359
▁switch	-4360
▁సాగునీ	-4361
▁జరుగుతోంది	-4362
▁3*	-4363
pass	-4364
▁land	-4365
▁sale	-4366
▁weigh	-4367
▁parameter	-4368
3:	-4369
nd	-4370
▁3),	-4371
▁elect	-4372
▁Product	-4373
▁(\	-4374
vari	-4375
▁(1-	-4376
▁bir	-4377
▁gas	-4378
▁backend	-4379
=5	-4380
══	-4381
iter	-4382
^(-1)	-4383
atures	-4384
▁—	-4385
▁OR	-4386
entim	-4387
▁Which	-4388
iminate	-4389
▁billion	-4390
▁cluster	-4391
▁ep	-4392
▁hrs	-4393
ument	-4394
▁Indi	-4395
▁coins	-4396
▁dirty	-4397
abilities	-4398
▁directly	-4399
▁component	-4400
.5,	-4401
▁సాగునీరు	-4402
aps	-4403
▁TTL	-4404
▁nec	-4405
iness	-4406
▁chamber	-4407
▁transmit	-4408
^2+	-4409
ugu	-4410
▁Add	-4411
▁foot	-4412
▁centim	-4413
▁energy	-4414
▁initiate	-4415
▁projective	-4416
▁hy	-4417
▁His	-4418
▁oscill	-4419
▁resulting	-4420
ేష	-4421
.0,	-4422
ape	-4423
otic	-4424
▁audits	-4425
/18	-4426
▁-4	-4427
▁Val	-4428
adiff	-4429
▁Chic	-4430
▁note	-4431
cutover	-4432
▁routers	-4433
▁updates	-4434
Migrating	-4435
▁Maintain	-4436
▁datadiff	-4437
▁teardown	-4438
▁factorial	-4439
ney	-4440
och	-4441
▁6**:	-4442
▁move	-4443
▁alone	-4444
▁filled	-4445
▁Replication	-4446
jo	-4447
°)	-4448
aily	-4449
▁Rem	-4450
▁assig	-4451
▁individuals	-4452
pen	-4453
▁law	-4454
_0007	-4455
▁According	-4456
az	-4457
ండల	-4458
▁mi	-4459
▁జిల్ల	-4460
▁growth	-4461
position	-4462
)*	-4463
▁identify	-4464
ki	-4465
సు	-4466
▁88	-4467
▁సంత	-4468
▁Compute	-4469
▁quarter	-4470
ef	-4471
▁able	-4472
▁indu	-4473
▁Point	-4474
▁artic	-4475
▁genus	-4476
▁adjacent	-4477
▁∈	-4478
▁5%	-4479
▁dem	-4480
▁bucket	-4481
▁brother	-4482
▁triangles	-4483
▁directions	-4484
▁△	-4485
12,	-4486
▁serv	-4487
▁pizza	-4488
)$.	-4489
125	-4490
▁eg	-4491
pple	-4492
▁Lo	-4493
rium	-4494
tesian	-4495
▁Chicago	-4496
▁concent	-4497
▁details	-4498
AR	-4499
iam	-4500
unt	-4501
ush	-4502
▁mu	-4503
▁Jul	-4504
▁black	-4505
ram	-4506
▁2),	-4507
ashed	-4508
▁soft	-4509
▁algebra	-4510
▁binomial	-4511
▁considered	-4512
{(	-4513
def	-4514
ifth	-4515
▁15.	-4516
▁Del	-4517
▁English	-4518
▁minimize	-4519
▁traveled	-4520
bstituting	-4521
▁192.168.1.	-4522
="192.168.1.	-4523
▁"192.168.1.	-4524
://192.168.1.	-4525
-25	-4526
orre	-4527
▁chocol	-4528
▁orders	-4529
▁Mr	-4530
ills	-4531
vial	-4532
▁12,	-4533
▁card	-4534
▁defin	-4535
▁Express	-4536
▁ten	-4537
enuse	-4538
▁significant	-4539
uid	-4540
గ్గ	-4541
▁tall	-4542
▁north	-4543
ception	-4544
▁circuit	-4545
123	-4546
▁5:	-4547
▁>=	-4548
రం	-4549
fol	-4550
key	-4551
base	-4552
▁మండల	-4553
▁coupl	-4554
▁ensure	-4555
▁quanti	-4556
ky	-4557
వా	-4558
=10	-4559
▁!=	-4560
core	-4561
hedral	-4562
▁10000	-4563
▁routing	-4564
▁potential	-4565
▁centimeters	-4566
$-	-4567
}_	-4568
."""	-4569
ears	-4570
▁cups	-4571
▁turn	-4572
▁flash	-4573
▁market	-4574
▁several	-4575
^{-	-4576
blems	-4577
olume	-4578
▁0.25	-4579
▁types	-4580
▁candid	-4581
▁register	-4582
▁Substitute	-4583
)|	-4584
cls	-4585
▁$0	-4586
▁cents	-4587
▁construction	-4588
OR	-4589
subs	-4590
▁And	-4591
active	-4592
▁circum	-4593
▁chaotic	-4594
▁oranges	-4595
spec	-4596
▁Out	-4597
netic	-4598
▁prac	-4599
▁grade	-4600
▁simul	-4601
▁leaves	-4602
▁available	-4603
▁du	-4604
limit	-4605
▁keep	-4606
▁rabbits	-4607
dependent	-4608
రప	-4609
▁ft	-4610
▁Morse	-4611
▁bread	-4612
▁highest	-4613
▁similar	-4614
placement	-4615
▁couplers	-4616
week	-4617
nings	-4618
onday	-4619
ుల	-4620
/5)	-4621
456	-4622
van	-4623
▁Lu	-4624
based	-4625
▁(100	-4626
▁rather	-4627
▁segment	-4628
160	-4629
attle	-4630
▁1/12	-4631
action	-4632
▁Europe	-4633
▁modulo	-4634
▁pointers	-4635
▁isolation	-4636
pre	-4637
}{4	-4638
▁IP	-4639
▁చేయ	-4640
▁boat	-4641
subgroups	-4642
▁included	-4643
▁eigenvalues	-4644
▁integration	-4645
)\	-4646
_008	-4647
race	-4648
ibrium	-4649
▁meter	-4650
▁annual	-4651
▁simplify	-4652
▁β	-4653
(4,	-4654
data	-4655
▁bric	-4656
▁help	-4657
▁scen	-4658
▁subs	-4659
▁earned	-4660
▁equival	-4661
▁evaluate	-4662
nx	-4663
(5)	-4664
with	-4665
వారీ	-4666
▁getting	-4667
▁మార్కెట్	-4668
▁మొ	-4669
▁Bri	-4670
▁beta	-4671
▁indic	-4672
▁recur	-4673
▁angles	-4674
▁questions	-4675
ED	-4676
త్	-4677
tok	-4678
▁77	-4679
ding	-4680
▁Jan	-4681
ratio	-4682
▁gain	-4683
▁areas	-4684
▁జిల్లా	-4685
▁variance	-4686
▁రోజువారీ	-4687
OOM	-4688
ession	-4689
ounted	-4690
▁upper	-4691
▁enough	-4692
▁references	-4693
abu	-4694
ప్ప	-4695
▁Fri	-4696
▁fig	-4697
▁spends	-4698
bar	-4699
rop	-4700
▁Ca	-4701
_014	-4702
▁6.0	-4703
▁Plug	-4704
▁goes	-4705
Designing	-4706
▁composite	-4707
-8	-4708
2(	-4709
▁47	-4710
▁trig	-4711
ateral	-4712
▁shown	-4713
▁obtained	-4714
▁understand	-4715
=6	-4716
▁vi	-4717
▁0$.	-4718
▁dam	-4719
_0009	-4720
▁Cache	-4721
{5	-4722
cks	-4723
▁ol	-4724
▁30%	-4725
▁60%	-4726
▁air	-4727
▁slo	-4728
▁triple	-4729
▁solving	-4730
sm	-4731
▁Ph	-4732
▁{2,	-4733
▁near	-4734
▁strategy	-4735
▁subgroups	-4736
▁prom	-4737
▁sand	-4738
▁Index	-4739
rank	-4740
▁became	-4741
▁country	-4742
▁markers	-4743
▁problems	-4744
▁reference	-4745
St	-4746
400	-4747
bert	-4748
▁est	-4749
▁Gaus	-4750
1(	-4751
---	-4752
▁4*	-4753
▁El	-4754
▁passes	-4755
▁tensor	-4756
0.5	-4757
(10,	-4758
loader	-4759
▁altern	-4760
▁denoted	-4761
▁dimensions	-4762
IN	-4763
ev	-4764
na	-4765
squ	-4766
▁-5	-4767
elly	-4768
gory	-4769
▁4),	-4770
▁Cal	-4771
▁Case	-4772
raction	-4773
▁receive	-4774
▁revenue	-4775
deg	-4776
goal	-4777
▁(20	-4778
▁arc	-4779
hours	-4780
▁cycle	-4781
▁false	-4782
▁short	-4783
▁సహకార	-4784
▁lookup	-4785
▁speeds	-4786
linewidth	-4787
▁important	-4788
^2$	-4789
dec	-4790
lor	-4791
▁1),	-4792
▁sing	-4793
▁rollout	-4794
▁bootloader	-4795
EM	-4796
▁La	-4797
▁Pa	-4798
aling	-4799
erson	-4800
▁11.	-4801
▁aff	-4802
▁1200	-4803
▁United	-4804
▁consists	-4805
hat	-4806
▁62	-4807
come	-4808
ored	-4809
zero	-4810
tected	-4811
▁World	-4812
▁floor	-4813
ategory	-4814
▁parent	-4815
▁station	-4816
▁satisfies	-4817
+\	-4818
▁rain	-4819
▁repl	-4820
ఎమ్	-4821
ison	-4822
▁rev	-4823
▁inves	-4824
▁complement	-4825
▁independent	-4826
.)	-4827
}.\]	-4828
న్ని	-4829
▁3/4	-4830
points	-4831
numbers	-4832
▁finite	-4833
▁hypothes	-4834
▁Cartesian	-4835
▁Deploying	-4836
▁properties	-4837
1/	-4838
/20	-4839
True	-4840
need	-4841
roll	-4842
plify	-4843
▁said	-4844
▁apart	-4845
▁α	-4846
▁Ge	-4847
▁కొ	-4848
▁Her	-4849
elugu	-4850
▁milk	-4851
▁piece	-4852
▁metres	-4853
ological	-4854
▁divisors	-4855
ించ	-4856
▁('	-4857
▁Mon	-4858
▁park	-4859
▁possibil	-4860
-0	-4861
.00	-4862
iron	-4863
▁won	-4864
books	-4865
టీఎమ్	-4866
▁pipe	-4867
▁assert	-4868
▁necess	-4869
▁evidence	-4870
▁began	-4871
▁library	-4872
▁Indexing	-4873
▁conclusion	-4874
kg	-4875
▁Cl	-4876
abor	-4877
ript	-4878
▁buys	-4879
▁business	-4880
ym	-4881
DER	-4882
alth	-4883
▁సంఘ	-4884
_0004	-4885
ondon	-4886
▁sche	-4887
▁James	-4888
▁bulbs	-4889
▁party	-4890
▁Lorenz	-4891
▁signal	-4892
▁slices	-4893
▁history	-4894
▁estimate	-4895
▁eliminate	-4896
▁ide	-4897
orrow	-4898
▁designed	-4899
▁ON	-4900
aged	-4901
diff	-4902
▁lay	-4903
▁Char	-4904
▁London	-4905
▁hypotenuse	-4906
etic	-4907
▁Div	-4908
ridge	-4909
▁consum	-4910
▁finish	-4911
▁investment	-4912
tan	-4913
▁Cent	-4914
▁went	-4915
▁monthly	-4916
4_	-4917
▁BY	-4918
ules	-4919
▁వరి	-4920
▁easy	-4921
▁free	-4922
సి	-4923
lev	-4924
rror	-4925
FATAL	-4926
▁ఏటీఎమ్	-4927
▁Theorem	-4928
▁suitable	-4929
tr	-4930
stra	-4931
▁144	-4932
▁Mat	-4933
▁leg	-4934
lying	-4935
▁watch	-4936
▁factory	-4937
rem	-4938
ante	-4939
unction	-4940
pm	-4941
cont	-4942
oper	-4943
▁తెలు	-4944
▁లోపు	-4945
lished	-4946
▁phase	-4947
triangle	-4948
▁described	-4949
▁programming	-4950
mary	-4951
▁SPI	-4952
▁0.01	-4953
▁Some	-4954
▁late	-4955
/15	-4956
3),	-4957
▁ln	-4958
cise	-4959
▁Key	-4960
pping	-4961
▁cong	-4962
▁Initialize	-4963
▁1]	-4964
from	-4965
ailed	-4966
▁Arch	-4967
▁వెలు	-4968
▁agent	-4969
▁houses	-4970
▁implies	-4971
▁ఒ	-4972
}{2	-4973
ctal	-4974
▁20)	-4975
irect	-4976
random	-4977
though	-4978
▁Christ	-4979
▁Plugging	-4980
_007	-4981
tish	-4982
▁swe	-4983
rypted	-4984
▁brown	-4985
▁church	-4986
▁occurs	-4987
rightarrow	-4988
.4	-4989
62	-4990
నే	-4991
(5,	-4992
▁My	-4993
plot	-4994
▁210	-4995
▁fox	-4996
▁pup	-4997
▁yellow	-4998
▁passeng	-4999
'?	-5000
{2}	-5001
olic	-5002
▁443	-5003
▁thus	-5004
▁listed	-5005
▁review	-5006
▁software	-5007
▁slope	-5008
▁neighbor	-5009
▁hypothesis	-5010
Eq	-5011
180	-5012
leq	-5013
▁2\	-5014
▁Fe	-5015
ేషన్	-5016
plane	-5017
▁Mary	-5018
▁safe	-5019
▁tool	-5020
▁provided	-5021
▁determinant	-5022
ded	-5023
gon	-5024
_009	-5025
xture	-5026
▁Similar	-5027
▁timeline	-5028
83	-5029
(100	-5030
reed	-5031
▁epis	-5032
▁payload	-5033
▁equilibrium	-5034
^0	-5035
_7	-5036
ese	-5037
▁Tr	-5038
reet	-5039
▁earn	-5040
▁American	-5041
▁research	-5042
['	-5043
ship	-5044
▁Ins	-5045
▁town	-5046
▁seman	-5047
▁spect	-5048
▁probabilities	-5049
hib	-5050
men	-5051
▁Av	-5052
▁union	-5053
▁Telugu	-5054
▁basket	-5055
▁blocks	-5056
▁cat	-5057
▁past	-5058
cation	-5059
needed	-5060
▁76	-5061
▁__	-5062
radi	-5063
▁song	-5064
▁సంఘం	-5065
▁adult	-5066
▁magnitude	-5067
BC	-5068
+10	-5069
_2)	-5070
rum	-5071
▁(-1	-5072
▁128	-5073
▁mut	-5074
▁Mean	-5075
▁starts	-5076
7:	-5077
▁68	-5078
▁Sub	-5079
▁life	-5080
people	-5081
▁older	-5082
versity	-5083
▁classi	-5084
▁therefore	-5085
ief	-5086
▁2^	-5087
▁81	-5088
itor	-5089
▁Jac	-5090
▁స్ట	-5091
▁candy	-5092
▁chooses	-5093
▁Substituting	-5094
my	-5095
_{\	-5096
▁20,	-5097
▁secret	-5098
▁approach	-5099
▁customers	-5100
▁significance	-5101
pies	-5102
▁Bar	-5103
▁hen	-5104
▁daily	-5105
▁Working	-5106
▁inequality	-5107
50,	-5108
▁41	-5109
▁105	-5110
▁continuous	-5111
In	-5112
^1(	-5113
పలి	-5114
ూర్	-5115
▁3(	-5116
gest	-5117
▁But	-5118
▁hum	-5119
▁lad	-5120
balls	-5121
▁cone	-5122
▁ORDER	-5123
iem	-5124
▁పె	-5125
▁1/8	-5126
andra	-5127
▁float	-5128
▁worth	-5129
dog	-5130
ony	-5131
uts	-5132
▁58	-5133
▁accu	-5134
▁shor	-5135
isters	-5136
▁impro	-5137
▁commun	-5138
▁తెలుగు	-5139
)=	-5140
▁య	-5141
folio	-5142
▁lear	-5143
▁Peter	-5144
▁press	-5145
▁votes	-5146
▁congru	-5147
▁ordered	-5148
▁decision	-5149
▁positions	-5150
▁transport	-5151
▁equivalent	-5152
[:	-5153
ేత	-5154
)$$	-5155
▁10^	-5156
▁నటి	-5157
▁camp	-5158
▁task	-5159
▁Friday	-5160
▁meaning	-5161
▁వెలుపలి	-5162
▁Addition	-5163
8:	-5164
▁CPU	-5165
▁lock	-5166
▁lost	-5167
▁cylinder	-5168
UR	-5169
▁[(	-5170
IMIT	-5171
▁pen	-5172
imals	-5173
rated	-5174
▁Exception	-5175
▁43	-5176
▁Po	-5177
▁RS	-5178
ందిన	-5179
lobal	-5180
▁asked	-5181
▁teams	-5182
▁78	-5183
▁boy	-5184
▁idx	-5185
model	-5186
uture	-5187
▁(0.0	-5188
▁core	-5189
tograph	-5190
▁friend	-5191
▁Seattle	-5192
▁creating	-5193
+6	-5194
oes	-5195
▁ము	-5196
▁mole	-5197
▁Similarly	-5198
▁7)	-5199
beta	-5200
eros	-5201
▁$0.	-5202
elian	-5203
▁100)	-5204
▁fifth	-5205
▁Monday	-5206
ithmetic	-5207
▁finding	-5208
1}	-5209
9:	-5210
nes	-5211
▁Dec	-5212
▁finally	-5213
▁fitness	-5214
▁returns	-5215
▁collected	-5216
▁constants	-5217
▁representation	-5218
.8	-5219
\\	-5220
vey	-5221
▁Te	-5222
▁3.5	-5223
▁పరప	-5224
▁male	-5225
config	-5226
orrect	-5227
▁Count	-5228
▁accid	-5229
▁further	-5230
-1}	-5231
▁82	-5232
(15,	-5233
▁(-1)	-5234
▁Mark	-5235
▁cast	-5236
▁joint	-5237
▁paper	-5238
▁scale	-5239
▁explain	-5240
▁logistic	-5241
.3	-5242
▁లం	-5243
▁వే	-5244
▁√(	-5245
erve	-5246
▁very	-5247
▁పరపతి	-5248
▁handle	-5249
▁tokens	-5250
▁workers	-5251
▁sn	-5252
▁rep	-5253
range	-5254
▁travels	-5255
▁computer	-5256
▁customer	-5257
_9	-5258
clo	-5259
psi	-5260
▁my	-5261
ikes	-5262
block	-5263
▁shop	-5264
linear	-5265
▁harmon	-5266
▁middle	-5267
▁scenari	-5268
▁diagonal	-5269
▁homology	-5270
▁particip	-5271
▁∧	-5272
ics	-5273
REATE	-5274
ంగు	-5275
▁చి	-5276
book	-5277
దగ్గ	-5278
▁eggs	-5279
▁force	-5280
answers	-5281
▁propos	-5282
▁mixture	-5283
population	-5284
▁circumference	-5285
6:	-5286
ole	-5287
▁fore	-5288
▁adding	-5289
▁isomorphism	-5290
▁arrangements	-5291
0))	-5292
ham	-5293
lar	-5294
క్క	-5295
**2)	-5296
bine	-5297
కెలు	-5298
▁(1)	-5299
▁pal	-5300
fetch	-5301
rought	-5302
▁dividing	-5303
)$,	-5304
best	-5305
/100)	-5306
arden	-5307
▁youn	-5308
Memory	-5309
▁chance	-5310
▁చేయదగ్గ	-5311
ీత	-5312
=12	-5313
eth	-5314
ythag	-5315
amount	-5316
▁raise	-5317
▁Length	-5318
▁లంకెలు	-5319
▁Average	-5320
▁profile	-5321
1.5	-5322
zen	-5323
ried	-5324
▁shoes	-5325
▁shirts	-5326
▁iterate	-5327
▁concentration	-5328
80/	-5329
ana	-5330
▁Max	-5331
▁fav	-5332
▁pur	-5333
inary	-5334
olute	-5335
▁effort	-5336
▁slower	-5337
▁NOT	-5338
▁elev	-5339
▁fire	-5340
urface	-5341
tention	-5342
▁Pythag	-5343
▁SELECT	-5344
▁straight	-5345
uff	-5346
rypt	-5347
urrent	-5348
▁Dynam	-5349
▁choice	-5350
▁concept	-5351
▁−	-5352
▁20.0	-5353
▁States	-5354
▁intern	-5355
దు	-5356
rew	-5357
uary	-5358
▁Log	-5359
▁May	-5360
▁During	-5361
▁histor	-5362
▁columns	-5363
▁Id	-5364
▁bi	-5365
▁ate	-5366
power	-5367
▁consist	-5368
▁traveling	-5369
^2\	-5370
▁130	-5371
▁bet	-5372
orean	-5373
▁systems	-5374
.6	-5375
ూరు	-5376
iform	-5377
itched	-5378
▁CREATE	-5379
▁recover	-5380
▁weights	-5381
}")	-5382
▁(`	-5383
▁57	-5384
ners	-5385
▁$1.	-5386
▁Min	-5387
ircle	-5388
▁extra	-5389
▁statis	-5390
LL	-5391
50)	-5392
_1_	-5393
▁51	-5394
▁Tom	-5395
▁shift	-5396
clusive	-5397
tically	-5398
▁passed	-5399
▁property	-5400
(1-	-5401
్తి	-5402
}^{\	-5403
▁2/5	-5404
label	-5405
▁fuel	-5406
▁prin	-5407
_00000	-5408
▁LIMIT	-5409
▁close	-5410
ifference	-5411
▁numerator	-5412
{4	-5413
25)	-5414
ense	-5415
▁ran	-5416
sible	-5417
▁pole	-5418
▁visit	-5419
▁Ensure	-5420
▁neither	-5421
iqu	-5422
▁Be	-5423
▁Em	-5424
▁3/5	-5425
▁choices	-5426
▁removed	-5427
▁walking	-5428
▁((	-5429
▁Ed	-5430
▁py	-5431
▁Ger	-5432
▁hyper	-5433
▁Otherwise	-5434
probability	-5435
^{\	-5436
▁5*	-5437
izer	-5438
acters	-5439
▁hands	-5440
▁hence	-5441
coordin	-5442
▁analyz	-5443
▁origin	-5444
▁brought	-5445
▁sorting	-5446
10)	-5447
▁67	-5448
▁la	-5449
▁Combine	-5450
▁architectural	-5451
▁PC	-5452
ల్లో	-5453
▁95%	-5454
ously	-5455
▁DynamoDB	-5456
▁invested	-5457
▁tracking	-5458
ణం	-5459
▁Ale	-5460
years	-5461
▁drawn	-5462
▁estab	-5463
▁fewer	-5464
▁singular	-5465
▁permutations	-5466
-6	-5467
AN	-5468
umba	-5469
▁(2)	-5470
▁8.0	-5471
▁CON	-5472
▁trees	-5473
▁Expand	-5474
▁theore	-5475
▁trigon	-5476
▁స్టేషన్	-5477
▁committee	-5478
▁≠	-5479
▁$9	-5480
▁$[	-5481
chie	-5482
json	-5483
▁190	-5484
▁gold	-5485
▁priv	-5486
sample	-5487
▁Delhi	-5488
▁portfolio	-5489
▁structures	-5490
''	-5491
(4)	-5492
▁0.7	-5493
rench	-5494
uming	-5495
▁arri	-5496
▁seek	-5497
mission	-5498
▁Simplify	-5499
క్ష	-5500
▁స్వ	-5501
▁wide	-5502
▁Archite	-5503
▁control	-5504
AD	-5505
`)	-5506
dor	-5507
▁ga	-5508
oids	-5509
sequ	-5510
}}{\	-5511
▁Sier	-5512
iction	-5513
▁section	-5514
▁updated	-5515
▁initially	-5516
▁signature	-5517
▁collection	-5518
_1,	-5519
dis	-5520
urs	-5521
0));	-5522
etra	-5523
pped	-5524
ured	-5525
ields	-5526
umbai	-5527
▁Fact	-5528
▁House	-5529
50.	-5530
ena	-5531
▁1-	-5532
▁Sec	-5533
▁ban	-5534
▁curves	-5535
▁occurred	-5536
▁multiples	-5537
▁determined	-5538
ln	-5539
det	-5540
▁$|	-5541
▁BC	-5542
conf	-5543
inski	-5544
strip	-5545
▁Gaussian	-5546
▁characters	-5547
భా	-5548
urg	-5549
▁-1.	-5550
▁108	-5551
▁gcd	-5552
month	-5553
▁film	-5554
anging	-5555
▁Jacob	-5556
▁Three	-5557
▁persons	-5558
▁absolute	-5559
(-1	-5560
▁Rec	-5561
▁sam	-5562
▁tit	-5563
cepts	-5564
▁Tech	-5565
1_0000	-5566
apping	-5567
▁belie	-5568
▁script	-5569
▁reaction	-5570
▁receives	-5571
▁Probability	-5572
20)	-5573
▁8)	-5574
open	-5575
▁15,	-5576
agent	-5577
divis	-5578
▁route	-5579
▁covari	-5580
▁digital	-5581
ola	-5582
▁1$	-5583
▁Eq	-5584
term	-5585
▁Haus	-5586
▁poly	-5587
▁void	-5588
▁ప్రా	-5589
▁Additionally	-5590
▁53	-5591
▁Of	-5592
(1).	-5593
▁imp	-5594
gamma	-5595
▁8080	-5596
▁tech	-5597
ensity	-5598
iemann	-5599
▁delay	-5600
▁drink	-5601
▁10,000	-5602
▁Profit	-5603
▁cosine	-5604
assandra	-5605
▁precise	-5606
▁National	-5607
▁examples	-5608
▁infinite	-5609
▁particle	-5610
బ్	-5611
▁80%	-5612
▁doc	-5613
▁east	-5614
▁pens	-5615
▁bottles	-5616
▁optimized	-5617
▁increasing	-5618
sol	-5619
ద్ద	-5620
pmod	-5621
match	-5622
▁guess	-5623
▁played	-5624
▁painter	-5625
▁rotated	-5626
▁checking	-5627
_3_	-5628
lier	-5629
racy	-5630
▁eas	-5631
▁ell	-5632
▁INDE	-5633
enerate	-5634
▁Mumbai	-5635
▁damage	-5636
▁lowest	-5637
▁divides	-5638
140	-5639
cre	-5640
ట్ట	-5641
amed	-5642
comm	-5643
dorff	-5644
▁meas	-5645
1_0004	-5646
▁INDEX	-5647
▁North	-5648
▁seven	-5649
▁typed	-5650
▁thresh	-5651
▁winning	-5652
▁equilateral	-5653
52	-5654
^2.	-5655
unc	-5656
▁ఒక	-5657
rays	-5658
▁1.2	-5659
ority	-5660
▁Babu	-5661
▁Will	-5662
▁hunt	-5663
▁site	-5664
ometric	-5665
▁demand	-5666
▁modern	-5667
▁Hausdorff	-5668
▁purchased	-5669
▁registers	-5670
(8	-5671
4),	-5672
add	-5673
▁US	-5674
▁Che	-5675
enced	-5676
▁Hist	-5677
▁నిర్	-5678
avings	-5679
▁achie	-5680
▁Divide	-5681
▁govern	-5682
▁weekly	-5683
switched	-5684
▁fractal	-5685
▁quantity	-5686
EN	-5687
}.$	-5688
ఖ్య	-5689
rupt	-5690
▁Enduk	-5691
▁polic	-5692
▁rules	-5693
▁depend	-5694
▁placed	-5695
▁నటించిన	-5696
▁requests	-5697
percentage	-5698
▁Endukante	-5699
▁fractions	-5700
)^	-5701
har	-5702
osp	-5703
▁||	-5704
▁15%	-5705
▁Ste	-5706
▁[1,	-5707
▁That	-5708
▁jour	-5709
123456	-5710
▁fruit	-5711
▁సినిమ	-5712
▁occurring	-5713
▁Pythagorean	-5714
li	-5715
(6,	-5716
▁[-	-5717
ront	-5718
▁11,	-5719
inner	-5720
▁split	-5721
▁సాగని	-5722
▁beginning	-5723
▁pagination	-5724
/1	-5725
54	-5726
▁69	-5727
join	-5728
ogram	-5729
▁kind	-5730
▁wood	-5731
pinski	-5732
▁eight	-5733
▁borrow	-5734
▁bottom	-5735
▁CRITICAL	-5736
▁compound	-5737
▁Sierpinski	-5738
0)`	-5739
▁Or	-5740
_003	-5741
▁0$,	-5742
▁spe	-5743
enses	-5744
▁seed	-5745
▁-----	-5746
▁ellip	-5747
▁tetra	-5748
▁School	-5749
▁longer	-5750
ationship	-5751
▁arranged	-5752
▁Cassandra	-5753
▁chocolate	-5754
▁development	-5755
)).	-5756
-3)	-5757
REN	-5758
▁arg	-5759
house	-5760
▁come	-5761
▁forms	-5762
▁abelian	-5763
▁radians	-5764
"),	-5765
CUR	-5766
ints	-5767
▁256	-5768
▁ice	-5769
▁Sure	-5770
▁coff	-5771
▁scan	-5772
▁course	-5773
▁correctly	-5774
బో	-5775
_2(	-5776
▁fac	-5777
ework	-5778
▁Ange	-5779
▁json	-5780
CURREN	-5781
otient	-5782
▁kilom	-5783
▁liter	-5784
▁global	-5785
-7	-5786
().	-5787
▁($	-5788
abla	-5789
andy	-5790
ములు	-5791
dient	-5792
riers	-5793
achine	-5794
▁Identify	-5795
▁integrate	-5796
.",	-5797
5),	-5798
Produ	-5799
▁Iter	-5800
▁Lock	-5801
▁Pointers	-5802
▁counting	-5803
▁employee	-5804
▁proportion	-5805
^6	-5806
%),	-5807
{3}	-5808
▁ER	-5809
000,	-5810
▁220	-5811
▁Hel	-5812
▁Sam	-5813
Error	-5814
▁motion	-5815
▁worked	-5816
▁expressed	-5817
57	-5818
61	-5819
car	-5820
▁Pe	-5821
▁os	-5822
▁కా	-5823
▁మా	-5824
most	-5825
▁ste	-5826
after	-5827
▁prove	-5828
▁eigenve	-5829
▁resource	-5830
/60	-5831
ael	-5832
lim	-5833
▁#4	-5834
▁16,	-5835
▁War	-5836
▁pho	-5837
first	-5838
▁plus	-5839
approx	-5840
system	-5841
▁cubes	-5842
▁access	-5843
▁observ	-5844
▁చెందిన	-5845
▁billions	-5846
fl	-5847
ారి	-5848
▁సు	-5849
ious	-5850
▁Row	-5851
▁notes	-5852
▁truck	-5853
▁better	-5854
▁stream	-5855
▁overall	-5856
▁passing	-5857
*1	-5858
enth	-5859
rick	-5860
▁Man	-5861
▁bags	-5862
▁diag	-5863
▁exhib	-5864
▁south	-5865
▁walls	-5866
▁scanning	-5867
▁algebraic	-5868
ళ్	-5869
▁∆	-5870
-06	-5871
equiv	-5872
ledge	-5873
▁view	-5874
uesday	-5875
▁14:00	-5876
3}	-5877
bit	-5878
ele	-5879
మ్మ	-5880
2026	-5881
kmph	-5882
▁Don	-5883
▁Gra	-5884
icult	-5885
{1}{\	-5886
▁Geor	-5887
▁earns	-5888
▁offer	-5889
▁shows	-5890
▁reduced	-5891
▁various	-5892
3/	-5893
fo	-5894
ades	-5895
▁20.	-5896
▁Art	-5897
▁spo	-5898
▁0.15	-5899
▁girl	-5900
▁survey	-5901
▁located	-5902
▁signals	-5903
▁tetrahed	-5904
▁CONCURREN	-5905
▁congruent	-5906
TLY	-5907
▁59	-5908
▁$18	-5909
▁Des	-5910
▁ballo	-5911
▁holds	-5912
▁yards	-5913
▁allowed	-5914
▁parents	-5915
▁remains	-5916
▁contexts	-5917
▁features	-5918
▁Fl	-5919
▁ago	-5920
Delta	-5921
uplic	-5922
▁Aust	-5923
▁axis	-5924
▁insp	-5925
-06-25	-5926
▁maint	-5927
▁often	-5928
▁tower	-5929
▁14:00:	-5930
▁Avoids	-5931
▁keyset	-5932
▁schedu	-5933
2026-06-25	-5934
▁construct	-5935
▁reflected	-5936
▁semantics	-5937
▁CONCURRENTLY	-5938
▁-6	-5939
▁13,	-5940
plied	-5941
words	-5942
▁fair	-5943
▁rent	-5944
▁stri	-5945
▁Multi	-5946
▁MySQL	-5947
▁compe	-5948
123456',	-5949
────────	-5950
▁promoted	-5951
▁according	-5952
▁('2026-06-25	-5953
lib	-5954
▁సా	-5955
▁dest	-5956
▁birth	-5957
▁plain	-5958
▁prune	-5959
lection	-5960
Producer	-5961
ification	-5962
▁machines	-5963
▁molecular	-5964
+2)	-5965
_004	-5966
hood	-5967
▁(5,	-5968
board	-5969
final	-5970
nabla	-5971
▁care	-5972
▁fails	-5973
▁trace	-5974
▁coffee	-5975
▁animals	-5976
▁barriers	-5977
▁electric	-5978
▁remember	-5979
▁interrupt	-5980
5:	-5981
oriz	-5982
real	-5983
▁225	-5984
▁Ret	-5985
delta	-5986
▁mile	-5987
▁(1/3)	-5988
▁alpha	-5989
▁science	-5990
AM	-5991
2))	-5992
^{2	-5993
dom	-5994
sel	-5995
శ్వ	-5996
▁AC	-5997
▁DB	-5998
▁et	-5999
iment	-6000
sumer	-6001
present	-6002
rotated	-6003
▁Statement	-6004
▁constructed	-6005
*10	-6006
ందు	-6007
ille	-6008
odge	-6009
▁50.	-6010
▁Pol	-6011
▁mom	-6012
define	-6013
▁carry	-6014
▁foxes	-6015
▁organ	-6016
ication	-6017
irected	-6018
▁service	-6019
▁conclude	-6020
▁encrypted	-6021
▁objective	-6022
చి	-6023
ont	-6024
000.	-6025
amps	-6026
▁dro	-6027
bound	-6028
▁SPSC	-6029
▁dice	-6030
▁spsc	-6031
▁offic	-6032
▁attack	-6033
▁garden	-6034
▁content	-6035
▁typedef	-6036
▁continue	-6037
▁gradient	-6038
▁rollback	-6039
▁passengers	-6040
||	-6041
SPSC	-6042
dots	-6043
▁350	-6044
▁Jer	-6045
▁lif	-6046
astic	-6047
rance	-6048
▁0.75	-6049
▁farm	-6050
BUFFER	-6051
orizon	-6052
▁ERROR	-6053
Consumer	-6054
▁January	-6055
▁division	-6056
▁spectrum	-6057
53	-6058
=7	-6059
▁#8	-6060
igma	-6061
inst	-6062
▁15)	-6063
▁270	-6064
▁shut	-6065
▁today	-6066
▁private	-6067
(1/	-6068
_2,	-6069
hel	-6070
టలు	-6071
▁79	-6072
(10)	-6073
leep	-6074
urer	-6075
vert	-6076
▁wor	-6077
▁vide	-6078
combin	-6079
▁Final	-6080
▁jelly	-6081
▁reached	-6082
▁replace	-6083
TM	-6084
+1}	-6085
▁("	-6086
▁Dav	-6087
close	-6088
▁...,	-6089
▁1/10	-6090
▁15.0	-6091
▁ones	-6092
▁wins	-6093
ources	-6094
▁basic	-6095
▁stress	-6096
▁crosses	-6097
▁special	-6098
▁సినిమాలు	-6099
▁possibilities	-6100
59	-6101
దేశ	-6102
▁#6	-6103
▁Bet	-6104
▁Imp	-6105
cdots	-6106
valid	-6107
▁dise	-6108
jection	-6109
▁Assume	-6110
▁replaced	-6111
gcd	-6112
pri	-6113
▁87	-6114
ague	-6115
▁$2.	-6116
▁16.	-6117
▁Also	-6118
▁decl	-6119
ultane	-6120
▁bridge	-6121
▁failed	-6122
▁ladder	-6123
▁British	-6124
▁changes	-6125
)2	-6126
▁#3	-6127
▁HM	-6128
title	-6129
▁Cost	-6130
sqlite	-6131
▁decom	-6132
▁sandw	-6133
▁playing	-6134
▁kilogram	-6135
▁receiver	-6136
▁sensitivity	-6137
ii	-6138
▁χ	-6139
(12	-6140
/25	-6141
yal	-6142
ుడు	-6143
▁98	-6144
dies	-6145
rict	-6146
▁480	-6147
mical	-6148
▁Mich	-6149
▁cows	-6150
▁torus	-6151
▁assign	-6152
▁quotient	-6153
▁segments	-6154
ser	-6155
ulum	-6156
▁900	-6157
▁June	-6158
▁bars	-6159
▁cats	-6160
▁econ	-6161
▁util	-6162
▁Based	-6163
▁linked	-6164
▁introdu	-6165
ryptograph	-6166
xi	-6167
abs	-6168
▁Ag	-6169
cher	-6170
udes	-6171
unds	-6172
▁280	-6173
▁శాస	-6174
పల్లి	-6175
▁Mong	-6176
rangle	-6177
▁Black	-6178
▁others	-6179
▁article	-6180
▁equally	-6181
▁multiplying	-6182
తో	-6183
}^2	-6184
▁3}	-6185
aset	-6186
atur	-6187
▁war	-6188
ticks	-6189
▁3600	-6190
andard	-6191
▁faces	-6192
▁sister	-6193
▁decided	-6194
▁purchase	-6195
▁simultane	-6196
√3	-6197
▁^	-6198
^3)	-6199
_1)	-6200
▁30,	-6201
▁Mod	-6202
▁pet	-6203
commit	-6204
▁heads	-6205
▁looking	-6206
▁detected	-6207
▁reasoning	-6208
▁proportional	-6209
rd	-6210
-1]	-6211
mis	-6212
tor	-6213
▁4}	-6214
▁కు	-6215
long	-6216
రావు	-6217
small	-6218
▁Scot	-6219
arters	-6220
rolled	-6221
▁enter	-6222
▁capital	-6223
▁dihedral	-6224
:",	-6225
ABC	-6226
▁112	-6227
▁13.	-6228
▁Hen	-6229
▁Uni	-6230
lling	-6231
▁grid	-6232
langle	-6233
▁shape	-6234
▁indust	-6235
zz	-6236
▁#2	-6237
▁Hz	-6238
▁sto	-6239
aring	-6240
height	-6241
▁equals	-6242
▁packet	-6243
▁shared	-6244
▁desired	-6245
▁Assuming	-6246
▁European	-6247
▁variations	-6248
cles	-6249
▁(15	-6250
▁512	-6251
▁Ham	-6252
oston	-6253
▁12.0	-6254
▁heat	-6255
▁pend	-6256
sident	-6257
▁expan	-6258
alities	-6259
▁appear	-6260
▁become	-6261
▁remove	-6262
▁Riemann	-6263
)}{	-6264
▁92	-6265
tian	-6266
బోరు	-6267
▁2.0)	-6268
▁bank	-6269
▁శ్రీ	-6270
▁basis	-6271
▁decor	-6272
▁stone	-6273
▁Boston	-6274
▁pressure	-6275
▁sensitive	-6276
Sy	-6277
oo	-6278
25,	-6279
cus	-6280
▁vs	-6281
▁బీ	-6282
eval	-6283
కులు	-6284
▁18,	-6285
▁Har	-6286
istry	-6287
riter	-6288
circle	-6289
▁clear	-6290
product	-6291
bum	-6292
▁(9	-6293
▁9)	-6294
▁Co	-6295
▁ju	-6296
find	-6297
▁320	-6298
▁Bra	-6299
▁face	-6300
▁ship	-6301
_00013	-6302
_00019	-6303
▁collect	-6304
▁associated	-6305
Th	-6306
ళ్ళ	-6307
cale	-6308
temp	-6309
▁big	-6310
▁భార	-6311
olves	-6312
▁pays	-6313
▁rele	-6314
▁bring	-6315
project	-6316
▁MongoDB	-6317
▁clients	-6318
▁denotes	-6319
▁summary	-6320
▁decrease	-6321
▁container	-6322
/16	-6323
fly	-6324
ris	-6325
▁""	-6326
▁(50	-6327
▁ans	-6328
money	-6329
▁prim	-6330
▁Their	-6331
▁favor	-6332
▁lunch	-6333
▁title	-6334
▁config	-6335
▁layout	-6336
specific	-6337
▁college	-6338
▁earnings	-6339
▁recovery	-6340
▁estimated	-6341
▁simulation	-6342
▁displacement	-6343
TE	-6344
▁vow	-6345
▁eats	-6346
▁{(1,	-6347
▁Paris	-6348
▁sweep	-6349
agnetic	-6350
current	-6351
approval	-6352
▁targets	-6353
Ra	-6354
▁#7	-6355
▁పి	-6356
▁7.0	-6357
▁van	-6358
▁చిత	-6359
▁More	-6360
▁wire	-6361
▁South	-6362
▁waves	-6363
▁French	-6364
▁logged	-6365
▁compact	-6366
▁disease	-6367
▁journey	-6368
▁packets	-6369
▁Expected	-6370
▁cryptograph	-6371
10.	-6372
eff	-6373
▁AI	-6374
▁sil	-6375
▁sod	-6376
▁Paul	-6377
▁vary	-6378
cluding	-6379
factors	-6380
▁supply	-6381
▁borrowed	-6382
▁arithmetic	-6383
▁4-	-6384
ceil	-6385
comp	-6386
ians	-6387
onian	-6388
▁3000	-6389
_00017	-6390
▁catch	-6391
▁phone	-6392
▁Church	-6393
▁slight	-6394
▁strong	-6395
▁candies	-6396
▁default	-6397
▁pendulum	-6398
▁basketball	-6399
**3	-6400
vis	-6401
true	-6402
ramid	-6403
velope	-6404
▁Elect	-6405
▁plant	-6406
▁100000	-6407
▁picked	-6408
▁flowers	-6409
▁necessary	-6410
నా	-6411
ega	-6412
ష్ణ	-6413
shir	-6414
celer	-6415
unday	-6416
wards	-6417
▁Both	-6418
▁కాని	-6419
▁glass	-6420
▁great	-6421
▁socks	-6422
outcomes	-6423
▁monitor	-6424
romagnetic	-6425
▁calculating	-6426
bru	-6427
imizes	-6428
▁breadth	-6429
▁elevation	-6430
}{5	-6431
్రి	-6432
▁5}	-6433
▁gr	-6434
లోని	-6435
▁198	-6436
▁?",	-6437
▁Aug	-6438
_0001	-6439
▁Round	-6440
▁doesn	-6441
▁logar	-6442
▁depends	-6443
▁infected	-6444
▁vertical	-6445
▁difficult	-6446
▁Sm	-6447
▁0$$	-6448
▁175	-6449
▁4.5	-6450
▁pow	-6451
▁Bill	-6452
▁Apple	-6453
▁Hodge	-6454
arrange	-6455
aturday	-6456
▁entity	-6457
▁answered	-6458
+8	-6459
^(2	-6460
aur	-6461
^(-2	-6462
ells	-6463
stru	-6464
▁page	-6465
▁Chris	-6466
▁river	-6467
essages	-6468
▁colors	-6469
▁discus	-6470
▁horizon	-6471
▁subjects	-6472
▁addresses	-6473
▁relationships	-6474
]]	-6475
ౌర	-6476
15,	-6477
lin	-6478
orts	-6479
▁3/2	-6480
rence	-6481
start	-6482
▁hund	-6483
▁rails	-6484
▁plants	-6485
▁angular	-6486
▁Fraction	-6487
▁enrolled	-6488
▁repeated	-6489
coordinate	-6490
▁ciphertext	-6491
CE	-6492
_\	-6493
war	-6494
▁9.0	-6495
▁Reg	-6496
black	-6497
where	-6498
▁conj	-6499
▁toys	-6500
▁charge	-6501
▁trivial	-6502
▁compared	-6503
▁simultaneously	-6504
*4	-6505
AP	-6506
mu	-6507
+3)	-6508
urb	-6509
ర్శ	-6510
▁6:	-6511
}{3}	-6512
▁700	-6513
▁రాజ	-6514
▁swim	-6515
▁chest	-6516
▁sixth	-6517
▁walks	-6518
▁princi	-6519
▁reject	-6520
▁elliptic	-6521
▁kilometers	-6522
(7	-6523
ha	-6524
ాత	-6525
ష్ట	-6526
▁14.	-6527
▁por	-6528
▁0.02	-6529
▁Park	-6530
▁club	-6531
▁none	-6532
▁Group	-6533
▁crash	-6534
▁corrup	-6535
▁nature	-6536
▁stable	-6537
▁trials	-6538
▁compare	-6539
▁display	-6540
▁inclusive	-6541
ait	-6542
య్య	-6543
▁["	-6544
draw	-6545
▁$25	-6546
cakes	-6547
izing	-6548
orses	-6549
viron	-6550
▁Read	-6551
▁ante	-6552
▁Value	-6553
▁music	-6554
▁buying	-6555
▁Standard	-6556
▁infinity	-6557
PER	-6558
▁83	-6559
ifur	-6560
▁-1,	-6561
▁Dan	-6562
▁Map	-6563
arily	-6564
_00014	-6565
▁album	-6566
▁calib	-6567
▁domin	-6568
▁island	-6569
▁stocks	-6570
▁Running	-6571
▁William	-6572
▁traffic	-6573
▁nonlinear	-6574
▁completely	-6575
|\	-6576
ీయ	-6577
+12	-6578
▁74	-6579
▁x̄	-6580
▁పొ	-6581
flow	-6582
▁Sud	-6583
othic	-6584
_00030	-6585
edance	-6586
encies	-6587
▁March	-6588
▁touch	-6589
▁truth	-6590
▁regard	-6591
▁remain	-6592
▁Machine	-6593
*6	-6594
▁$30	-6595
▁24)	-6596
useum	-6597
ushed	-6598
▁1500	-6599
▁mode	-6600
▁pain	-6601
▁భారత	-6602
▁visited	-6603
▁manufacturer	-6604
TO	-6605
1))	-6606
lue	-6607
▁రచ	-6608
like	-6609
lity	-6610
ysic	-6611
════	-6612
▁196	-6613
which	-6614
▁4000	-6615
▁King	-6616
▁auth	-6617
▁pool	-6618
_00016	-6619
encing	-6620
▁David	-6621
▁Frank	-6622
▁chick	-6623
▁never	-6624
duction	-6625
▁August	-6626
▁category	-6627
▁finished	-6628
difference	-6629
▁classroom	-6630
పి	-6631
▁â	-6632
▁δ	-6633
ope	-6634
▁86	-6635
▁SP	-6636
more	-6637
▁199	-6638
▁ABC	-6639
_00010	-6640
_00029	-6641
square	-6642
▁cloth	-6643
▁prefer	-6644
▁outcome	-6645
▁chambers	-6646
CM	-6647
pes	-6648
▁MD	-6649
bott	-6650
▁$1,	-6651
▁$60	-6652
▁(-2	-6653
▁(19	-6654
▁0),	-6655
▁Ital	-6656
▁iden	-6657
_00018	-6658
_00025	-6659
source	-6660
▁might	-6661
▁packs	-6662
▁sugar	-6663
▁episode	-6664
▁improve	-6665
▁candidate	-6666
▁approaches	-6667
+20	-6668
ogn	-6669
plan	-6670
well	-6671
▁(25	-6672
▁7.5	-6673
▁80.	-6674
▁జనా	-6675
ently	-6676
rimin	-6677
ripts	-6678
▁Alex	-6679
▁Nash	-6680
▁Stud	-6681
▁Every	-6682
▁goods	-6683
▁preserv	-6684
▁Subtract	-6685
▁tradition	-6686
(-2	-6687
/11	-6688
▁AN	-6689
▁Ne	-6690
_2_2	-6691
▁appl	-6692
▁came	-6693
_00015	-6694
asible	-6695
ecause	-6696
▁delta	-6697
riminant	-6698
▁Tuesday	-6699
▁learning	-6700
▁policies	-6701
▁oscillator	-6702
▁interference	-6703
NE	-6704
(1.	-6705
(2*	-6706
non	-6707
▁5!	-6708
▁లి	-6709
*100	-6710
▁Eng	-6711
cards	-6712
orpor	-6713
▁bill	-6714
▁surv	-6715
▁trac	-6716
▁While	-6717
▁expon	-6718
▁fruits	-6719
▁Measure	-6720
▁matches	-6721
▁species	-6722
▁multiplied	-6723
▁throughput	-6724
808	-6725
vec	-6726
ట్టి	-6727
▁5),	-6728
▁Ear	-6729
▁Sch	-6730
▁saw	-6731
▁cult	-6732
▁named	-6733
▁covers	-6734
▁భూములు	-6735
together	-6736
▁Convert	-6737
▁acceler	-6738
/36	-6739
625	-6740
=20	-6741
పాల	-6742
▁61	-6743
pril	-6744
▁Pen	-6745
▁mir	-6746
▁సంగ	-6747
rices	-6748
radius	-6749
▁plate	-6750
▁జనాభా	-6751
fitness	-6752
▁active	-6753
▁counter	-6754
▁objects	-6755
▁outside	-6756
▁simplified	-6757
▁wavelength	-6758
51	-6759
ందం	-6760
▁√3	-6761
anas	-6762
yard	-6763
ifies	-6764
itive	-6765
▁40.0	-6766
▁Book	-6767
▁roof	-6768
_00020	-6769
nesday	-6770
▁batch	-6771
▁chips	-6772
▁human	-6773
▁Histor	-6774
▁సాగులో	-6775
▁England	-6776
▁dataset	-6777
▁Evaluate	-6778
▁depending	-6779
▁downstream	-6780
▁redirected	-6781
icy	-6782
లలో	-6783
atio	-6784
ique	-6785
లోపు	-6786
▁$16	-6787
▁Ann	-6788
▁Sep	-6789
cases	-6790
▁25%,	-6791
▁30.0	-6792
▁50%,	-6793
▁semi	-6794
_00035	-6795
istent	-6796
uments	-6797
ముల్లో	-6798
▁dozen	-6799
▁Factor	-6800
▁pyramid	-6801
▁mismatch	-6802
▁grounding	-6803
▁government	-6804
▁statements	-6805
▁directional	-6806
bu	-6807
vin	-6808
ెడ్	-6809
▁Wi	-6810
▁$14	-6811
▁18.	-6812
▁Fer	-6813
▁60.0	-6814
▁happ	-6815
▁బీడు	-6816
_00026	-6817
_00028	-6818
▁Return	-6819
▁simply	-6820
▁derived	-6821
▁includes	-6822
▁slightly	-6823
▁standing	-6824
▁calibrated	-6825
▁mathematical	-6826
__(	-6827
▁{}	-6828
▁1))	-6829
▁adv	-6830
▁{3,	-6831
▁పౌర	-6832
Sylow	-6833
ribed	-6834
table	-6835
▁$200	-6836
▁100%	-6837
tember	-6838
▁pound	-6839
▁levels	-6840
▁shield	-6841
▁కానివి	-6842
▁feasible	-6843
▁released	-6844
▁భూముల్లో	-6845
▁intersect	-6846
▁allocation	-6847
▁coordinate	-6848
▁differenti	-6849
Re	-6850
pay	-6851
pet	-6852
▁గు	-6853
pack	-6854
▁(18	-6855
▁40.	-6856
▁ori	-6857
tools	-6858
bruary	-6859
uation	-6860
▁Track	-6861
▁front	-6862
▁chairs	-6863
▁సరఫరాల	-6864
▁Multiply	-6865
▁recursive	-6866
▁commission	-6867
combinations	-6868
▁approximation	-6869
▁multiplication	-6870
^*	-6871
uv	-6872
130	-6873
=1,	-6874
pole	-6875
unte	-6876
ంద్ర	-6877
ల్లె	-6878
▁24.	-6879
▁25,	-6880
▁PCB	-6881
▁mor	-6882
ifier	-6883
inese	-6884
sigma	-6885
▁July	-6886
▁West	-6887
▁feed	-6888
▁video	-6889
▁Gothic	-6890
▁however	-6891
▁savings	-6892
!(	-6893
+9	-6894
^0(	-6895
acy	-6896
hol	-6897
ప్ర	-6898
enna	-6899
▁1$.	-6900
(2.0,	-6901
▁(-20	-6902
▁coin	-6903
▁kids	-6904
change	-6905
▁juice	-6906
▁night	-6907
▁rooms	-6908
▁trunc	-6909
▁wheel	-6910
ription	-6911
divisors	-6912
negative	-6913
▁reading	-6914
▁scripts	-6915
▁countries	-6916
▁successes	-6917
▁decomposition	-6918
*7	-6919
[(	-6920
uc	-6921
-10	-6922
EMI	-6923
ably	-6924
▁$40	-6925
apsed	-6926
espan	-6927
iches	-6928
▁band	-6929
▁null	-6930
_00036	-6931
▁Flask	-6932
▁bifur	-6933
▁subset	-6934
▁shutdown	-6935
▁analyzers	-6936
ml	-6937
నగ	-6938
SWR	-6939
VSWR	-6940
దలైన	-6941
రంలో	-6942
▁14,	-6943
▁jar	-6944
▁sun	-6945
▁RSSI	-6946
▁mixed	-6947
▁pizzas	-6948
▁Instead	-6949
▁Michael	-6950
▁amplifier	-6951
▁University	-6952
▁corrupting	-6953
▁horizontal	-6954
▁established	-6955
--(	-6956
Dep	-6957
▁1}	-6958
▁Med	-6959
▁ton	-6960
▁$(0,	-6961
▁asym	-6962
▁peak	-6963
▁rail	-6964
▁bypass	-6965
▁figure	-6966
▁opened	-6967
▁primes	-6968
▁ticket	-6969
equation	-6970
▁Envelope	-6971
▁Impedance	-6972
▁truncated	-6973
▁trigonometry	-6974
▁Electromagnetic	-6975
xx	-6976
{6	-6977
▁•	-6978
,0)	-6979
=15	-6980
king	-6981
rong	-6982
▁Law	-6983
▁too	-6984
iture	-6985
third	-6986
▁role	-6987
▁stay	-6988
estern	-6989
parent	-6990
▁timer	-6991
((0,0)--	-6992
▁traject	-6993
▁shortest	-6994
▁September	-6995
ంచి	-6996
▁br	-6997
root	-6998
▁err	-6999
▁hol	-7000
ensus	-7001
▁wife	-7002
person	-7003
▁Trans	-7004
▁board	-7005
▁chron	-7006
▁gradu	-7007
▁conjug	-7008
▁flight	-7009
▁ప్రాంత	-7010
▁crashed	-7011
▁identical	-7012
▁asymmetric	-7013
▁originally	-7014
▁volatility	-7015
▁discriminant	-7016
np	-7017
(),	-7018
▁df	-7019
iber	-7020
scale	-7021
▁0.1,	-7022
▁stick	-7023
▁Volume	-7024
▁cities	-7025
▁instru	-7026
▁approval	-7027
▁numerically	-7028
Al	-7029
II	-7030
బా	-7031
లా	-7032
)^(	-7033
},$	-7034
▁89	-7035
case	-7036
▁Bel	-7037
▁bed	-7038
▁led	-7039
ctive	-7040
ithms	-7041
{1}{2	-7042
▁Weak	-7043
▁anti	-7044
▁norm	-7045
_00012	-7046
itudes	-7047
▁100%)	-7048
▁April	-7049
▁Ratio	-7050
▁fluid	-7051
▁Output	-7052
▁horses	-7053
▁recent	-7054
ologically	-7055
▁influence	-7056
.1	-7057
]$	-7058
.5)	-7059
Pro	-7060
ano	-7061
ara	-7062
hic	-7063
sia	-7064
tel	-7065
---|	-7066
▁(16	-7067
▁30.	-7068
▁OOM	-7069
▁jog	-7070
▁2014	-7071
▁stop	-7072
versal	-7073
▁clock	-7074
▁labor	-7075
▁resume	-7076
represent	-7077
▁Notebook	-7078
▁choosing	-7079
▁experience	-7080
▁thresholds	-7081
Ex	-7082
bon	-7083
▁ir	-7084
▁∫(	-7085
000)	-7086
▁4/5	-7087
▁Oct	-7088
▁Sci	-7089
▁obs	-7090
▁ren	-7091
▁pred	-7092
porary	-7093
target	-7094
volume	-7095
ryption	-7096
session	-7097
▁diagram	-7098
▁checksum	-7099
▁geometry	-7100
▁routines	-7101
▁centralized	-7102
▁applications	-7103
▁representing	-7104
ంధ	-7105
tau	-7106
▁73	-7107
▁Ab	-7108
asks	-7109
▁720	-7110
▁bid	-7111
▁net	-7112
dfrac	-7113
qquad	-7114
▁appe	-7115
jected	-7116
▁drive	-7117
▁prices	-7118
▁amounts	-7119
▁diction	-7120
▁matrices	-7121
▁corresponds	-7122
chi	-7123
ctan	-7124
▁135	-7125
▁chey	-7126
▁knot	-7127
▁seen	-7128
▁bottle	-7129
ednesday	-7130
▁decides	-7131
▁polygon	-7132
▁inactive	-7133
▁indexing	-7134
▁watchdog	-7135
▁inequalities	-7136
ka	-7137
lcm	-7138
opy	-7139
ober	-7140
offel	-7141
ofing	-7142
▁100.	-7143
Deploy	-7144
exists	-7145
▁apple	-7146
▁Sudden	-7147
ulations	-7148
▁quality	-7149
▁volunte	-7150
▁practice	-7151
bstitution	-7152
▁simulator	-7153
▁candidates	-7154
abi	-7155
▁Ink	-7156
▁pig	-7157
▁100,	-7158
▁ends	-7159
▁meat	-7160
▁chrom	-7161
▁exter	-7162
▁canary	-7163
▁office	-7164
limiting	-7165
▁females	-7166
----------	-7167
▁bypassing	-7168
▁plaintext	-7169
▁Christoffel	-7170
బు	-7171
(6)	-7172
10}	-7173
inv	-7174
rote	-7175
▁(1%	-7176
upper	-7177
ysics	-7178
▁50.0	-7179
▁HMAC	-7180
▁Lamp	-7181
▁(10%,	-7182
▁Henry	-7183
limiter	-7184
related	-7185
▁Staged	-7186
▁commut	-7187
▁giving	-7188
▁bricked	-7189
▁earlier	-7190
▁Saturday	-7191
▁returned	-7192
▁rollouts	-7193
▁effective	-7194
▁covariance	-7195
▁exponential	-7196
En	-7197
గి	-7198
▁ρ	-7199
_2_	-7200
del	-7201
▁Mc	-7202
ighth	-7203
ility	-7204
▁1/24	-7205
▁nine	-7206
_00024	-7207
_00032	-7208
digits	-7209
tokens	-7210
▁demon	-7211
▁arrays	-7212
▁househ	-7213
▁blocked	-7214
▁Remember	-7215
▁breakers	-7216
▁classical	-7217
▁మండలానికి	-7218
▁deviations	-7219
"{	-7220
యా	-7221
√2	-7222
159	-7223
=44	-7224
త్స	-7225
▁(0	-7226
-1))	-7227
cand	-7228
duku	-7229
sort	-7230
▁1).	-7231
▁Lua	-7232
▁asp	-7233
beans	-7234
water	-7235
▁born	-7236
_00005	-7237
ensive	-7238
▁plans	-7239
trivial	-7240
▁butter	-7241
▁spikes	-7242
▁feature	-7243
▁setting	-7244
Deploying	-7245
▁followed	-7246
▁spoofing	-7247
▁theorems	-7248
▁timeouts	-7249
▁logarithm	-7250
▁understanding	-7251
Sch	-7252
aff	-7253
tiv	-7254
(-0.	-7255
▁197	-7256
▁36.	-7257
▁Cov	-7258
gence	-7259
▁legs	-7260
paring	-7261
▁parab	-7262
▁quick	-7263
▁zeros	-7264
initial	-7265
▁Street	-7266
▁adults	-7267
▁enduku	-7268
▁gallon	-7269
▁Context	-7270
▁mapping	-7271
▁windows	-7272
vironment	-7273
▁location	-7274
▁scenario	-7275
+7	-7276
కో	-7277
-12	-7278
త్వ	-7279
▁బృ	-7280
ster	-7281
▁101	-7282
▁Ram	-7283
▁deb	-7284
▁gro	-7285
▁lot	-7286
▁2001	-7287
▁farmer	-7288
▁balance	-7289
▁bananas	-7290
▁install	-7291
▁producing	-7292
▁Architecture	-7293
999	-7294
▁3/	-7295
▁vac	-7296
▁cake	-7297
istant	-7298
▁సంఖ్య	-7299
▁caught	-7300
▁harmony	-7301
▁studied	-7302
intercept	-7303
▁existing	-7304
▁definition	-7305
)/2	-7306
-0.	-7307
doc	-7308
▁avg	-7309
▁rho	-7310
▁sty	-7311
▁bird	-7312
▁clim	-7313
▁దర్శ	-7314
▁October	-7315
▁-7	-7316
▁Sw	-7317
inch	-7318
▁$13	-7319
▁(30	-7320
_0024	-7321
ackey	-7322
itary	-7323
ortun	-7324
▁onto	-7325
▁చెరు	-7326
▁grand	-7327
▁metal	-7328
content	-7329
▁grades	-7330
▁Chinese	-7331
imination	-7332
▁packages	-7333
ES	-7334
కొ	-7335
▁’	-7336
MAT	-7337
^3,	-7338
elb	-7339
han	-7340
sts	-7341
▁7:	-7342
▁save	-7343
▁shirt	-7344
▁attend	-7345
▁likely	-7346
▁accuracy	-7347
▁assuming	-7348
▁expenses	-7349
▁exterior	-7350
▁flagpole	-7351
▁sections	-7352
[\	-7353
/3,	-7354
ions	-7355
raph	-7356
పురం	-7357
▁$24	-7358
▁(60	-7359
▁Pre	-7360
ester	-7361
▁vill	-7362
rayons	-7363
▁evalu	-7364
▁behind	-7365
▁models	-7366
▁spaces	-7367
▁stamps	-7368
▁session	-7369
▁Although	-7370
▁February	-7371
▁expansion	-7372
Fi	-7373
_1$	-7374
_{0	-7375
▁3!	-7376
▁Ms	-7377
(3))	-7378
^{-1	-7379
ench	-7380
reng	-7381
}.$.	-7382
▁750	-7383
idate	-7384
ining	-7385
▁deal	-7386
▁hall	-7387
▁scul	-7388
▁snow	-7389
minute	-7390
textbf	-7391
▁50000	-7392
▁FATAL	-7393
▁annum	-7394
▁బృందం	-7395
average	-7396
▁police	-7397
........	-7398
▁datetime	-7399
▁measures	-7400
▁upstream	-7401
▁topological	-7402
▁automorphism	-7403
▁manufacturing	-7404
-9	-7405
If	-7406
_10	-7407
▁పే	-7408
hist	-7409
love	-7410
tees	-7411
uple	-7412
▁ded	-7413
5,000	-7414
Right	-7415
▁Desk	-7416
▁rese	-7417
▁shad	-7418
▁goals	-7419
▁males	-7420
▁Helmet	-7421
▁sector	-7422
▁vowels	-7423
▁meeting	-7424
▁accident	-7425
▁interior	-7426
▁computing	-7427
▁distances	-7428
ai	-7429
}^	-7430
emp	-7431
▁-2.	-7432
▁25.	-7433
▁5.2	-7434
ached	-7435
▁cell	-7436
▁insc	-7437
▁సమీప	-7438
indrom	-7439
▁format	-7440
▁orange	-7441
▁developed	-7442
x̄	-7443
ేవ	-7444
▁·	-7445
170	-7446
80.	-7447
_5_	-7448
bed	-7449
bul	-7450
dim	-7451
}^3	-7452
ాయక	-7453
▁తో	-7454
▁Dis	-7455
▁sus	-7456
▁soda	-7457
_00033	-7458
▁wrote	-7459
▁former	-7460
▁future	-7461
▁raised	-7462
▁weighs	-7463
▁studying	-7464
▁regression	-7465
▁sequentially	-7466
▁1.4	-7467
▁17,	-7468
▁195	-7469
▁216	-7470
▁rod	-7471
▁arti	-7472
▁pump	-7473
comple	-7474
▁cream	-7475
▁poles	-7476
▁density	-7477
▁retrieving	-7478
▁acceleration	-7479
HE	-7480
XT	-7481
ae	-7482
.5%	-7483
256	-7484
800	-7485
_4_	-7486
}{1	-7487
▁({	-7488
▁71	-7489
▁1):	-7490
▁2^2	-7491
▁Age	-7492
▁Jim	-7493
night	-7494
▁Jane	-7495
▁Scan	-7496
mented	-7497
▁India	-7498
▁birds	-7499
▁sigma	-7500
▁Second	-7501
▁Sunday	-7502
▁tracks	-7503
representing	-7504
▁bifurcation	-7505
▁factorization	-7506
▁chronologically	-7507
ూడ	-7508
▁ఫ	-7509
.")	-7510
▁CD	-7511
▁asc	-7512
▁fer	-7513
iques	-7514
▁adap	-7515
ything	-7516
▁Hamilt	-7517
▁duplic	-7518
▁mirror	-7519
▁rounds	-7520
▁flushed	-7521
▁lifespan	-7522
▁touchdown	-7523
▁neighborhood	-7524
4}	-7525
నస	-7526
ION	-7527
ung	-7528
▁PR	-7529
▁pub	-7530
▁Repe	-7531
▁WiFi	-7532
ground	-7533
▁State	-7534
▁Trace	-7535
▁cakes	-7536
ountain	-7537
▁counts	-7538
▁Telemetry	-7539
▁sandwiches	-7540
PA	-7541
((-	-7542
Yau	-7543
_12	-7544
▁dp	-7545
ccos	-7546
used	-7547
▁170	-7548
▁nor	-7549
▁Sort	-7550
▁lies	-7551
estamp	-7552
icular	-7553
normal	-7554
onical	-7555
second	-7556
▁Colle	-7557
▁enclo	-7558
▁merge	-7559
▁users	-7560
Scholes	-7561
ontsize	-7562
▁Calabi	-7563
▁dinner	-7564
▁solved	-7565
partment	-7566
▁reaches	-7567
▁geometric	-7568
FI	-7569
cu	-7570
dz	-7571
దా	-7572
190	-7573
300	-7574
che	-7575
ref	-7576
▁70%	-7577
▁Pal	-7578
▁San	-7579
▁die	-7580
▁25.0	-7581
▁west	-7582
cluded	-7583
degree	-7584
▁fence	-7585
▁names	-7586
▁Austral	-7587
ersection	-7588
remaining	-7589
▁Jacobian	-7590
▁projects	-7591
▁symmetry	-7592
▁contribute	-7593
▁expressions	-7594
='	-7595
+15	-7596
=100	-7597
▁Emp	-7598
▁ord	-7599
acing	-7600
▁East	-7601
▁fram	-7602
▁0.000	-7603
▁death	-7604
▁moved	-7605
▁సంగీత	-7606
onsistent	-7607
▁remained	-7608
▁చెరువులు	-7609
pendicular	-7610
▁Immediately	-7611
▁elimination	-7612
,\	-7613
1]	-7614
SB	-7615
}"	-7616
వల	-7617
+0.	-7618
3)`	-7619
600	-7620
aro	-7621
win	-7622
▁94	-7623
▁TE	-7624
443/	-7625
mber	-7626
onic	-7627
}{4}	-7628
▁75%	-7629
▁bab	-7630
venth	-7631
▁443.	-7632
▁rope	-7633
=443)`	-7634
▁Glove	-7635
process	-7636
operator	-7637
▁cupcakes	-7638
▁football	-7639
▁magnetic	-7640
▁painting	-7641
▁sentence	-7642
confidence	-7643
▁throughout	-7644
▁commutative	-7645
జ్	-7646
ama	-7647
uzz	-7648
life	-7649
▁bow	-7650
▁wid	-7651
▁told	-7652
Number	-7653
engine	-7654
▁wrong	-7655
▁Jacket	-7656
▁Repeat	-7657
▁powers	-7658
▁connect	-7659
Cl	-7660
ny	-7661
ux	-7662
{7	-7663
▁∞	-7664
two	-7665
▁Gu	-7666
▁Km	-7667
▁rid	-7668
▁web	-7669
▁(200	-7670
▁----	-7671
▁disk	-7672
▁held	-7673
▁1,000	-7674
▁criter	-7675
▁kilograms	-7676
▁residents	-7677
▁selecting	-7678
▁consisting	-7679
=9	-7680
పా	-7681
(8,	-7682
.50	-7683
175	-7684
pol	-7685
మైన	-7686
▁-8	-7687
▁97	-7688
hing	-7689
▁115	-7690
▁mem	-7691
gress	-7692
kutta	-7693
verti	-7694
profit	-7695
▁chain	-7696
▁recip	-7697
▁story	-7698
▁missing	-7699
▁popular	-7700
▁younger	-7701
▁December	-7702
▁although	-7703
▁techniques	-7704
.\]	-7705
ండి	-7706
్రహ	-7707
dist	-7708
ట్టు	-7709
▁-10	-7710
▁192	-7711
▁24,	-7712
▁Mer	-7713
▁పరి	-7714
▁Path	-7715
▁imag	-7716
▁freed	-7717
▁relig	-7718
▁worst	-7719
▁joined	-7720
function	-7721
ribution	-7722
▁hundred	-7723
▁articles	-7724
▁involved	-7725
▁midpoint	-7726
▁continued	-7727
▁differences	-7728
rs	-7729
tt	-7730
(20	-7731
ING	-7732
phy	-7733
ctic	-7734
ford	-7735
▁90%	-7736
▁bis	-7737
▁lat	-7738
ially	-7739
ishes	-7740
▁poli	-7741
▁Poinc	-7742
▁seeds	-7743
ovember	-7744
▁County	-7745
▁effect	-7746
▁moment	-7747
▁senior	-7748
▁social	-7749
▁temple	-7750
▁calculation	-7751
CO	-7752
-20	-7753
odd	-7754
9999	-7755
mega	-7756
uuid	-7757
▁Bal	-7758
▁mix	-7759
▁pra	-7760
lands	-7761
▁Game	-7762
ograph	-7763
propos	-7764
reason	-7765
▁Start	-7766
▁roses	-7767
▁runge	-7768
▁allows	-7769
▁cheese	-7770
▁counted	-7771
▁leaving	-7772
▁transfer	-7773
▁travelled	-7774
▁transportation	-7775
నం	-7776
ెల	-7777
/30	-7778
ART	-7779
▁Go	-7780
▁(3)	-7781
(1/2)	-7782
oring	-7783
▁ever	-7784
▁nick	-7785
▁pict	-7786
▁dress	-7787
▁earth	-7788
▁minus	-7789
▁quadr	-7790
▁speak	-7791
ections	-7792
▁Symbol	-7793
▁submit	-7794
▁toward	-7795
▁charges	-7796
▁encrypt	-7797
▁medical	-7798
▁package	-7799
▁scaling	-7800
▁subsequ	-7801
▁ascending	-7802
▁scheduled	-7803
▁simplifies	-7804
▁alternative	-7805
`,	-7806
).$	-7807
ాంక	-7808
▁ey	-7809
cong	-7810
gets	-7811
▁LCM	-7812
▁Sto	-7813
,000.	-7814
aylor	-7815
rical	-7816
▁3.14	-7817
▁hard	-7818
▁sugg	-7819
▁seats	-7820
▁stack	-7821
▁subst	-7822
▁tiles	-7823
▁bounds	-7824
▁balloons	-7825
▁patterns	-7826
iterations	-7827
▁Perimeter	-7828
▁contained	-7829
▁reflection	-7830
3))	-7831
Bob	-7832
aré	-7833
omb	-7834
char	-7835
enny	-7836
fish	-7837
gray	-7838
▁1$,	-7839
▁Nor	-7840
▁tro	-7841
sical	-7842
▁bicy	-7843
urches	-7844
vanced	-7845
▁comes	-7846
▁finan	-7847
▁rolls	-7848
▁sqlite	-7849
▁courses	-7850
▁restaur	-7851
▁November	-7852
▁incorpor	-7853
▁planning	-7854
▁recorded	-7855
.7	-7856
(7,	-7857
11}	-7858
144	-7859
16,	-7860
cel	-7861
ker	-7862
▁pm	-7863
▁2))	-7864
▁21.	-7865
▁50,	-7866
▁wat	-7867
▁Mand	-7868
▁bene	-7869
▁send	-7870
coming	-7871
lfloor	-7872
rfloor	-7873
▁ahead	-7874
▁fresh	-7875
▁tools	-7876
▁స్వయం	-7877
▁George	-7878
▁Indian	-7879
▁sculpt	-7880
▁thread	-7881
rollback	-7882
▁Company	-7883
▁forward	-7884
▁freedom	-7885
▁involves	-7886
▁personal	-7887
isomorphic	-7888
▁indicates	-7889
▁materials	-7890
▁travelling	-7891
/-	-7892
`.	-7893
sk	-7894
(1+	-7895
ken	-7896
▁Ke	-7897
(-2)	-7898
apan	-7899
phab	-7900
▁Cho	-7901
▁lap	-7902
ెడ్డి	-7903
▁2500	-7904
▁Oven	-7905
▁deep	-7906
▁ride	-7907
rength	-7908
▁params	-7909
▁applied	-7910
▁uniform	-7911
AI	-7912
"])	-7913
_{2	-7914
lan	-7915
త్య	-7916
▁91	-7917
▁Ax	-7918
▁మహ	-7919
anda	-7920
band	-7921
four	-7922
isms	-7923
lets	-7924
▁30)	-7925
▁Flo	-7926
▁pul	-7927
▁bran	-7928
▁(2/3)	-7929
▁attra	-7930
▁movie	-7931
▁sleep	-7932
▁thous	-7933
▁topic	-7934
▁cylind	-7935
▁messages	-7936
▁ordinary	-7937
▁periodic	-7938
▁Wednesday	-7939
▁continues	-7940
▁iterative	-7941
▁permutation	-7942
+$	-7943
df	-7944
11,	-7945
ela	-7946
ita	-7947
rho	-7948
onal	-7949
osed	-7950
▁288	-7951
▁5.5	-7952
▁Pat	-7953
▁gum	-7954
▁rad	-7955
input	-7956
integ	-7957
▁flat	-7958
▁photo	-7959
▁straw	-7960
▁శాసనస	-7961
▁సహాయక	-7962
▁though	-7963
▁elapsed	-7964
Entailment	-7965
▁community	-7966
▁dictionary	-7967
▁⇒	-7968
sal	-7969
ాల్	-7970
half	-7971
▁(2/	-7972
▁AND	-7973
iency	-7974
Circle	-7975
ursday	-7976
▁theta	-7977
defined	-7978
▁hyperb	-7979
▁predic	-7980
▁శాసనసభ	-7981
fetchone	-7982
▁Because	-7983
▁Generate	-7984
▁Comparing	-7985
▁attention	-7986
▁inscribed	-7987
▁environment	-7988
పో	-7989
)/(	-7990
/13	-7991
1));	-7992
aken	-7993
hash	-7994
▁iss	-7995
▁∂/∂	-7996
moles	-7997
▁chap	-7998
▁Ticks	-7999
▁super	-8000
▁vehic	-8001
▁experi	-8002
▁fields	-8003
▁living	-8004
▁strike	-8005
▁styles	-8006
▁Another	-8007
▁rounded	-8008
▁Poincaré	-8009
▁reported	-8010
▁separate	-8011
▁mathematics	-8012
▁eigenvectors	-8013
dot	-8014
ugh	-8015
▁),	-8016
▁కె	-8017
0.00	-8018
atin	-8019
otor	-8020
ారాయ	-8021
▁$3.	-8022
▁Bro	-8023
▁Cat	-8024
▁Rus	-8025
▁రామ	-8026
teady	-8027
dashed	-8028
▁accom	-8029
▁loses	-8030
▁saved	-8031
▁window	-8032
▁samples	-8033
▁tetrahedron	-8034
CH	-8035
-4)	-8036
flo	-8037
pez	-8038
ubs	-8039
▁[[	-8040
▁dv	-8041
(-1)	-8042
orig	-8043
rots	-8044
▁45.	-8045
▁hot	-8046
empty	-8047
ivery	-8048
steps	-8049
usion	-8050
hentic	-8051
▁(-1)^	-8052
rounded	-8053
▁Surface	-8054
▁crayons	-8055
▁parabola	-8056
▁competition	-8057
▁considering	-8058
6}	-8059
)):	-8060
75)	-8061
can	-8062
▁Mo	-8063
▁శా	-8064
2,3,	-8065
unit	-8066
▁1)(	-8067
▁kit	-8068
heets	-8069
titude	-8070
▁Emily	-8071
▁moves	-8072
▁promp	-8073
orthern	-8074
▁classif	-8075
▁substitution	-8076
_04	-8077
geq	-8078
▁Ol	-8079
/10)	-8080
_5_5	-8081
▁60.	-8082
▁Squ	-8083
▁piv	-8084
goals	-8085
▁$(1,	-8086
▁1800	-8087
▁LoRa	-8088
▁deck	-8089
▁sure	-8090
▁(4/3)	-8091
▁Betti	-8092
▁explo	-8093
berries	-8094
▁German	-8095
▁Sensor	-8096
▁health	-8097
▁modify	-8098
▁actually	-8099
▁churches	-8100
▁military	-8101
▁Iteration	-8102
▁contradic	-8103
▁generator	-8104
▁inventory	-8105
▁eigenvalue	-8106
▁experiment	-8107
do	-8108
-5)	-8109
192	-8110
=16	-8111
ups	-8112
^2$.	-8113
ises	-8114
sest	-8115
▁$4.	-8116
▁106	-8117
▁BLE	-8118
▁Rev	-8119
▁sci	-8120
anted	-8121
▁Adam	-8122
angers	-8123
reland	-8124
selves	-8125
▁treat	-8126
▁trial	-8127
▁woman	-8128
riction	-8129
▁career	-8130
▁little	-8131
▁reflect	-8132
▁accurate	-8133
▁appropri	-8134
▁stickers	-8135
▁decreased	-8136
▁populations	-8137
▁traditional	-8138
BA	-8139
We	-8140
జీ	-8141
250	-8142
▁Di	-8143
lear	-8144
than	-8145
▁165	-8146
▁260	-8147
rease	-8148
elbrot	-8149
▁Inter	-8150
▁Price	-8151
▁eaten	-8152
outhern	-8153
▁Angela	-8154
▁recomm	-8155
▁predict	-8156
▁puppies	-8157
temporary	-8158
▁centered	-8159
▁economic	-8160
▁quarters	-8161
▁Mandelbrot	-8162
▁interested	-8163
▁Hamiltonian	-8164
)$:	-8165
*12	-8166
tha	-8167
gent	-8168
▁420	-8169
▁Ben	-8170
▁tur	-8171
gener	-8172
rooms	-8173
▁2006	-8174
▁Dict	-8175
▁10^(-	-8176
▁pipes	-8177
▁discre	-8178
▁seventh	-8179
▁Scotland	-8180
▁authentic	-8181
aconsistent	-8182
▁revolution	-8183
▁themselves	-8184
TR	-8185
333	-8186
|^2	-8187
బ్బ	-8188
▁0]	-8189
▁Ac	-8190
▁Vi	-8191
▁hm	-8192
omas	-8193
reek	-8194
teen	-8195
▁(6,	-8196
▁1/7	-8197
▁50)	-8198
▁tip	-8199
ogene	-8200
▁Hall	-8201
▁rice	-8202
▁wait	-8203
▁పచ్చ	-8204
employ	-8205
▁prize	-8206
▁tenth	-8207
▁driver	-8208
▁recogn	-8209
▁trying	-8210
▁driving	-8211
▁relates	-8212
▁knowledge	-8213
▁ప్రాంతాలు	-8214
▁algorithms	-8215
▁encryption	-8216
NW	-8217
_2$	-8218
arm	-8219
pan	-8220
▁ml	-8221
▁$1$	-8222
▁40,	-8223
▁Los	-8224
Glass	-8225
ictor	-8226
marks	-8227
oking	-8228
▁Phil	-8229
▁maps	-8230
ipping	-8231
▁Canad	-8232
▁chall	-8233
▁inner	-8234
connect	-8235
▁1000.0	-8236
▁Mackey	-8237
▁transi	-8238
▁utility	-8239
▁assigned	-8240
▁contribution	-8241
,"	-8242
{9	-8243
(2\	-8244
150	-8245
ads	-8246
omy	-8247
(2))	-8248
lish	-8249
span	-8250
▁60,	-8251
▁Its	-8252
▁Lou	-8253
▁emb	-8254
▁hex	-8255
▁లిం	-8256
ieval	-8257
isher	-8258
tered	-8259
▁0.5)	-8260
▁tour	-8261
_00027	-8262
▁occup	-8263
▁pivot	-8264
▁sheep	-8265
▁tests	-8266
▁alphab	-8267
▁drives	-8268
▁floors	-8269
▁symbol	-8270
ximately	-8271
▁Central	-8272
▁accidents	-8273
▁contributed	-8274
(9	-8275
rö	-8276
/(2	-8277
=25	-8278
isa	-8279
uan	-8280
uri	-8281
▁భా	-8282
aker	-8283
irls	-8284
▁28,	-8285
▁Day	-8286
▁hus	-8287
▁pan	-8288
ville	-8289
▁Hill	-8290
▁Mari	-8291
_00008	-8292
assert	-8293
output	-8294
▁knows	-8295
▁almost	-8296
▁worker	-8297
fetchall	-8298
▁achieve	-8299
▁drawing	-8300
▁profits	-8301
▁operator	-8302
▁upcoming	-8303
వే	-8304
bee	-8305
▁).	-8306
▁అడ	-8307
▁తీ	-8308
adem	-8309
ivil	-8310
rban	-8311
▁126	-8312
▁132	-8313
▁Sal	-8314
▁Tra	-8315
▁tag	-8316
▁ఎస్	-8317
^{-1}	-8318
▁1/15	-8319
▁2007	-8320
▁2008	-8321
otimes	-8322
▁bills	-8323
((0,0),	-8324
▁command	-8325
fficiency	-8326
▁industry	-8327
▁proposal	-8328
▁systematic	-8329
▁arrangement	-8330
*8	-8331
\,	-8332
nu	-8333
▁γ	-8334
101	-8335
onn	-8336
▁2$	-8337
▁93	-8338
____	-8339
risk	-8340
▁22.	-8341
▁pas	-8342
▁spr	-8343
8080/	-8344
Arrow	-8345
కింగు	-8346
ారాయణ	-8347
▁$500	-8348
▁Cast	-8349
▁Play	-8350
overed	-8351
▁avoid	-8352
▁focus	-8353
similar	-8354
▁Center	-8355
▁carpet	-8356
▁served	-8357
▁sports	-8358
▁లింకులు	-8359
▁dominant	-8360
▁బ్యాంకింగు	-8361
▁మార్కెటింగు	-8362
.9	-8363
No	-8364
sl	-8365
+30	-8366
fri	-8367
leg	-8368
olf	-8369
saf	-8370
▁4!	-8371
▁AD	-8372
▁NE	-8373
▁కృ	-8374
▁దీ	-8375
▁∂2	-8376
=(0,	-8377
=808	-8378
_6_5	-8379
blue	-8380
ccer	-8381
umul	-8382
▁1/9	-8383
▁12%	-8384
▁21,	-8385
▁22,	-8386
▁4/3	-8387
▁Mrs	-8388
▁Non	-8389
▁Show	-8390
▁aver	-8391
▁orth	-8392
Engine	-8393
▁8080.	-8394
▁Const	-8395
▁stoch	-8396
=8080)`	-8397
▁centre	-8398
▁Charlie	-8399
▁Ireland	-8400
▁contact	-8401
▁schools	-8402
▁generators	-8403
▁stochastic	-8404
▁triangular	-8405
▁Relationship	-8406
+(	-8407
oday	-8408
tile	-8409
▁Ken	-8410
clean	-8411
▁0.95	-8412
▁Dist	-8413
▁pure	-8414
▁కాలు	-8415
elines	-8416
future	-8417
▁motor	-8418
▁Newton	-8419
▁reduce	-8420
▁street	-8421
▁trapez	-8422
▁College	-8423
▁జిల్లాలోని	-8424
)),	-8425
13.	-8426
=30	-8427
aut	-8428
gen	-8429
both	-8430
▁25)	-8431
▁2^3	-8432
▁3.8	-8433
▁reb	-8434
▁1600	-8435
▁Only	-8436
▁iron	-8437
▁gamma	-8438
▁owner	-8439
▁sizes	-8440
▁trust	-8441
▁usage	-8442
issance	-8443
marbles	-8444
▁batter	-8445
▁litres	-8446
▁marked	-8447
▁silver	-8448
▁morning	-8449
▁studies	-8450
▁subsets	-8451
▁totient	-8452
▁Applying	-8453
▁computed	-8454
▁diagonals	-8455
▁explained	-8456
▁chocolates	-8457
▁cylindrical	-8458
An	-8459
CP	-8460
మె	-8461
105	-8462
6),	-8463
▁".	-8464
inda	-8465
itan	-8466
వత్స	-8467
▁$45	-8468
▁Wal	-8469
▁ill	-8470
▁రచన	-8471
cohol	-8472
units	-8473
▁0.03	-8474
▁novel	-8475
▁guests	-8476
▁stones	-8477
ogeneous	-8478
▁closest	-8479
▁strength	-8480
కల	-8481
తా	-8482
యో	-8483
▁Γ	-8484
(60	-8485
ube	-8486
anna	-8487
chol	-8488
ingu	-8489
role	-8490
▁6),	-8491
▁Bay	-8492
▁Met	-8493
binom	-8494
echan	-8495
ipped	-8496
▁jack	-8497
▁రోడ్	-8498
▁award	-8499
▁metre	-8500
▁thief	-8501
osition	-8502
▁walked	-8503
▁wanted	-8504
▁request	-8505
▁attended	-8506
Rightarrow	-8507
▁typically	-8508
1=	-8509
▁τ	-8510
700	-8511
ino	-8512
ius	-8513
reg	-8514
zed	-8515
▁RE	-8516
task	-8517
wood	-8518
▁nth	-8519
▁(-0.	-8520
▁0.2,	-8521
▁Cath	-8522
▁Over	-8523
▁cool	-8524
▁Carlo	-8525
▁entry	-8526
▁finds	-8527
▁veget	-8528
▁Sample	-8529
▁chains	-8530
▁detail	-8531
▁orient	-8532
▁relate	-8533
▁shares	-8534
▁spring	-8535
▁steady	-8536
▁changed	-8537
production	-8538
▁extension	-8539
▁published	-8540
▁particularly	-8541
kx	-8542
mm	-8543
▁£	-8544
=0,	-8545
ica	-8546
zer	-8547
ర్ల	-8548
▁},	-8549
▁తి	-8550
▁వీ	-8551
arah	-8552
fall	-8553
icro	-8554
▁3.6	-8555
▁beg	-8556
▁ful	-8557
field	-8558
▁Once	-8559
▁bike	-8560
_00006	-8561
▁Japan	-8562
▁Schrö	-8563
▁chann	-8564
▁trade	-8565
▁రాష్ట	-8566
century	-8567
ipeline	-8568
▁accept	-8569
▁offers	-8570
▁Mathema	-8571
▁combine	-8572
▁himself	-8573
▁Together	-8574
▁describe	-8575
▁election	-8576
▁national	-8577
▁restaurant	-8578
▁transformation	-8579
ua	-8580
(45	-8581
+5)	-8582
lls	-8583
sey	-8584
వలు	-8585
▁==	-8586
▁వె	-8587
[-1]	-8588
plus	-8589
tific	-8590
trust	-8591
white	-8592
▁$120	-8593
▁2011	-8594
▁coll	-8595
▁mush	-8596
dinger	-8597
▁Stock	-8598
▁tomat	-8599
▁corner	-8600
▁formul	-8601
▁shorter	-8602
▁Historic	-8603
▁removing	-8604
▁selection	-8605
▁Schrödinger	-8606
▁convergence	-8607
▁perpendicular	-8608
)?	-8609
(30	-8610
arc	-8611
})$	-8612
స్థ	-8613
▁Tw	-8614
high	-8615
tect	-8616
▁Mor	-8617
▁vot	-8618
--(0,	-8619
delay	-8620
espec	-8621
world	-8622
▁Kate	-8623
▁burn	-8624
▁అడవి	-8625
apples	-8626
mistry	-8627
shirts	-8628
▁Years	-8629
▁designs	-8630
▁thought	-8631
▁calories	-8632
▁covering	-8633
▁canonical	-8634
▁evolution	-8635
▁scenarios	-8636
PD	-8637
▁Ã	-8638
▁డ	-8639
*0.	-8640
▁(14	-8641
▁17.	-8642
▁Cor	-8643
▁fre	-8644
▁2010	-8645
▁join	-8646
▁says	-8647
ricket	-8648
▁radio	-8649
▁stage	-8650
▁stars	-8651
▁yield	-8652
gorithm	-8653
history	-8654
special	-8655
▁drinks	-8656
▁medium	-8657
▁Further	-8658
▁doubled	-8659
▁married	-8660
▁analytic	-8661
▁appeared	-8662
▁employed	-8663
▁chromatic	-8664
▁maximizes	-8665
▁universal	-8666
▁Calculating	-8667
/9)	-8668
1^2	-8669
epis	-8670
ొన్న	-8671
▁(40	-8672
▁168	-8673
▁Tim	-8674
▁Zig	-8675
▁ఇది	-8676
=80)`	-8677
child	-8678
inted	-8679
multi	-8680
▁$150	-8681
▁UART	-8682
▁drop	-8683
▁seat	-8684
scores	-8685
▁River	-8686
▁mango	-8687
plectic	-8688
▁claims	-8689
▁errors	-8690
required	-8691
▁Charles	-8692
▁longest	-8693
▁periods	-8694
▁chemical	-8695
▁discussed	-8696
▁financial	-8697
▁architects	-8698
2/	-8699
900	-8700
{10	-8701
▁గో	-8702
)--(	-8703
otel	-8704
▁3^2	-8705
▁Tri	-8706
▁mos	-8707
▁mps	-8708
▁మేత	-8709
▁Expl	-8710
▁Mike	-8711
antine	-8712
direct	-8713
▁plays	-8714
iration	-8715
▁expend	-8716
▁forget	-8717
▁plates	-8718
▁పచ్చిక	-8719
▁identif	-8720
▁కాలువలు	-8721
▁advanced	-8722
▁entrance	-8723
▁intervals	-8724
▁efficiency	-8725
▁influenced	-8726
▁statistics	-8727
HA	-8728
▁∑	-8729
)!)	-8730
=18	-8731
bus	-8732
ాలి	-8733
▁'{	-8734
hand	-8735
lood	-8736
reen	-8737
కత్వ	-8738
శ్వత	-8739
▁104	-8740
▁230	-8741
▁ess	-8742
clide	-8743
▁0.5,	-8744
▁1/20	-8745
▁bits	-8746
▁flour	-8747
▁outer	-8748
clidean	-8749
▁castle	-8750
▁copies	-8751
▁శాశ్వత	-8752
▁America	-8753
▁payment	-8754
▁usually	-8755
▁carrying	-8756
▁concepts	-8757
▁generates	-8758
▁libraries	-8759
▁initialize	-8760
▁symplectic	-8761
▁appropriate	-8762
▁replacement	-8763
దే	-8764
▁⋊	-8765
▁⟨	-8766
ivp	-8767
lon	-8768
rus	-8769
▁Hy	-8770
▁mm	-8771
▁ur	-8772
((1,	-8773
ర్తి	-8774
▁33.	-8775
alled	-8776
phone	-8777
▁shif	-8778
spring	-8779
▁Apply	-8780
▁Appro	-8781
▁acres	-8782
▁మండలం	-8783
▁attemp	-8784
▁dollar	-8785
▁matter	-8786
▁sheets	-8787
▁weekend	-8788
▁contract	-8789
▁district	-8790
▁frequent	-8791
▁Simplifying	-8792
▁alternating	-8793
▁authentication	-8794
^8	-8795
మణ	-8796
▁∴	-8797
0).	-8798
^2-	-8799
ira	-8800
iri	-8801
▁2}	-8802
rial	-8803
▁(3.	-8804
▁Ant	-8805
▁[2,	-8806
▁anc	-8807
ldots	-8808
tings	-8809
▁(1/2	-8810
▁0.1)	-8811
▁Four	-8812
▁vote	-8813
extend	-8814
▁prism	-8815
▁Zigbee	-8816
▁compan	-8817
▁fertil	-8818
▁marble	-8819
▁queries	-8820
▁affected	-8821
▁converges	-8822
▁households	-8823
LO	-8824
kl	-8825
ox	-8826
▁≅	-8827
▁NU	-8828
)/2,	-8829
ptim	-8830
▁166	-8831
▁30-	-8832
{1}{3	-8833
▁0.12	-8834
▁0.20	-8835
▁Fran	-8836
▁duck	-8837
▁inch	-8838
▁seem	-8839
mathrm	-8840
passed	-8841
పురంలో	-8842
▁lands	-8843
▁invari	-8844
▁రోడ్లు	-8845
▁bounded	-8846
▁suggests	-8847
▁conjugate	-8848
▁incorrect	-8849
▁projection	-8850
▁observation	-8851
={	-8852
^7	-8853
13,	-8854
136	-8855
=14	-8856
hop	-8857
▁8:	-8858
_0_5	-8859
కారం	-8860
▁119	-8861
▁Tem	-8862
▁bur	-8863
▁tom	-8864
iling	-8865
▁adop	-8866
▁Brown	-8867
▁Carol	-8868
▁homot	-8869
▁horse	-8870
agement	-8871
herical	-8872
▁arctan	-8873
▁figures	-8874
▁sitting	-8875
▁దర్శకత్వ	-8876
omorphisms	-8877
▁Euclidean	-8878
▁principle	-8879
▁subtracting	-8880
8}	-8881
TT	-8882
bp	-8883
)^3	-8884
_3,	-8885
ంటి	-8886
్యూ	-8887
▁(∂	-8888
▁6!	-8889
▁sr	-8890
▁lie	-8891
▁అనే	-8892
bling	-8893
iffer	-8894
ising	-8895
ాపూర్	-8896
▁-0.0	-8897
▁0.04	-8898
ampion	-8899
▁dimes	-8900
▁strip	-8901
context	-8902
uniform	-8903
▁Victor	-8904
▁defect	-8905
▁Laplace	-8906
▁Thursday	-8907
▁notebooks	-8908
▁quantities	-8909
▁recurrence	-8910
------------	-8911
arrangements	-8912
AS	-8913
OL	-8914
ca	-8915
రే	-8916
▁~	-8917
/6)	-8918
cil	-8919
oke	-8920
▁8%	-8921
acon	-8922
iors	-8923
odic	-8924
show	-8925
▁$2,	-8926
▁Act	-8927
▁Mid	-8928
▁dry	-8929
▁fly	-8930
▁sib	-8931
minus	-8932
token	-8933
▁8000	-8934
▁Comm	-8935
▁king	-8936
▁meal	-8937
▁scal	-8938
Arrows	-8939
format	-8940
▁brick	-8941
▁calls	-8942
▁sends	-8943
▁Adding	-8944
▁Clevel	-8945
▁Thomas	-8946
▁campus	-8947
▁decide	-8948
▁online	-8949
▁rabbit	-8950
levision	-8951
▁appears	-8952
▁homework	-8953
▁political	-8954
▁magnitudes	-8955
*9	-8956
-15	-8957
eat	-8958
▁[2	-8959
$",(	-8960
burg	-8961
gain	-8962
nter	-8963
}$",	-8964
▁Equ	-8965
▁Ros	-8966
▁exc	-8967
▁jun	-8968
sures	-8969
▁Half	-8970
▁adds	-8971
▁cred	-8972
public	-8973
{1}{3}	-8974
▁China	-8975
▁Green	-8976
▁Jerry	-8977
▁Smith	-8978
▁Where	-8979
▁domes	-8980
▁prior	-8981
▁relev	-8982
▁Simple	-8983
▁announ	-8984
▁critic	-8985
▁spread	-8986
▁deliver	-8987
▁portion	-8988
▁sprints	-8989
▁homogeneous	-8990
▁instructions	-8991
&&	-8992
\%	-8993
gn	-8994
రీ	-8995
ీల	-8996
=24	-8997
_19	-8998
roy	-8999
ర్గ	-9000
▁దు	-9001
-1)(	-9002
_0_2	-9003
seed	-9004
style	-9005
▁16.0	-9006
▁conv	-9007
▁pink	-9008
▁వేరు	-9009
▁homes	-9010
▁songs	-9011
actions	-9012
▁Design	-9013
▁Vertex	-9014
▁మొదలైన	-9015
solutions	-9016
▁applying	-9017
▁visitors	-9018
enaissance	-9019
▁palindrom	-9020
▁defaultpen	-9021
▁hyperplane	-9022
▁separately	-9023
▁participants	-9024
1+	-9025
▁ఖ	-9026
16)	-9027
hab	-9028
has	-9029
సిన	-9030
item	-9031
pret	-9032
uman	-9033
▁(1.	-9034
▁Fil	-9035
▁Hol	-9036
▁bad	-9037
▁fro	-9038
▁rob	-9039
▁thr	-9040
works	-9041
▁1.25	-9042
▁2009	-9043
▁gene	-9044
_00003	-9045
_00004	-9046
▁overt	-9047
▁radii	-9048
▁Program	-9049
▁alcohol	-9050
▁fencing	-9051
▁Cleveland	-9052
▁president	-9053
▁simulated	-9054
▁jellybeans	-9055
▁holomorphic	-9056
PT	-9057
QR	-9058
▁;	-9059
(15	-9060
fin	-9061
▁4\	-9062
▁ce	-9063
(30)	-9064
MATH	-9065
amin	-9066
boys	-9067
▁$2$	-9068
▁(36	-9069
▁MAT	-9070
▁Sen	-9071
▁inj	-9072
▁lab	-9073
_0023	-9074
eeper	-9075
girls	-9076
uries	-9077
పల్లె	-9078
▁(120	-9079
▁NULL	-9080
▁Rich	-9081
_00009	-9082
choose	-9083
▁brand	-9084
▁typing	-9085
▁dropped	-9086
▁tonight	-9087
▁altitude	-9088
▁formulas	-9089
▁rotation	-9090
▁చిత్రాలు	-9091
ortunately	-9092
▁practical	-9093
)}\	-9094
15.	-9095
18,	-9096
ams	-9097
dro	-9098
ూరి	-9099
▁Er	-9100
▁నా	-9101
(200	-9102
^2}{	-9103
aked	-9104
amer	-9105
tegy	-9106
▁27.	-9107
▁32.	-9108
▁Ang	-9109
▁Den	-9110
▁dol	-9111
▁condu	-9112
▁picks	-9113
▁schol	-9114
▁solid	-9115
ospital	-9116
▁author	-9117
▁retail	-9118
▁seated	-9119
▁soccer	-9120
▁sticks	-9121
▁Maxwell	-9122
▁creates	-9123
▁midnight	-9124
▁normally	-9125
▁topology	-9126
▁traveler	-9127
▁companies	-9128
▁hyperbolic	-9129
▁trajectory	-9130
▁Renaissance	-9131
▁necessarily	-9132
▁possibility	-9133
జా	-9134
2.5	-9135
ios	-9136
}_{	-9137
▁*=	-9138
▁-=	-9139
▁8!	-9140
))^2	-9141
LETE	-9142
_{-\	-9143
eder	-9144
fric	-9145
ంధ్ర	-9146
▁RAM	-9147
▁edu	-9148
▁etc	-9149
Ticks	-9150
ennis	-9151
erval	-9152
loads	-9153
store	-9154
▁Brit	-9155
▁func	-9156
calcul	-9157
▁activ	-9158
▁beans	-9159
▁doing	-9160
▁trips	-9161
▁tuple	-9162
▁Robert	-9163
▁adjust	-9164
▁caused	-9165
▁extern	-9166
▁jogger	-9167
▁mechan	-9168
▁museum	-9169
▁husband	-9170
▁mention	-9171
overnance	-9172
▁teachers	-9173
▁altogether	-9174
2]	-9175
▁ట	-9176
/50	-9177
75,	-9178
hot	-9179
}\]	-9180
ుంట	-9181
1000	-9182
keys	-9183
▁11)	-9184
▁19,	-9185
▁2.7	-9186
▁80,	-9187
▁Pri	-9188
▁Raj	-9189
▁dra	-9190
▁hal	-9191
▁lik	-9192
ffice	-9193
zeros	-9194
▁(0.5	-9195
▁Math	-9196
▁pies	-9197
▁Julia	-9198
▁noted	-9199
▁persp	-9200
▁websi	-9201
acteria	-9202
counter	-9203
▁Combin	-9204
▁closes	-9205
▁easily	-9206
▁forest	-9207
category	-9208
omething	-9209
▁exchange	-9210
▁mutation	-9211
▁crossover	-9212
fortunately	-9213
యి	-9214
+1,	-9215
0**	-9216
umb	-9217
ారం	-9218
▁Ir	-9219
▁kn	-9220
prob	-9221
prom	-9222
umer	-9223
{2}{	-9224
})$.	-9225
▁Cap	-9226
▁Mad	-9227
▁Sus	-9228
▁Wil	-9229
▁దేశ	-9230
(1/3)	-9231
abric	-9232
▁Germ	-9233
▁TEXT	-9234
_00037	-9235
ouncil	-9236
▁usual	-9237
▁కృష్ణ	-9238
▁arccos	-9239
▁biology	-9240
▁contest	-9241
▁village	-9242
▁widgets	-9243
▁argument	-9244
▁Christian	-9245
▁exponents	-9246
▁compounded	-9247
▁underlying	-9248
▁university	-9249
5}	-9250
=-	-9251
TH	-9252
12)	-9253
135	-9254
^3.	-9255
_0(	-9256
las	-9257
oms	-9258
ura	-9259
utf	-9260
("$\	-9261
ecti	-9262
tell	-9263
▁185	-9264
▁2).	-9265
▁23.	-9266
▁lcm	-9267
_{22}	-9268
atory	-9269
licit	-9270
▁-0.5	-9271
▁Cour	-9272
▁hill	-9273
▁upon	-9274
ington	-9275
ptions	-9276
return	-9277
▁$1000	-9278
▁ideas	-9279
▁stops	-9280
▁Daniel	-9281
▁impact	-9282
▁prompt	-9283
possible	-9284
▁Correct	-9285
▁candles	-9286
▁modulus	-9287
▁strings	-9288
▁activity	-9289
▁electron	-9290
▁movement	-9291
▁partners	-9292
▁మొదలైనవి	-9293
▁duplicate	-9294
▁framework	-9295
▁sufficient	-9296
relationship	-9297
2*	-9298
3*	-9299
^9	-9300
()`	-9301
128	-9302
=40	-9303
ida	-9304
▁2%	-9305
▁5]	-9306
▁6*	-9307
▁ni	-9308
(0.7	-9309
ager	-9310
piec	-9311
▁Dar	-9312
▁bit	-9313
▁yet	-9314
_0011	-9315
atial	-9316
lines	-9317
▁Koch	-9318
▁spir	-9319
ilbert	-9320
▁depth	-9321
▁exten	-9322
idirect	-9323
results	-9324
▁Amount	-9325
▁commer	-9326
enchmark	-9327
fontsize	-9328
▁entered	-9329
▁Building	-9330
▁Moreover	-9331
▁computes	-9332
▁explicit	-9333
▁medieval	-9334
▁numbered	-9335
▁attractor	-9336
▁multiplic	-9337
▁regardless	-9338
▁separation	-9339
IV	-9340
్ష	-9341
(8)	-9342
/2.	-9343
ais	-9344
att	-9345
lyn	-9346
▁CO	-9347
3333	-9348
baum	-9349
lymp	-9350
oice	-9351
xmax	-9352
▁$11	-9353
▁$36	-9354
▁330	-9355
▁via	-9356
▁ఉంట	-9357
,000)	-9358
annah	-9359
ckets	-9360
idden	-9361
insky	-9362
▁exec	-9363
_00023	-9364
bottom	-9365
▁Great	-9366
▁Latin	-9367
▁diver	-9368
▁divid	-9369
▁ideal	-9370
▁potat	-9371
▁urban	-9372
▁ఆంధ్ర	-9373
etailed	-9374
quality	-9375
tegrate	-9376
▁animal	-9377
▁attrib	-9378
▁happen	-9379
▁billing	-9380
▁brownies	-9381
▁endpoints	-9382
▁imaginary	-9383
▁generation	-9384
▁importance	-9385
-$	-9386
))]	-9387
ERT	-9388
]]:	-9389
hex	-9390
unn	-9391
▁2/	-9392
▁4%	-9393
▁Cy	-9394
esti	-9395
expr	-9396
▁8/3	-9397
▁Mal	-9398
▁fee	-9399
▁kms	-9400
Total	-9401
itage	-9402
▁""",	-9403
$",(0,	-9404
urance	-9405
▁(0,0,	-9406
▁తోటలు	-9407
integer	-9408
nealing	-9409
▁commod	-9410
▁forced	-9411
▁gained	-9412
▁నిర్మా	-9413
▁nickels	-9414
2.168.1.5	-9415
arrowsize	-9416
▁inspired	-9417
especially	-9418
▁Transform	-9419
▁education	-9420
▁integrating	-9421
▁Unfortunately	-9422
▁international	-9423
────────────────	-9424
-|	-9425
3%	-9426
][	-9427
gu	-9428
yi	-9429
హద	-9430
**4	-9431
Res	-9432
cor	-9433
pow	-9434
rab	-9435
▁[1	-9436
bits	-9437
irds	-9438
rast	-9439
star	-9440
yond	-9441
రాజు	-9442
▁-1)	-9443
▁121	-9444
▁3).	-9445
▁Mac	-9446
▁fix	-9447
hakes	-9448
▁Brad	-9449
▁Jose	-9450
▁copy	-9451
▁kept	-9452
tailed	-9453
urgers	-9454
▁10:00	-9455
▁chose	-9456
▁beyond	-9457
▁highly	-9458
▁prison	-9459
▁rolling	-9460
▁Catholic	-9461
▁modified	-9462
▁spherical	-9463
▁stability	-9464
▁decreasing	-9465
▁timesheets	-9466
▁eigenvector	-9467
▁expenditure	-9468
({	-9469
2\	-9470
US	-9471
iy	-9472
fil	-9473
ద్ధ	-9474
్యా	-9475
▁(?	-9476
▁2]	-9477
▁6%	-9478
▁6-	-9479
▁bc	-9480
phas	-9481
tage	-9482
▁156	-9483
▁186	-9484
▁ODE	-9485
akers	-9486
oidal	-9487
sters	-9488
▁0.99	-9489
▁Vari	-9490
▁corn	-9491
titute	-9492
▁Gener	-9493
▁Monte	-9494
▁minim	-9495
▁semic	-9496
▁వేరుశ	-9497
ativity	-9498
plotlib	-9499
▁belong	-9500
▁expand	-9501
igenbaum	-9502
nowledge	-9503
rational	-9504
umulative	-9505
▁defining	-9506
▁exhibits	-9507
▁priority	-9508
▁pipelines	-9509
▁historical	-9510
▁television	-9511
▁సాగవుతున్న	-9512
FT	-9513
He	-9514
RL	-9515
:05	-9516
=60	-9517
aid	-9518
avg	-9519
రుష	-9520
వాస	-9521
▁bn	-9522
▁గణ	-9523
cape	-9524
foot	-9525
grid	-9526
ours	-9527
▁(80	-9528
▁28.	-9529
▁Rou	-9530
adata	-9531
boxes	-9532
false	-9533
items	-9534
roman	-9535
▁0.08	-9536
▁guar	-9537
▁mill	-9538
▁salt	-9539
elling	-9540
▁Italy	-9541
estment	-9542
▁Recall	-9543
titution	-9544
▁Iterate	-9545
▁Science	-9546
▁minimal	-9547
▁suggest	-9548
▁వేరుశనగ	-9549
▁delivery	-9550
▁decreases	-9551
)+	-9552
SO	-9553
కట	-9554
▁¬	-9555
▁“	-9556
▁⊕	-9557
=50	-9558
fft	-9559
nal	-9560
pex	-9561
ued	-9562
లను	-9563
▁1⁄	-9564
ancy	-9565
ాలలో	-9566
▁123	-9567
▁176	-9568
▁52.	-9569
▁Lag	-9570
▁Pic	-9571
▁fas	-9572
▁que	-9573
onies	-9574
sided	-9575
ారావు	-9576
▁(-1,	-9577
▁1900	-9578
▁1980	-9579
▁1996	-9580
▁Matt	-9581
▁Rose	-9582
▁lose	-9583
fourth	-9584
iments	-9585
▁agree	-9586
▁lists	-9587
▁spots	-9588
radians	-9589
▁France	-9590
▁graphs	-9591
▁resear	-9592
instance	-9593
▁cricket	-9594
▁demonst	-9595
▁progress	-9596
▁reduction	-9597
▁especially	-9598
operatorname	-9599
CF	-9600
}'	-9601
("\	-9602
/35	-9603
196	-9604
2).	-9605
cot	-9606
▁dI	-9607
▁nC	-9608
▁కథ	-9609
(-1,	-9610
0.5)	-9611
^(-1	-9612
^{1,	-9613
post	-9614
▁$80	-9615
▁117	-9616
▁169	-9617
(100)	-9618
PDATE	-9619
▁1990	-9620
▁2016	-9621
▁Stra	-9622
▁lack	-9623
▁mind	-9624
▁mins	-9625
isions	-9626
▁Divid	-9627
▁blood	-9628
▁decay	-9629
atabase	-9630
▁shaded	-9631
▁Without	-9632
▁detailed	-9633
▁unitsize	-9634
▁computers	-9635
▁processing	-9636
IG	-9637
}:	-9638
▁ఘ	-9639
▁ధ	-9640
(7)	-9641
1/2	-9642
=2,	-9643
Hel	-9644
_03	-9645
ikx	-9646
}",	-9647
▁Mu	-9648
▁ba	-9649
▁జీ	-9650
▁సమ	-9651
50);	-9652
fair	-9653
last	-9654
▁48.	-9655
▁Dri	-9656
▁Old	-9657
▁SHA	-9658
▁వెం	-9659
built	-9660
ilies	-9661
image	-9662
pages	-9663
▁Five	-9664
▁capt	-9665
▁loan	-9666
▁10:05	-9667
▁annot	-9668
▁imple	-9669
▁steel	-9670
▁Castle	-9671
▁compar	-9672
▁cooper	-9673
▁losing	-9674
▁orthog	-9675
▁Between	-9676
▁modular	-9677
▁Republic	-9678
▁everyone	-9679
▁provides	-9680
▁completes	-9681
▁infinitely	-9682
▁membership	-9683
)'	-9684
7%	-9685
_20	-9686
ova	-9687
tig	-9688
}$?	-9689
▁6}	-9690
▁CI	-9691
▁Do	-9692
▁జా	-9693
▁శి	-9694
(-3)	-9695
chen	-9696
enne	-9697
▁0).	-9698
▁189	-9699
▁27,	-9700
▁31.	-9701
▁Sti	-9702
▁∫[-	-9703
iquid	-9704
▁john	-9705
▁sums	-9706
▁whom	-9707
_00007	-9708
antity	-9709
uction	-9710
▁Greek	-9711
▁Royal	-9712
▁tooth	-9713
▁League	-9714
▁league	-9715
▁wooden	-9716
▁foreign	-9717
▁heights	-9718
▁declared	-9719
▁situation	-9720
▁Feigenbaum	-9721
distribution	-9722
▁ȳ	-9723
169	-9724
2):	-9725
455	-9726
ias	-9727
▁$-	-9728
▁dV	-9729
)^2)	-9730
Step	-9731
What	-9732
enty	-9733
fold	-9734
oded	-9735
only	-9736
tein	-9737
tier	-9738
దేశ్	-9739
▁(-3	-9740
▁1.6	-9741
▁114	-9742
▁118	-9743
▁194	-9744
▁Joe	-9745
▁Que	-9746
▁aug	-9747
▁eng	-9748
▁oct	-9749
ciety	-9750
essor	-9751
hline	-9752
isson	-9753
large	-9754
▁Prov	-9755
▁Spec	-9756
▁fell	-9757
_00002	-9758
▁(3/2)	-9759
▁Afric	-9760
▁moles	-9761
▁refer	-9762
▁పురుష	-9763
▁పెద్ద	-9764
▁eighth	-9765
▁stands	-9766
▁towers	-9767
pression	-9768
response	-9769
▁adverti	-9770
▁primary	-9771
▁purpose	-9772
▁quickly	-9773
▁residue	-9774
.123456',	-9775
▁Chemical	-9776
▁southern	-9777
intercepts	-9778
▁Architect	-9779
▁extensive	-9780
▁itertools	-9781
▁locations	-9782
▁religious	-9783
▁satisfied	-9784
▁specified	-9785
overrightarrow	-9786
9%	-9787
yx	-9788
+4)	-9789
265	-9790
290	-9791
=0$	-9792
LAB	-9793
^(3	-9794
_02	-9795
_13	-9796
_3)	-9797
arg	-9798
rap	-9799
▁8-	-9800
▁TV	-9801
▁గా	-9802
▁మధ	-9803
None	-9804
norm	-9805
▁35%	-9806
▁URL	-9807
▁cow	-9808
print	-9809
tempt	-9810
▁(500	-9811
▁0.10	-9812
▁Last	-9813
▁rich	-9814
▁విడు	-9815
Option	-9816
▁chaos	-9817
seconds	-9818
▁Choose	-9819
▁cycles	-9820
▁expect	-9821
▁implic	-9822
▁nearby	-9823
▁termin	-9824
▁doubles	-9825
▁weather	-9826
▁alphabet	-9827
▁bacteria	-9828
▁crossing	-9829
▁vehicles	-9830
▁commodity	-9831
▁hundredth	-9832
▁cumulative	-9833
▁isinstance	-9834
▁semidirect	-9835
approximately	-9836
MP	-9837
SS	-9838
*20	-9839
ban	-9840
neq	-9841
sor	-9842
▁9:	-9843
▁ru	-9844
desc	-9845
egis	-9846
ites	-9847
misp	-9848
▁$19	-9849
▁111	-9850
▁23,	-9851
▁SET	-9852
▁Ter	-9853
orage	-9854
ంచాడు	-9855
▁6000	-9856
▁Mart	-9857
▁Type	-9858
▁asks	-9859
▁feel	-9860
▁reti	-9861
_00070	-9862
keeper	-9863
ported	-9864
▁(1/4)	-9865
▁Floer	-9866
▁chair	-9867
▁gains	-9868
▁lemon	-9869
▁ranks	-9870
▁royal	-9871
▁sheaf	-9872
▁చిత్ర	-9873
oration	-9874
student	-9875
▁Office	-9876
▁branch	-9877
▁emphas	-9878
▁photos	-9879
▁Poisson	-9880
▁typical	-9881
▁ప్రత్తి	-9882
▁challeng	-9883
▁mushrooms	-9884
▁దర్శకత్వం	-9885
▁ValueError	-9886
▁committees	-9887
▁profession	-9888
▁oscillation	-9889
▁perspective	-9890
లే	-9891
126	-9892
oud	-9893
}}{	-9894
ంకర	-9895
శాల	-9896
(20,	-9897
args	-9898
reme	-9899
same	-9900
tree	-9901
▁162	-9902
▁3/8	-9903
▁ANS	-9904
▁Due	-9905
▁Nav	-9906
▁pil	-9907
apers	-9908
rocal	-9909
▁rose	-9910
▁slow	-9911
bility	-9912
ulated	-9913
▁storm	-9914
▁moduli	-9915
▁Example	-9916
▁genetic	-9917
▁painted	-9918
▁approved	-9919
▁baseball	-9920
▁bootstra	-9921
▁harmonic	-9922
▁maintain	-9923
▁measured	-9924
▁numerous	-9925
▁observed	-9926
▁policeman	-9927
▁predicted	-9928
▁annotations	-9929
▁description	-9930
▁destination	-9931
1%	-9932
1*	-9933
AG	-9934
[-	-9935
rx	-9936
▁ψ	-9937
(16	-9938
15:	-9939
76.	-9940
ALU	-9941
agn	-9942
ani	-9943
dou	-9944
elt	-9945
lde	-9946
lig	-9947
ట్ల	-9948
్రమ	-9949
▁SD	-9950
▁అత	-9951
(20)	-9952
HELL	-9953
This	-9954
fail	-9955
offs	-9956
roke	-9957
semb	-9958
ymax	-9959
ymin	-9960
▁Air	-9961
▁Dem	-9962
▁Not	-9963
▁Ric	-9964
▁rub	-9965
_0_10	-9966
ascal	-9967
plate	-9968
tilde	-9969
▁2012	-9970
▁Data	-9971
▁Town	-9972
▁exer	-9973
▁owns	-9974
▁వచ్చ	-9975
_00095	-9976
cepted	-9977
health	-9978
otonic	-9979
string	-9980
▁Among	-9981
▁cable	-9982
▁coach	-9983
▁fully	-9984
titions	-9985
▁caches	-9986
▁planar	-9987
▁purple	-9988
▁showed	-9989
▁visual	-9990
════════	-9991
▁Revival	-9992
▁delayed	-9993
▁railway	-9994
▁commercial	-9995
▁department	-9996
▁introduced	-9997
▁theoretical	-9998
*$	-9999
NO	-10000
_(	-10001
vu	-10002
పే	-10003
/40	-10004
168	-10005
Note	-10006
illa	-10007
▁550	-10008
▁Bur	-10009
▁why	-10010
Cache	-10011
Point	-10012
given	-10013
itake	-10014
pling	-10015
▁poet	-10016
aclass	-10017
primes	-10018
▁grass	-10019
▁sense	-10020
▁tails	-10021
aligned	-10022
minutes	-10023
▁donuts	-10024
▁transl	-10025
▁hexagon	-10026
▁metrics	-10027
▁nonzero	-10028
▁reverse	-10029
▁sources	-10030
▁spatial	-10031
positions	-10032
▁calculates	-10033
▁preference	-10034
▁researcher	-10035
UL	-10036
{8	-10037
సా	-10038
ోహ	-10039
(18	-10040
)",	-10041
288	-10042
hay	-10043
ila	-10044
▁AS	-10045
▁మె	-10046
alla	-10047
aped	-10048
illy	-10049
osce	-10050
reat	-10051
▁$\$	-10052
▁(2.	-10053
▁10!	-10054
▁187	-10055
▁3.2	-10056
▁Ber	-10057
(6));	-10058
forms	-10059
split	-10060
sword	-10061
▁died	-10062
▁poem	-10063
▁tens	-10064
_00048	-10065
olving	-10066
స్తారు	-10067
▁Senna	-10068
▁broad	-10069
▁owned	-10070
▁relay	-10071
osceles	-10072
▁Intern	-10073
▁Select	-10074
▁Taking	-10075
▁couple	-10076
▁routes	-10077
▁highway	-10078
▁payoffs	-10079
▁duration	-10080
▁proposed	-10081
▁training	-10082
▁isosceles	-10083
▁eventually	-10084
2=	-10085
Be	-10086
75.	-10087
bro	-10088
oop	-10089
{11	-10090
}=\	-10091
▁(√	-10092
▁అవ	-10093
).$$	-10094
-1)!	-10095
2));	-10096
ABCD	-10097
^{2}	-10098
_011	-10099
iana	-10100
mosp	-10101
క్ష్	-10102
▁(17	-10103
▁136	-10104
▁19.	-10105
▁gar	-10106
▁క్ష	-10107
False	-10108
ippet	-10109
thing	-10110
▁(0.2	-10111
▁prem	-10112
_00090	-10113
member	-10114
salary	-10115
schema	-10116
▁10:10	-10117
▁10:30	-10118
▁Incre	-10119
▁blank	-10120
▁pants	-10121
▁teach	-10122
inguish	-10123
▁Engine	-10124
▁mutual	-10125
increase	-10126
▁balloon	-10127
▁culture	-10128
▁ensures	-10129
▁breaking	-10130
▁expanded	-10131
▁announced	-10132
▁criterion	-10133
▁describes	-10134
▁resources	-10135
▁frequencies	-10136
▁investments	-10137
▁contemporary	-10138
vy	-10139
జయ	-10140
("%	-10141
),$	-10142
20.	-10143
25.	-10144
idx	-10145
tin	-10146
uce	-10147
▁కళ	-10148
(1))	-10149
also	-10150
chat	-10151
cook	-10152
olly	-10153
▁145	-10154
▁5/6	-10155
▁Ice	-10156
▁Kar	-10157
▁toy	-10158
ander	-10159
clock	-10160
joint	-10161
tible	-10162
}{2}\	-10163
ందులో	-10164
▁0.85	-10165
▁Just	-10166
▁Noah	-10167
▁door	-10168
▁emer	-10169
▁grew	-10170
_00038	-10171
_00066	-10172
_00075	-10173
_00099	-10174
before	-10175
▁Sarah	-10176
▁alloy	-10177
▁tasks	-10178
parents	-10179
traffic	-10180
▁merged	-10181
▁yields	-10182
ensation	-10183
▁carried	-10184
▁descent	-10185
▁indices	-10186
▁temples	-10187
▁ప్రకారం	-10188
▁Kattappa	-10189
▁allowing	-10190
▁hospital	-10191
▁shopping	-10192
▁passenger	-10193
▁repeating	-10194
▁connecting	-10195
▁polynomials	-10196
3(	-10197
డే	-10198
▁∅	-10199
))$	-10200
166	-10201
176	-10202
178	-10203
ala	-10204
cis	-10205
fun	-10206
kov	-10207
rad	-10208
ras	-10209
sam	-10210
▁3\	-10211
▁Ma	-10212
▁ly	-10213
}.$$	-10214
▁$(\	-10215
▁tin	-10216
▁రహద	-10217
Aegis	-10218
ector	-10219
ettes	-10220
▁1100	-10221
▁1970	-10222
▁2005	-10223
▁3/10	-10224
▁Jill	-10225
▁jobs	-10226
▁puts	-10227
_00076	-10228
astern	-10229
▁0.05.	-10230
▁10:15	-10231
▁Union	-10232
▁deals	-10233
▁slice	-10234
▁tells	-10235
factory	-10236
▁grapes	-10237
▁tennis	-10238
original	-10239
▁Italian	-10240
▁aspects	-10241
▁voltage	-10242
▁Triangle	-10243
▁external	-10244
▁schedule	-10245
▁tomatoes	-10246
▁Intersection	-10247
▁homomorphism	-10248
1-	-10249
7_	-10250
UN	-10251
.12	-10252
11.	-10253
147	-10254
1}(	-10255
SON	-10256
_0,	-10257
_18	-10258
sinh	-10259
ేశ్వ	-10260
▁(2*	-10261
▁5/2	-10262
▁Fin	-10263
▁Vir	-10264
ALUES	-10265
Store	-10266
apped	-10267
crete	-10268
ransp	-10269
stone	-10270
unchi	-10271
▁18.0	-10272
▁Many	-10273
▁cart	-10274
▁flav	-10275
▁groc	-10276
▁tele	-10277
_00065	-10278
▁ducks	-10279
▁meets	-10280
▁ounce	-10281
▁Square	-10282
▁hypers	-10283
▁nunchi	-10284
▁రహదారి	-10285
▁adopted	-10286
▁attempt	-10287
▁nothing	-10288
▁picture	-10289
▁release	-10290
monotonic	-10291
▁changing	-10292
▁enclosed	-10293
▁languages	-10294
▁paintings	-10295
▁recommend	-10296
▁something	-10297
▁strangers	-10298
▁curvatures	-10299
▁distribute	-10300
▁matplotlib	-10301
▁vegetables	-10302
▁trigonometric	-10303
AE	-10304
AF	-10305
+11	-10306
-19	-10307
.05	-10308
163	-10309
408	-10310
_15	-10311
job	-10312
▁2!	-10313
▁డి	-10314
▁వై	-10315
-256	-10316
0)))	-10317
gall	-10318
qual	-10319
tons	-10320
umes	-10321
క్కు	-10322
▁(4)	-10323
▁1],	-10324
▁32,	-10325
▁650	-10326
▁Fre	-10327
▁ask	-10328
▁అని	-10329
NSERT	-10330
aging	-10331
assic	-10332
berry	-10333
color	-10334
deriv	-10335
obile	-10336
tfrac	-10337
▁Goal	-10338
▁bath	-10339
▁love	-10340
▁meta	-10341
▁pile	-10342
▁resi	-10343
minist	-10344
▁Earth	-10345
▁civil	-10346
▁evenly	-10347
arehouse	-10348
evidence	-10349
manifold	-10350
▁Percent	-10351
▁actions	-10352
▁arrived	-10353
▁chicken	-10354
▁decrypt	-10355
▁reasons	-10356
▁annually	-10357
▁favorite	-10358
▁official	-10359
▁measuring	-10360
▁consumption	-10361
▁differentiate	-10362
(-3	-10363
17,	-10364
198	-10365
^4)	-10366
sho	-10367
tis	-10368
ర్మ	-10369
▁fa	-10370
▁దా	-10371
▁బయ	-10372
▁మి	-10373
(0.0	-10374
^2))	-10375
hbar	-10376
west	-10377
ytop	-10378
పాడు	-10379
▁$3$	-10380
▁(0)	-10381
▁-3.	-10382
▁113	-10383
▁Cel	-10384
▁Ref	-10385
▁orn	-10386
▁కలి	-10387
▁తార	-10388
allad	-10389
estim	-10390
్త్రీ	-10391
▁$300	-10392
▁Anna	-10393
▁INTO	-10394
▁conc	-10395
▁reve	-10396
▁subt	-10397
▁succ	-10398
_00040	-10399
_00050	-10400
import	-10401
lowing	-10402
▁heart	-10403
▁signs	-10404
▁throw	-10405
▁agreed	-10406
▁atmosp	-10407
▁liquid	-10408
▁rating	-10409
▁respon	-10410
▁summer	-10411
Database	-10412
▁TicksAr	-10413
▁Western	-10414
▁charged	-10415
▁diamond	-10416
▁indexes	-10417
▁planned	-10418
▁squared	-10419
▁northern	-10420
▁predator	-10421
▁adjacency	-10422
▁exception	-10423
▁increment	-10424
▁volunteer	-10425
▁orthogonal	-10426
▁principles	-10427
▁volunteers	-10428
▁recursively	-10429
Rs	-10430
▁ఓ	-10431
((1	-10432
1**	-10433
108	-10434
124	-10435
14.	-10436
143	-10437
167	-10438
184	-10439
707	-10440
CON	-10441
▁",	-10442
▁3%	-10443
▁Ku	-10444
▁వర	-10445
^2$,	-10446
iers	-10447
mile	-10448
plac	-10449
xmin	-10450
్రహ్	-10451
▁(?,	-10452
▁2$.	-10453
▁GCD	-10454
▁Hom	-10455
▁zoo	-10456
_0025	-10457
arian	-10458
green	-10459
matic	-10460
optim	-10461
rates	-10462
stack	-10463
▁1960	-10464
▁50/3	-10465
▁Oliv	-10466
▁Orig	-10467
▁laid	-10468
▁pean	-10469
▁prey	-10470
▁puzz	-10471
_00078	-10472
_00080	-10473
▁10:20	-10474
▁Gauss	-10475
▁cells	-10476
▁omega	-10477
▁చంద్ర	-10478
▁పాటలు	-10479
placian	-10480
squares	-10481
uristic	-10482
▁cancel	-10483
▁నిర్మి	-10484
▁100,000	-10485
▁fastest	-10486
▁limited	-10487
▁opening	-10488
▁preserve	-10489
▁swimming	-10490
▁thousand	-10491
▁assistant	-10492
▁dependent	-10493
▁minimizes	-10494
▁performed	-10495
▁statistic	-10496
▁reciprocal	-10497
▁subsequent	-10498
చు	-10499
జి	-10500
రో	-10501
ACT	-10502
PRO	-10503
WER	-10504
avu	-10505
ona	-10506
×0.	-10507
ద్ర	-10508
▁Dy	-10509
▁Gr	-10510
▁MP	-10511
▁NW	-10512
1)--	-10513
elan	-10514
uvvu	-10515
writ	-10516
▁$0$	-10517
▁102	-10518
▁122	-10519
▁90,	-10520
evalf	-10521
othes	-10522
▁45.0	-10523
▁lawn	-10524
▁పేరు	-10525
▁∫[0,	-10526
_00060	-10527
teenth	-10528
▁1000)	-10529
▁merch	-10530
▁react	-10531
▁thick	-10532
vmatrix	-10533
▁MATLAB	-10534
▁Notice	-10535
▁broken	-10536
▁bicycle	-10537
▁colored	-10538
▁torsion	-10539
▁homotopy	-10540
▁Expanding	-10541
▁configure	-10542
▁mentioned	-10543
▁particles	-10544
▁preserved	-10545
▁everything	-10546
)!	-10547
7}	-10548
MO	-10549
చే	-10550
ప్	-10551
+25	-10552
133	-10553
15)	-10554
^10	-10555
ean	-10556
▁నే	-10557
cast	-10558
heni	-10559
loss	-10560
oura	-10561
నికి	-10562
▁$4$	-10563
▁-12	-10564
▁155	-10565
▁2(1	-10566
▁340	-10567
▁Tru	-10568
▁అను	-10569
▁నాగ	-10570
▁భాష	-10571
_0099	-10572
chest	-10573
inalg	-10574
posed	-10575
shirt	-10576
silon	-10577
{1}{4	-10578
▁$400	-10579
▁fort	-10580
▁idea	-10581
▁vice	-10582
_00044	-10583
_00085	-10584
_00098	-10585
letter	-10586
▁10:25	-10587
▁Dheni	-10588
▁hotel	-10589
▁penal	-10590
▁valla	-10591
players	-10592
section	-10593
{1}{2}\	-10594
▁Museum	-10595
▁VALUES	-10596
▁fisher	-10597
▁stated	-10598
▁Physics	-10599
▁ancient	-10600
▁matched	-10601
▁Function	-10602
▁Optional	-10603
▁achieved	-10604
▁birthday	-10605
▁chickens	-10606
▁filldraw	-10607
▁velocities	-10608
.\	-10609
డం	-10610
వర	-10611
▁⊗	-10612
"))	-10613
/7)	-10614
Ret	-10615
ald	-10616
dev	-10617
usi	-10618
{12	-10619
ధార	-10620
స్ట	-10621
'(0)	-10622
(0))	-10623
Roch	-10624
cosh	-10625
road	-10626
▁17)	-10627
▁252	-10628
▁Ell	-10629
▁Jes	-10630
adium	-10631
lings	-10632
uckoo	-10633
▁18/5	-10634
▁1998	-10635
▁Fund	-10636
▁bowl	-10637
▁cere	-10638
▁lift	-10639
▁stag	-10640
DELETE	-10641
_00034	-10642
_00045	-10643
_00055	-10644
_00200	-10645
ennies	-10646
linalg	-10647
period	-10648
▁(1000	-10649
▁0.001	-10650
▁Party	-10651
▁Prove	-10652
▁clubs	-10653
▁polar	-10654
▁quite	-10655
▁Pallad	-10656
▁fabric	-10657
▁Kingdom	-10658
▁castles	-10659
▁keeping	-10660
▁planted	-10661
▁snippet	-10662
▁dynamics	-10663
▁shipping	-10664
▁Laplacian	-10665
▁centuries	-10666
▁iterating	-10667
▁Mathematics	-10668
oy	-10669
"):	-10670
+40	-10671
-90	-10672
165	-10673
185	-10674
987	-10675
pid	-10676
ros	-10677
ums	-10678
▁PM	-10679
Then	-10680
doll	-10681
ette	-10682
haru	-10683
hayi	-10684
odel	-10685
▁$6.	-10686
▁193	-10687
▁540	-10688
▁Pop	-10689
▁neg	-10690
HELLO	-10691
anish	-10692
centi	-10693
dumps	-10694
least	-10695
ppers	-10696
topic	-10697
ూర్తి	-10698
▁2004	-10699
▁laga	-10700
▁rock	-10701
Beacon	-10702
_00022	-10703
_00113	-10704
iology	-10705
istern	-10706
త్తులు	-10707
▁Brian	-10708
▁Class	-10709
▁Georg	-10710
▁Nuvvu	-10711
▁Today	-10712
▁bases	-10713
▁court	-10714
▁meals	-10715
▁sinus	-10716
▁tourn	-10717
▁Pascal	-10718
▁hemisp	-10719
▁scheme	-10720
Pointers	-10721
▁cheyavu	-10722
▁entries	-10723
perimeter	-10724
▁overtime	-10725
▁Principal	-10726
▁chestharu	-10727
▁chesthayi	-10728
▁establish	-10729
▁neighbors	-10730
▁demonstrate	-10731
4%	-10732
ET	-10733
కీ	-10734
ణా	-10735
పై	-10736
▁ε	-10737
/17	-10738
12:	-10739
16.	-10740
2^2	-10741
704	-10742
785	-10743
alk	-10744
awn	-10745
ili	-10746
oto	-10747
▁=2	-10748
▁Ap	-10749
▁SW	-10750
▁dR	-10751
fast	-10752
rary	-10753
ruce	-10754
uchy	-10755
wind	-10756
కుడు	-10757
▁40)	-10758
▁Get	-10759
▁Mia	-10760
▁Ser	-10761
▁Van	-10762
▁fle	-10763
▁tau	-10764
(100,	-10765
,000,	-10766
exual	-10767
faces	-10768
iting	-10769
olden	-10770
under	-10771
▁Wind	-10772
▁bulb	-10773
▁rhom	-10774
▁tons	-10775
_00046	-10776
_00100	-10777
gested	-10778
pyplot	-10779
ricult	-10780
xlabel	-10781
▁$100.	-10782
▁climb	-10783
▁micro	-10784
▁proof	-10785
▁గణాంక	-10786
summary	-10787
▁academ	-10788
▁begins	-10789
▁reserv	-10790
▁treats	-10791
interest	-10792
▁Germany	-10793
▁earthqu	-10794
▁rhombus	-10795
▁Lagrange	-10796
▁potatoes	-10797
▁simulate	-10798
▁favorable	-10799
▁invariant	-10800
▁intersects	-10801
▁satisfying	-10802
▁significantly	-10803
ంబ	-10804
-5,	-10805
156	-10806
Phi	-10807
_11	-10808
ado	-10809
mel	-10810
neg	-10811
unk	-10812
{2\	-10813
ఎస్	-10814
▁\]	-10815
▁జయ	-10816
▁బె	-10817
(0.8	-10818
3)^2	-10819
Apex	-10820
Tick	-10821
Time	-10822
aled	-10823
aska	-10824
clic	-10825
ider	-10826
▁$(-	-10827
▁$8.	-10828
▁-2,	-10829
▁138	-10830
▁16)	-10831
▁299	-10832
▁=",	-10833
▁pun	-10834
▁జాత	-10835
Equal	-10836
roots	-10837
కృష్ణ	-10838
▁$10.	-10839
▁24.0	-10840
▁Lake	-10841
▁Shar	-10842
0,0)--	-10843
_00114	-10844
_00119	-10845
_00120	-10846
_00130	-10847
_00180	-10848
object	-10849
ylabel	-10850
▁Analy	-10851
▁Optim	-10852
▁Steve	-10853
▁వెంకట	-10854
between	-10855
decimal	-10856
viation	-10857
▁Island	-10858
▁System	-10859
▁Temple	-10860
▁formal	-10861
▁recall	-10862
▁involve	-10863
▁parking	-10864
▁extended	-10865
▁lyapunov	-10866
▁rejected	-10867
▁concluded	-10868
▁threading	-10869
▁appearance	-10870
▁tournament	-10871
▁paraconsistent	-10872
SD	-10873
UT	-10874
పె	-10875
మే	-10876
▁€	-10877
-1.	-10878
145	-10879
sem	-10880
ంటే	-10881
▁4(	-10882
▁IF	-10883
▁XY	-10884
▁je	-10885
▁yx	-10886
turb	-10887
▁$4,	-10888
▁(11	-10889
▁1.8	-10890
▁18)	-10891
▁375	-10892
▁45%	-10893
▁72.	-10894
▁840	-10895
▁Rob	-10896
▁Tex	-10897
0,0),	-10898
_0050	-10899
acted	-10900
oming	-10901
oured	-10902
sight	-10903
▁(150	-10904
▁Bang	-10905
▁Liam	-10906
▁Wash	-10907
▁desp	-10908
▁shot	-10909
_00088	-10910
_00110	-10911
_00115	-10912
_00170	-10913
irikov	-10914
▁Sally	-10915
▁shall	-10916
▁wages	-10917
forward	-10918
payload	-10919
▁0.0000	-10920
▁Modern	-10921
▁Virgin	-10922
▁arrive	-10923
▁cursor	-10924
▁issues	-10925
▁nearly	-10926
▁pupils	-10927
atherine	-10928
▁offered	-10929
▁website	-10930
▁రాష్ట్ర	-10931
▁accommod	-10932
▁document	-10933
▁gumballs	-10934
▁Remaining	-10935
▁decisions	-10936
▁sculpture	-10937
▁sometimes	-10938
▁frameworks	-10939
▁performing	-10940
▁strategies	-10941
▁generations	-10942
fe	-10943
గొ	-10944
").	-10945
((2	-10946
+13	-10947
1);	-10948
452	-10949
ava	-10950
lst	-10951
ocr	-10952
oot	-10953
ria	-10954
una	-10955
▁-9	-10956
▁2'	-10957
▁4]	-10958
▁మన	-10959
Find	-10960
abad	-10961
aren	-10962
ican	-10963
ంత్ర	-10964
▁$3,	-10965
▁$\{	-10966
▁(7,	-10967
▁266	-10968
▁3))	-10969
▁3/7	-10970
▁35,	-10971
▁5^2	-10972
▁6.5	-10973
▁Byz	-10974
▁Def	-10975
▁Fol	-10976
▁Mus	-10977
▁jud	-10978
▁rup	-10979
▁ఉండ	-10980
_0026	-10981
_0030	-10982
_0036	-10983
exper	-10984
onial	-10985
ంలోని	-10986
▁(-2)	-10987
▁14.0	-10988
▁Bell	-10989
▁Camp	-10990
▁Hind	-10991
▁fine	-10992
▁guit	-10993
▁prep	-10994
▁toss	-10995
_00117	-10996
_00118	-10997
_00140	-10998
_00150	-10999
sorted	-11000
▁Water	-11001
tickets	-11002
▁Arrows	-11003
▁Martin	-11004
▁indeed	-11005
▁junior	-11006
▁oldest	-11007
▁palace	-11008
▁స్త్రీ	-11009
proposal	-11010
requency	-11011
smallest	-11012
▁Britain	-11013
▁commute	-11014
▁effects	-11015
integrate	-11016
timestamp	-11017
▁Scottish	-11018
▁linearly	-11019
▁officers	-11020
▁plugging	-11021
▁interpret	-11022
▁threshold	-11023
▁descending	-11024
▁indicating	-11025
▁subtracted	-11026
sn	-11027
వీ	-11028
సే	-11029
(2.	-11030
1.2	-11031
134	-11032
=36	-11033
For	-11034
eon	-11035
zes	-11036
▁3^	-11037
▁తన	-11038
(500	-11039
each	-11040
onac	-11041
quar	-11042
rist	-11043
కాలు	-11044
▁26,	-11045
▁9/2	-11046
▁fir	-11047
▁pie	-11048
_0022	-11049
_0035	-11050
eting	-11051
names	-11052
oline	-11053
onnet	-11054
▁1995	-11055
▁Bank	-11056
▁leak	-11057
▁mist	-11058
_00116	-11059
_00190	-11060
ership	-11061
partic	-11062
prompt	-11063
▁ended	-11064
▁roman	-11065
▁turns	-11066
▁వ్యాస	-11067
1_00040	-11068
▁Cauchy	-11069
▁Olivia	-11070
▁lorenz	-11071
▁settle	-11072
▁catches	-11073
▁cistern	-11074
▁largely	-11075
▁mangoes	-11076
▁physics	-11077
▁storage	-11078
▁Register	-11079
▁managers	-11080
ampionship	-11081
▁insurance	-11082
▁separated	-11083
▁substance	-11084
192.168.1.5	-11085
▁discounted	-11086
▁fertilizer	-11087
▁identified	-11088
▁examination	-11089
▁revolutions	-11090
▁presentation	-11091
FA	-11092
XX	-11093
oe	-11094
pu	-11095
|,	-11096
13}	-11097
148	-11098
488	-11099
756	-11100
=11	-11101
UST	-11102
she	-11103
umn	-11104
{20	-11105
}{(	-11106
వలస	-11107
▁8*	-11108
▁Py	-11109
▁|-	-11110
▁బు	-11111
(3),	-11112
-1),	-11113
^{2,	-11114
aign	-11115
rons	-11116
}{5}	-11117
▁127	-11118
▁ign	-11119
_0090	-11120
_0130	-11121
break	-11122
const	-11123
oplus	-11124
▁0.30	-11125
▁Plot	-11126
▁cuts	-11127
▁viol	-11128
_00112	-11129
_00160	-11130
apshot	-11131
▁Eigen	-11132
▁clust	-11133
▁codes	-11134
1_00045	-11135
ritical	-11136
surface	-11137
tection	-11138
▁absent	-11139
▁concer	-11140
▁margin	-11141
▁proced	-11142
▁Hilbert	-11143
▁Spanish	-11144
▁bundles	-11145
▁destroy	-11146
▁earning	-11147
▁paramet	-11148
▁District	-11149
▁Japanese	-11150
▁attempts	-11151
▁believed	-11152
▁landmark	-11153
▁mountain	-11154
▁percenti	-11155
▁semantic	-11156
▁speaking	-11157
▁surround	-11158
arithmetic	-11159
derivative	-11160
▁covariant	-11161
▁timestamp	-11162
▁travelers	-11163
▁assumption	-11164
▁Furthermore	-11165
▁contradicts	-11166
▁compensation	-11167
PL	-11168
Un	-11169
(25	-11170
001	-11171
122	-11172
_3(	-11173
_5,	-11174
env	-11175
fru	-11176
pon	-11177
ంతో	-11178
లకు	-11179
హిత	-11180
▁3$	-11181
▁\{	-11182
▁ది	-11183
,)).	-11184
▁(2^	-11185
▁29.	-11186
▁3.7	-11187
▁324	-11188
▁Lit	-11189
▁Sta	-11190
▁phy	-11191
▁ves	-11192
▁{4,	-11193
_0066	-11194
abled	-11195
bulbs	-11196
grade	-11197
heads	-11198
icine	-11199
ordan	-11200
ేత్రం	-11201
▁120)	-11202
▁Conf	-11203
▁Line	-11204
▁Rear	-11205
▁beat	-11206
▁hair	-11207
▁pric	-11208
center	-11209
common	-11210
vement	-11211
నారాయణ	-11212
▁arbit	-11213
▁queue	-11214
▁smart	-11215
▁young	-11216
estival	-11217
ircraft	-11218
rations	-11219
▁border	-11220
▁census	-11221
▁cereal	-11222
▁coming	-11223
▁flower	-11224
▁repeat	-11225
▁saying	-11226
▁turned	-11227
---|---|	-11228
duration	-11229
quarters	-11230
▁Dividing	-11231
▁cardinal	-11232
▁internal	-11233
▁majority	-11234
▁probably	-11235
▁semester	-11236
▁Washington	-11237
▁iteratively	-11238
BD	-11239
CA	-11240
hy	-11241
yz	-11242
002	-11243
16:	-11244
187	-11245
28,	-11246
=1$	-11247
sup	-11248
ync	-11249
ాలా	-11250
▁మే	-11251
▁యు	-11252
hole	-11253
ర్గం	-11254
▁((1	-11255
▁137	-11256
▁36,	-11257
▁432	-11258
▁4}.	-11259
▁999	-11260
▁Rad	-11261
▁Rav	-11262
▁ath	-11263
▁kgs	-11264
apple	-11265
encil	-11266
ewise	-11267
ighed	-11268
rling	-11269
▁10%.	-11270
▁11.0	-11271
▁1950	-11272
▁90.0	-11273
▁cash	-11274
▁ethn	-11275
▁eyes	-11276
▁jump	-11277
▁shar	-11278
▁vict	-11279
Bonnet	-11280
ategor	-11281
gallon	-11282
ibonac	-11283
inders	-11284
▁Cross	-11285
▁Error	-11286
▁drain	-11287
▁kinds	-11288
▁rever	-11289
▁county	-11290
▁forces	-11291
expected	-11292
ibonacci	-11293
▁Iceland	-11294
▁awarded	-11295
▁picking	-11296
▁praised	-11297
▁families	-11298
▁graphing	-11299
▁Institute	-11300
▁annealing	-11301
▁otherwise	-11302
▁preferred	-11303
▁preserves	-11304
▁rearrange	-11305
▁supported	-11306
▁Difference	-11307
▁management	-11308
CR	-11309
Py	-11310
\|	-11311
)*(	-11312
/21	-11313
/24	-11314
146	-11315
199	-11316
8),	-11317
cup	-11318
▁3]	-11319
▁Na	-11320
▁ఉప	-11321
▁రే	-11322
anta	-11323
fits	-11324
note	-11325
rema	-11326
▁(-4	-11327
▁(3*	-11328
▁2.8	-11329
▁Amy	-11330
▁Lar	-11331
▁gap	-11332
▁lic	-11333
▁vir	-11334
(0.5)	-11335
anger	-11336
ident	-11337
ouses	-11338
▁(199	-11339
▁1024	-11340
▁2002	-11341
▁2400	-11342
▁Arts	-11343
▁Cong	-11344
▁Item	-11345
▁JSON	-11346
▁acid	-11347
▁shel	-11348
▁stem	-11349
^2)/2)	-11350
_{0}^{	-11351
ridges	-11352
▁Harry	-11353
▁Jason	-11354
▁Susan	-11355
▁Third	-11356
▁displ	-11357
▁snack	-11358
ctivity	-11359
venance	-11360
▁Cannot	-11361
▁Middle	-11362
▁affect	-11363
▁bricks	-11364
▁stores	-11365
▁3.14159	-11366
▁Francis	-11367
▁herself	-11368
▁observe	-11369
▁పురుషుల	-11370
available	-11371
▁concrete	-11372
▁director	-11373
▁gasoline	-11374
▁handling	-11375
▁Algorithm	-11376
▁converted	-11377
▁expensive	-11378
▁గ్రామానికి	-11379
▁Multiplying	-11380
▁maintaining	-11381
hm	-11382
102	-11383
36,	-11384
465	-11385
76,	-11386
\%$	-11387
^3+	-11388
die	-11389
eck	-11390
kes	-11391
పంచ	-11392
వరి	-11393
శీల	-11394
▁AE	-11395
▁PQ	-11396
▁{'	-11397
▁బి	-11398
)}{\	-11399
Size	-11400
_3_3	-11401
arse	-11402
tens	-11403
tios	-11404
zens	-11405
పూర్	-11406
ించి	-11407
▁$75	-11408
▁(35	-11409
▁157	-11410
▁38.	-11411
▁4.8	-11412
▁60)	-11413
▁gym	-11414
_0100	-11415
urric	-11416
▁Carl	-11417
▁Keep	-11418
▁Part	-11419
▁damp	-11420
▁drug	-11421
▁hits	-11422
▁mail	-11423
▁pref	-11424
▁tabu	-11425
▁లేదా	-11426
_00096	-11427
aroque	-11428
domain	-11429
logram	-11430
uffing	-11431
▁Annie	-11432
▁Limit	-11433
▁Route	-11434
▁Tower	-11435
▁cause	-11436
▁funds	-11437
▁ingre	-11438
▁minor	-11439
▁oblig	-11440
▁sound	-11441
cookies	-11442
itation	-11443
rackers	-11444
▁(0,0);	-11445
▁Canada	-11446
▁promin	-11447
identity	-11448
▁battery	-11449
▁glasses	-11450
▁భారతదేశ	-11451
including	-11452
▁brothers	-11453
▁క్షేత్రం	-11454
▁generally	-11455
▁investing	-11456
▁variation	-11457
▁handshakes	-11458
▁orientable	-11459
dh	-11460
va	-11461
°.	-11462
యు	-11463
1):	-11464
129	-11465
137	-11466
138	-11467
177	-11468
485	-11469
788	-11470
exc	-11471
ugg	-11472
వ్వ	-11473
▁&\	-11474
▁++	-11475
▁aw	-11476
▁dP	-11477
▁dW	-11478
▁dh	-11479
▁ic	-11480
gate	-11481
heel	-11482
safe	-11483
sole	-11484
ంగాణ	-11485
వారి	-11486
▁$5.	-11487
▁0],	-11488
▁10*	-11489
▁Bas	-11490
▁Han	-11491
▁Six	-11492
▁dim	-11493
▁ham	-11494
▁దేవ	-11495
going	-11496
▁10.8	-11497
▁100-	-11498
▁120,	-11499
▁1999	-11500
▁80.0	-11501
▁Flor	-11502
▁bake	-11503
▁caps	-11504
▁didn	-11505
▁furn	-11506
▁spot	-11507
▁విజయ	-11508
0,000.	-11509
=1}^{\	-11510
andbox	-11511
ensory	-11512
equals	-11513
rative	-11514
▁Louis	-11515
▁dolls	-11516
coeffic	-11517
▁Norway	-11518
▁Theory	-11519
▁ఇందులో	-11520
children	-11521
exponent	-11522
▁Richard	-11523
▁burgers	-11524
▁clothes	-11525
▁mission	-11526
▁someone	-11527
▁intended	-11528
▁internet	-11529
▁stopping	-11530
▁Americans	-11531
▁Australia	-11532
▁arbitrary	-11533
▁installed	-11534
▁repeatedly	-11535
▁sinusoidal	-11536
▁radioactive	-11537
/\	-11538
ya	-11539
▁Φ	-11540
▁ష	-11541
45.	-11542
789	-11543
_1}	-11544
don	-11545
సాల	-11546
▁{(	-11547
0,0)	-11548
=0.0	-11549
card	-11550
▁$17	-11551
▁(13	-11552
▁(24	-11553
▁1.7	-11554
▁146	-11555
▁4)}	-11556
▁560	-11557
▁70,	-11558
▁8.5	-11559
▁Aut	-11560
▁Mil	-11561
▁hat	-11562
▁ram	-11563
▁syn	-11564
_0080	-11565
anced	-11566
flies	-11567
ilder	-11568
utter	-11569
ూరులో	-11570
ేశ్వర	-11571
▁2015	-11572
▁Chua	-11573
▁Most	-11574
▁arts	-11575
▁baby	-11576
▁లెక్	-11577
(150);	-11578
ederal	-11579
rement	-11580
riefly	-11581
{3}{2}	-11582
వత్సరం	-11583
▁Randy	-11584
bottles	-11585
default	-11586
ersenne	-11587
ప్రదేశ్	-11588
▁Commun	-11589
▁copper	-11590
▁famous	-11591
▁stored	-11592
▁trucks	-11593
▁సంగీతం	-11594
esterday	-11595
irection	-11596
▁Angeles	-11597
▁centers	-11598
▁decades	-11599
▁economy	-11600
▁gravity	-11601
▁housing	-11602
▁Stirling	-11603
▁disjoint	-11604
▁Victorian	-11605
▁augmented	-11606
▁offspring	-11607
assertEqual	-11608
inguishable	-11609
▁conversion	-11610
▁generating	-11611
▁shopkeeper	-11612
▁technology	-11613
▁associative	-11614
▁efficiently	-11615
▁reflections	-11616
▁trajectories	-11617
▁parallelogram	-11618
▁transformations	-11619
:\	-11620
SP	-11621
)**	-11622
)=\	-11623
10:	-11624
132	-11625
153	-11626
7),	-11627
998	-11628
[0,	-11629
adj	-11630
inn	-11631
pat	-11632
six	-11633
యిత	-11634
▁00	-11635
▁9}	-11636
▁Ep	-11637
▁TH	-11638
▁\,	-11639
▁వహ	-11640
/2))	-11641
amal	-11642
inci	-11643
ocab	-11644
pred	-11645
rels	-11646
then	-11647
▁$28	-11648
▁$5$	-11649
▁116	-11650
▁184	-11651
▁35.	-11652
▁380	-11653
▁56.	-11654
▁75,	-11655
▁Cos	-11656
▁Rah	-11657
▁Sur	-11658
▁amb	-11659
▁egg	-11660
▁lst	-11661
▁mas	-11662
▁రంగ	-11663
▁స్థ	-11664
▁√(1	-11665
("%",	-11666
(1));	-11667
State	-11668
_0055	-11669
_0098	-11670
eaten	-11671
ontic	-11672
taken	-11673
▁0.06	-11674
▁0.50	-11675
▁Asia	-11676
▁Norm	-11677
▁erup	-11678
▁expr	-11679
▁gate	-11680
▁sinh	-11681
▁tile	-11682
▁yard	-11683
▁పట్ట	-11684
_00068	-11685
essive	-11686
permut	-11687
phones	-11688
statis	-11689
▁Agent	-11690
▁Grace	-11691
▁Jones	-11692
▁White	-11693
▁equip	-11694
▁magaz	-11695
1_00044	-11696
1_00046	-11697
ibility	-11698
ilities	-11699
otional	-11700
plitude	-11701
▁Andrew	-11702
▁Hannah	-11703
▁Income	-11704
▁belief	-11705
▁carbon	-11706
▁leader	-11707
▁residu	-11708
runettes	-11709
▁Maximum	-11710
▁confirm	-11711
▁filling	-11712
▁restric	-11713
▁showing	-11714
▁wrongly	-11715
▁Playfair	-11716
▁encoding	-11717
▁excluded	-11718
▁relevant	-11719
▁supplies	-11720
investment	-11721
▁replacing	-11722
▁technique	-11723
▁contradict	-11724
▁hemisphere	-11725
▁industrial	-11726
▁previously	-11727
▁automorphisms	-11728
"}	-11729
0:	-11730
2-	-11731
Ne	-11732
OP	-11733
)(1	-11734
App	-11735
^(4	-11736
^1$	-11737
_90	-11738
akh	-11739
lam	-11740
oci	-11741
oni	-11742
{19	-11743
ాను	-11744
▁7%	-11745
▁dA	-11746
▁అన	-11747
(60)	-11748
Icar	-11749
_0_3	-11750
_3_2	-11751
even	-11752
onus	-11753
ston	-11754
ెంలో	-11755
▁142	-11756
▁177	-11757
▁277	-11758
▁576	-11759
▁99.	-11760
▁Jew	-11761
▁Var	-11762
▁spl	-11763
▁tap	-11764
_{12}	-11765
fifth	-11766
fully	-11767
purch	-11768
terms	-11769
}.\].	-11770
▁$110	-11771
▁(0.3	-11772
▁Miss	-11773
▁pets	-11774
▁situ	-11775
▁stat	-11776
▁wash	-11777
▁దుకా	-11778
▁బయటి	-11779
Icarus	-11780
ifolds	-11781
sphere	-11782
▁Grade	-11783
▁Mount	-11784
▁fiber	-11785
▁recon	-11786
▁shelf	-11787
largest	-11788
metries	-11789
pencils	-11790
pending	-11791
vention	-11792
▁ANSWER	-11793
▁Before	-11794
▁benefit	-11795
▁channel	-11796
▁despite	-11797
▁execute	-11798
▁growing	-11799
▁kitchen	-11800
▁weighed	-11801
▁sampling	-11802
▁విడుదలైన	-11803
▁analyzing	-11804
▁conducted	-11805
▁Subtracting	-11806
▁partnership	-11807
▁ఆంధ్రప్రదేశ్	-11808
▁independently	-11809
/√	-11810
9_	-11811
BE	-11812
BI	-11813
DI	-11814
తు	-11815
(-\	-11816
-16	-11817
/48	-11818
152	-11819
158	-11820
183	-11821
189	-11822
320	-11823
44.	-11824
453	-11825
Com	-11826
dat	-11827
ini	-11828
pur	-11829
▁సో	-11830
(30,	-11831
(50,	-11832
5/18	-11833
ened	-11834
iton	-11835
male	-11836
▁13)	-11837
▁172	-11838
▁1⁄2	-11839
▁2):	-11840
▁850	-11841
▁Dra	-11842
▁Rog	-11843
▁Ten	-11844
▁pix	-11845
▁tea	-11846
▁తెల	-11847
(60°)	-11848
Alice	-11849
Since	-11850
There	-11851
_0060	-11852
liest	-11853
taint	-11854
ulted	-11855
▁$250	-11856
▁0.40	-11857
▁0.60	-11858
▁1/2)	-11859
▁70.0	-11860
▁Fano	-11861
▁Fort	-11862
▁Juan	-11863
▁Mill	-11864
▁citi	-11865
▁felt	-11866
▁lake	-11867
^{-1}(	-11868
commut	-11869
create	-11870
tellig	-11871
xright	-11872
▁Again	-11873
▁Asian	-11874
▁Order	-11875
▁overl	-11876
▁towns	-11877
assical	-11878
axispen	-11879
itially	-11880
ybottom	-11881
▁Empire	-11882
▁Joseph	-11883
▁master	-11884
▁paying	-11885
Fraction	-11886
ceptible	-11887
linspace	-11888
tificial	-11889
▁Provide	-11890
▁extreme	-11891
▁volumes	-11892
▁investig	-11893
▁technical	-11894
▁symmetries	-11895
▁advertising	-11896
axisarrowsize	-11897
▁International	-11898
Sp	-11899
[/	-11900
}=	-11901
°,	-11902
▁÷	-11903
)$?	-11904
)/∂	-11905
/8)	-11906
1).	-11907
142	-11908
164	-11909
179	-11910
208	-11911
329	-11912
669	-11913
758	-11914
Big	-11915
]$.	-11916
^2=	-11917
_0)	-11918
aza	-11919
ota	-11920
▁#1	-11921
▁EX	-11922
asty	-11923
aven	-11924
city	-11925
copy	-11926
ioid	-11927
▁10-	-11928
▁188	-11929
▁Mah	-11930
▁NBA	-11931
▁Rik	-11932
▁Tur	-11933
▁axi	-11934
_0046	-11935
atern	-11936
build	-11937
coeff	-11938
inger	-11939
ssler	-11940
▁0.27	-11941
▁120.	-11942
▁300)	-11943
▁Anne	-11944
▁Pete	-11945
▁args	-11946
▁crew	-11947
▁fern	-11948
▁perm	-11949
▁sick	-11950
UPDATE	-11951
vector	-11952
▁Integ	-11953
▁Level	-11954
▁ample	-11955
▁compl	-11956
▁lived	-11957
▁staff	-11958
▁uncer	-11959
▁తారాగ	-11960
(0.7));	-11961
changed	-11962
written	-11963
పల్లిలో	-11964
▁assets	-11965
▁conson	-11966
▁ranked	-11967
▁ratios	-11968
▁scalar	-11969
▁thrice	-11970
ashboard	-11971
quantity	-11972
▁auction	-11973
▁clearly	-11974
▁holding	-11975
▁insight	-11976
▁simplic	-11977
▁wearing	-11978
calculate	-11979
▁Research	-11980
▁Virginia	-11981
▁accepted	-11982
▁cultural	-11983
▁entirely	-11984
▁featured	-11985
▁interact	-11986
▁loadings	-11987
▁merchant	-11988
▁services	-11989
▁గణాంకాలు	-11990
▁apartment	-11991
▁directory	-11992
▁successive	-11993
▁assignments	-11994
▁verification	-11995
/{	-11996
;\	-11997
EE	-11998
థి	-11999
€“	-12000
(35	-12001
+16	-12002
+18	-12003
103	-12004
104	-12005
195	-12006
197	-12007
706	-12008
765	-12009
:.2	-12010
Ass	-12011
Rec	-12012
hig	-12013
}$:	-12014
కాల	-12015
గూడ	-12016
▁7!	-12017
▁Ha	-12018
▁QR	-12019
▁ha	-12020
▁nu	-12021
▁xn	-12022
▁వృ	-12023
_4_4	-12024
food	-12025
sold	-12026
wide	-12027
▁1.1	-12028
▁152	-12029
▁50;	-12030
▁66.	-12031
▁70.	-12032
▁Mex	-12033
▁Sri	-12034
▁Tam	-12035
▁arm	-12036
▁phi	-12037
Theta	-12038
Titan	-12039
acity	-12040
amily	-12041
burgh	-12042
heast	-12043
olicy	-12044
oting	-12045
shift	-12046
▁0.35	-12047
▁0.5.	-12048
▁1.10	-12049
▁Kmph	-12050
▁Viet	-12051
▁poor	-12052
▁tire	-12053
athers	-12054
espite	-12055
ointed	-12056
ramoto	-12057
▁2011,	-12058
▁Bruce	-12059
▁Merge	-12060
▁Score	-12061
▁craft	-12062
▁doors	-12063
▁firms	-12064
▁frame	-12065
▁grows	-12066
▁jeans	-12067
▁leads	-12068
▁seems	-12069
▁చిన్న	-12070
▁విశ్వ	-12071
command	-12072
▁20,000	-12073
▁secure	-12074
▁spirit	-12075
▁దుకాణం	-12076
ashinsky	-12077
research	-12078
▁console	-12079
▁hashlib	-12080
▁modeled	-12081
▁prevent	-12082
▁printed	-12083
▁whereas	-12084
▁academic	-12085
▁contrast	-12086
▁sandwich	-12087
▁essential	-12088
▁intensity	-12089
▁rotations	-12090
commutative	-12091
▁Percentage	-12092
intersection	-12093
?.	-12094
Im	-12095
bc	-12096
tz	-12097
uk	-12098
మల	-12099
'],	-12100
.$$	-12101
.55	-12102
/0.	-12103
009	-12104
109	-12105
127	-12106
18:	-12107
2)*	-12108
793	-12109
=17	-12110
gar	-12111
}^\	-12112
ధిక	-12113
రామ	-12114
▁Pi	-12115
▁[3	-12116
▁bx	-12117
▁ca	-12118
▁oz	-12119
▁తె	-12120
(1.0	-12121
)**2	-12122
/125	-12123
10),	-12124
FILE	-12125
_4_3	-12126
_{11	-12127
lled	-12128
serv	-12129
uity	-12130
▁(3!	-12131
▁(85	-12132
▁0,$	-12133
▁103	-12134
▁109	-12135
▁133	-12136
▁5/3	-12137
▁sou	-12138
▁wed	-12139
▁ఆర్	-12140
▁జాబ	-12141
Agent	-12142
_0044	-12143
antee	-12144
apter	-12145
erton	-12146
layer	-12147
nodes	-12148
patch	-12149
retch	-12150
▁0.98	-12151
▁Circ	-12152
▁Cole	-12153
▁Road	-12154
▁hect	-12155
▁jars	-12156
_00155	-12157
agonal	-12158
record	-12159
tained	-12160
▁12000	-12161
▁Sever	-12162
▁atten	-12163
▁buyer	-12164
▁cmath	-12165
▁coast	-12166
▁dates	-12167
▁inhab	-12168
▁learn	-12169
▁media	-12170
▁rapid	-12171
▁scene	-12172
▁serve	-12173
▁sites	-12174
▁stuff	-12175
ologies	-12176
▁Associ	-12177
▁Cipher	-12178
▁Wright	-12179
▁ending	-12180
▁ponies	-12181
ransport	-12182
▁Johnson	-12183
▁examine	-12184
▁stories	-12185
▁western	-12186
attention	-12187
▁cardioid	-12188
▁collects	-12189
▁earliest	-12190
▁improved	-12191
conditions	-12192
▁demonstra	-12193
▁highlight	-12194
▁marketing	-12195
▁receiving	-12196
▁trapezoid	-12197
▁discovered	-12198
▁maintained	-12199
▁mathematic	-12200
▁palindrome	-12201
▁transition	-12202
▁computation	-12203
▁observations	-12204
!$	-12205
1$	-12206
-2}	-12207
-6)	-12208
106	-12209
18)	-12210
209	-12211
24.	-12212
29,	-12213
364	-12214
365	-12215
504	-12216
705	-12217
ENT	-12218
bor	-12219
opf	-12220
rey	-12221
uct	-12222
}(\	-12223
▁8}	-12224
▁Eg	-12225
▁Gi	-12226
▁పద	-12227
▁హి	-12228
(12,	-12229
+1):	-12230
1.25	-12231
cans	-12232
epak	-12233
hold	-12234
info	-12235
link	-12236
ట్లు	-12237
▁(8,	-12238
▁(90	-12239
▁167	-12240
▁72,	-12241
▁960	-12242
▁tex	-12243
▁{0,	-12244
_0140	-12245
esque	-12246
iforn	-12247
illed	-12248
iring	-12249
pairs	-12250
plier	-12251
ంచారు	-12252
▁0.65	-12253
▁1400	-12254
▁Penn	-12255
▁hats	-12256
▁kern	-12257
▁లోని	-12258
^(-0.0	-12259
_00058	-12260
_00105	-12261
_00185	-12262
budget	-12263
tients	-12264
▁20000	-12265
▁Laure	-12266
▁falls	-12267
▁grape	-12268
▁rough	-12269
▁torch	-12270
▁మొక్క	-12271
correct	-12272
without	-12273
▁Import	-12274
▁emails	-12275
▁majors	-12276
▁reward	-12277
▁seller	-12278
▁sender	-12279
▁taught	-12280
question	-12281
▁Despite	-12282
▁damaged	-12283
▁exhibit	-12284
▁తెలంగాణ	-12285
remainder	-12286
▁Pipeline	-12287
▁administ	-12288
▁freshmen	-12289
▁historic	-12290
reflection	-12291
▁guarantee	-12292
▁registered	-12293
▁interaction	-12294
▁hypersurface	-12295
[]	-12296
yy	-12297
(3*	-12298
*60	-12299
11)	-12300
188	-12301
240	-12302
258	-12303
264	-12304
321	-12305
328	-12306
33.	-12307
356	-12308
96.	-12309
IST	-12310
^(1	-12311
ddy	-12312
syl	-12313
{16	-12314
డ్డ	-12315
▁రె	-12316
+100	-12317
alus	-12318
arel	-12319
born	-12320
eman	-12321
rest	-12322
▁$[\	-12323
▁-3,	-12324
▁0)$	-12325
▁19)	-12326
▁3$.	-12327
▁96.	-12328
▁Net	-12329
▁కాల	-12330
_0096	-12331
_0120	-12332
above	-12333
onses	-12334
ాన్ని	-12335
▁1.00	-12336
▁35.0	-12337
▁Cant	-12338
▁Land	-12339
▁Libr	-12340
▁drew	-12341
▁mort	-12342
Merton	-12343
_00135	-12344
_00145	-12345
_00165	-12346
counts	-12347
dients	-12348
oneous	-12349
ynasty	-12350
▁Irish	-12351
▁Jenny	-12352
▁Sandy	-12353
▁chess	-12354
▁fight	-12355
▁orbit	-12356
▁saves	-12357
▁scope	-12358
▁sheet	-12359
▁toler	-12360
▁ముఖ్య	-12361
ifornia	-12362
▁Action	-12363
▁Martha	-12364
▁nested	-12365
▁preced	-12366
▁solver	-12367
▁voters	-12368
▁writes	-12369
▁General	-12370
▁attacks	-12371
▁invalid	-12372
▁invests	-12373
▁license	-12374
▁proceed	-12375
▁stripes	-12376
evolution	-12377
▁Starting	-12378
▁aircraft	-12379
▁campaign	-12380
▁composed	-12381
▁iterates	-12382
▁presence	-12383
▁siblings	-12384
▁spanning	-12385
▁Byzantine	-12386
▁brunettes	-12387
▁chemistry	-12388
▁interview	-12389
▁operating	-12390
▁sequences	-12391
denominator	-12392
▁expiration	-12393
▁distributive	-12394
▁professional	-12395
▁complementary	-12396
Ch	-12397
DP	-12398
Ze	-12399
తం	-12400
లం	-12401
.15	-12402
13)	-12403
157	-12404
19,	-12405
295	-12406
768	-12407
Dec	-12408
^*(	-12409
bag	-12410
bas	-12411
sha	-12412
{23	-12413
}^4	-12414
}}$	-12415
▁తయ	-12416
▁మీ	-12417
▁సూ	-12418
((2,	-12419
.5),	-12420
anny	-12421
bble	-12422
cell	-12423
sche	-12424
utri	-12425
vest	-12426
▁"")	-12427
▁-2)	-12428
▁134	-12429
▁520	-12430
▁cro	-12431
▁ens	-12432
▁era	-12433
▁hos	-12434
▁yes	-12435
_0065	-12436
achel	-12437
clear	-12438
cross	-12439
{2}{3	-12440
▁....	-12441
▁0.07	-12442
▁Lisa	-12443
▁Plan	-12444
▁beef	-12445
▁cosh	-12446
▁sust	-12447
▁దీని	-12448
_00175	-12449
_00195	-12450
ashion	-12451
slices	-12452
static	-12453
▁Later	-12454
▁adapt	-12455
▁bonus	-12456
▁flies	-12457
▁guide	-12458
▁hired	-12459
▁holes	-12460
▁newsp	-12461
▁patch	-12462
isation	-12463
ucumber	-12464
▁Circle	-12465
▁Edward	-12466
▁Method	-12467
▁Public	-12468
▁closer	-12469
▁device	-12470
▁filter	-12471
▁latter	-12472
▁mainly	-12473
▁things	-12474
▁twenty	-12475
▁useful	-12476
ilateral	-12477
simplify	-12478
▁Baroque	-12479
▁Setting	-12480
▁Student	-12481
▁batches	-12482
▁confess	-12483
▁contour	-12484
▁firefly	-12485
▁scienti	-12486
▁seating	-12487
▁smoking	-12488
▁stopped	-12489
statistic	-12490
▁anything	-12491
▁consumed	-12492
▁factored	-12493
▁monument	-12494
▁Following	-12495
▁Palladian	-12496
▁dynamical	-12497
▁equipment	-12498
▁Australian	-12499
▁Confidence	-12500
▁capability	-12501
▁nontrivial	-12502
▁percentile	-12503
▁experienced	-12504
▁responsible	-12505
▁simplifying	-12506
▁analytically	-12507
▁substituting	-12508
1\	-12509
As	-12510
At	-12511
Br	-12512
Da	-12513
RP	-12514
TX	-12515
(9,	-12516
)')	-12517
.25	-12518
111	-12519
14,	-12520
154	-12521
324	-12522
375	-12523
385	-12524
750	-12525
782	-12526
807	-12527
9.8	-12528
How	-12529
Val	-12530
^3$	-12531
^{3	-12532
dri	-12533
mph	-12534
pal	-12535
vow	-12536
{15	-12537
ర్ప	-12538
▁ఎం	-12539
▁∂(	-12540
'(2)	-12541
+1))	-12542
attr	-12543
హాలు	-12544
▁2$,	-12545
▁2*2	-12546
▁36)	-12547
▁640	-12548
▁Enc	-12549
▁Our	-12550
▁[3,	-12551
▁bug	-12552
▁eye	-12553
▁fif	-12554
▁sta	-12555
▁కుమ	-12556
_0085	-12557
_0095	-12558
dated	-12559
icted	-12560
orial	-12561
▁$600	-12562
▁0.28	-12563
▁100;	-12564
▁Arun	-12565
▁Base	-12566
▁Levi	-12567
▁Rham	-12568
▁acqu	-12569
▁bear	-12570
▁dydt	-12571
▁hole	-12572
▁twel	-12573
▁బాబు	-12574
_00125	-12575
events	-12576
ppings	-12577
▁40000	-12578
▁Graph	-12579
▁Truck	-12580
▁beach	-12581
▁keeps	-12582
▁ready	-12583
▁renov	-12584
backend	-12585
epsilon	-12586
▁Little	-12587
▁extend	-12588
▁notice	-12589
▁serves	-12590
▁winner	-12591
▁ప్రపంచ	-12592
▁లెక్కల	-12593
positive	-12594
▁Current	-12595
▁cyclist	-12596
▁defines	-12597
▁finance	-12598
▁notable	-12599
▁partner	-12600
▁soliton	-12601
struction	-12602
▁clothing	-12603
▁discreti	-12604
▁ensuring	-12605
▁episodes	-12606
▁indicate	-12607
▁arguments	-12608
coordinates	-12609
▁assignment	-12610
permutations	-12611
▁implemented	-12612
"\	-12613
&=	-12614
6%	-12615
CK	-12616
టక	-12617
/(1	-12618
/14	-12619
206	-12620
36)	-12621
4))	-12622
85.	-12623
Man	-12624
abc	-12625
bat	-12626
bly	-12627
mma	-12628
yan	-12629
కర్	-12630
పోష	-12631
▁5$	-12632
▁Ev	-12633
▁Hé	-12634
▁wa	-12635
▁|\	-12636
6666	-12637
mode	-12638
pair	-12639
phia	-12640
rame	-12641
ల్లు	-12642
▁31,	-12643
▁390	-12644
▁42.	-12645
▁Cle	-12646
▁Jay	-12647
▁Pet	-12648
▁Saf	-12649
▁Vic	-12650
▁Yes	-12651
▁imm	-12652
▁mig	-12653
▁shr	-12654
▁tou	-12655
brown	-12656
ollip	-12657
three	-12658
▁(198	-12659
▁-1/2	-12660
▁Card	-12661
▁Pres	-12662
▁Rail	-12663
▁Rock	-12664
▁bats	-12665
▁defe	-12666
▁gran	-12667
▁hare	-12668
▁phil	-12669
_00086	-12670
_00205	-12671
arelal	-12672
ceived	-12673
father	-12674
ickets	-12675
lected	-12676
sitive	-12677
▁Court	-12678
▁Queen	-12679
▁Texas	-12680
▁demol	-12681
▁issue	-12682
▁paise	-12683
▁wheat	-12684
delayed	-12685
friends	-12686
స్తుంది	-12687
▁ethnic	-12688
▁illust	-12689
▁images	-12690
ographic	-12691
పోషకాహార	-12692
▁knowing	-12693
▁outlier	-12694
▁regions	-12695
▁watches	-12696
▁agricult	-12697
▁criteria	-12698
▁dividend	-12699
▁vacation	-12700
▁President	-12701
▁appointed	-12702
▁encounter	-12703
▁historian	-12704
▁landscape	-12705
▁California	-12706
▁photograph	-12707
▁ingredients	-12708
▁requirement	-12709
▁singularity	-12710
▁susceptible	-12711
-(	-12712
It	-12713
jk	-12714
నూ	-12715
వె	-12716
-14	-12717
/4,	-12718
005	-12719
139	-12720
14:	-12721
186	-12722
2);	-12723
360	-12724
990	-12725
995	-12726
anc	-12727
nov	-12728
tag	-12729
urt	-12730
ముఖ	-12731
▁ap	-12732
▁తే	-12733
0**2	-12734
2)--	-12735
5)--	-12736
=0.5	-12737
Daed	-12738
^{-\	-12739
avan	-12740
axes	-12741
diam	-12742
eena	-12743
lers	-12744
okes	-12745
rane	-12746
reds	-12747
save	-12748
న్స్	-12749
▁(75	-12750
▁10$	-12751
▁139	-12752
▁275	-12753
▁440	-12754
▁Dor	-12755
▁Far	-12756
▁gun	-12757
▁చూడ	-12758
ATION	-12759
Omega	-12760
_0028	-12761
float	-12762
క్కువ	-12763
▁0.3,	-12764
▁1991	-12765
▁2(1)	-12766
▁2013	-12767
▁Team	-12768
▁[-1,	-12769
▁fans	-12770
▁కంకర	-12771
_00047	-12772
_00077	-12773
hspace	-12774
uition	-12775
▁Colts	-12776
▁Music	-12777
▁Prime	-12778
▁brace	-12779
▁flips	-12780
▁జాబిత	-12781
derabad	-12782
episode	-12783
inciple	-12784
▁Period	-12785
▁excess	-12786
▁signed	-12787
▁stroke	-12788
▁suffer	-12789
▁toothp	-12790
▁మొత్తం	-12791
Daedalus	-12792
▁History	-12793
▁carrots	-12794
▁conduct	-12795
▁eastern	-12796
▁farmers	-12797
▁Rikitake	-12798
▁beginner	-12799
▁definite	-12800
▁patients	-12801
▁displayed	-12802
▁influences	-12803
▁semicircle	-12804
▁surrounding	-12805
▁representative	-12806
>0	-12807
'])	-12808
/32	-12809
173	-12810
174	-12811
17:	-12812
193	-12813
308	-12814
309	-12815
366	-12816
434	-12817
ECT	-12818
ULT	-12819
gow	-12820
hew	-12821
hit	-12822
ool	-12823
vid	-12824
ఆర్	-12825
ెస్	-12826
▁.,	-12827
▁4$	-12828
▁9%	-12829
▁BP	-12830
▁Bu	-12831
▁Ox	-12832
▁rh	-12833
▁yz	-12834
((3,	-12835
=1$,	-12836
=120	-12837
Char	-12838
_0_8	-12839
alan	-12840
cean	-12841
ecca	-12842
hits	-12843
iler	-12844
indy	-12845
renz	-12846
zing	-12847
రువా	-12848
ాలను	-12849
▁-16	-12850
▁12:	-12851
▁34.	-12852
▁45,	-12853
▁47.	-12854
▁48,	-12855
▁5/9	-12856
▁ASC	-12857
▁Bat	-12858
▁Kim	-12859
▁cab	-12860
▁ఘంట	-12861
_0029	-12862
antum	-12863
games	-12864
panic	-12865
reets	-12866
seman	-12867
▁500;	-12868
▁Your	-12869
▁cous	-12870
▁deer	-12871
▁muff	-12872
▁span	-12873
▁susp	-12874
▁ప్రే	-12875
2,3,4,	-12876
_00079	-12877
enance	-12878
sylvan	-12879
venues	-12880
▁Award	-12881
▁Hénon	-12882
▁Logic	-12883
▁Param	-12884
▁Roger	-12885
▁depos	-12886
▁rated	-12887
▁roads	-12888
▁shots	-12889
▁stopp	-12890
country	-12891
samples	-12892
▁Alaska	-12893
▁Altern	-12894
▁advant	-12895
▁bullet	-12896
▁cuckoo	-12897
▁easier	-12898
▁flying	-12899
▁helped	-12900
▁rights	-12901
▁కొన్ని	-12902
semantic	-12903
▁artists	-12904
▁categor	-12905
▁diverse	-12906
▁donated	-12907
▁envelop	-12908
▁massive	-12909
▁pennies	-12910
▁reviews	-12911
▁touches	-12912
candidate	-12913
umference	-12914
▁occupied	-12915
▁physical	-12916
▁thinking	-12917
▁triplets	-12918
▁youngest	-12919
▁cathedral	-12920
▁purchases	-12921
▁suggested	-12922
▁Pennsylvan	-12923
▁structural	-12924
▁singularities	-12925
▁contradictions	-12926
FL	-12927
|)	-12928
-18	-12929
003	-12930
112	-12931
20:	-12932
384	-12933
403	-12934
405	-12935
96,	-12936
[:,	-12937
azz	-12938
lds	-12939
nam	-12940
ర్య	-12941
స్వ	-12942
ుంబ	-12943
్పు	-12944
▁-(	-12945
▁Li	-12946
▁Sn	-12947
▁[∫	-12948
=0$.	-12949
Thus	-12950
^2).	-12951
aura	-12952
dogs	-12953
itin	-12954
phyr	-12955
pizz	-12956
rect	-12957
చ్చు	-12958
ప్పు	-12959
▁#38	-12960
▁#48	-12961
▁(70	-12962
▁1/1	-12963
▁143	-12964
▁2(2	-12965
▁65,	-12966
▁80)	-12967
▁Hes	-12968
▁Mos	-12969
▁Pac	-12970
▁rig	-12971
▁tie	-12972
▁అంత	-12973
Hello	-12974
_0027	-12975
_0048	-12976
glass	-12977
produ	-12978
riage	-12979
story	-12980
tegic	-12981
▁0.1.	-12982
▁1.75	-12983
▁32.0	-12984
▁Alec	-12985
▁Arab	-12986
▁crow	-12987
▁pent	-12988
▁proj	-12989
▁rein	-12990
▁temp	-12991
▁ఉత్త	-12992
------	-12993
Zephyr	-12994
called	-12995
itches	-12996
raints	-12997
{1}{4}	-12998
రెడ్డి	-12999
▁2,000	-13000
▁bears	-13001
▁fraud	-13002
▁incom	-13003
▁noise	-13004
▁నుంచి	-13005
ectives	-13006
entific	-13007
ography	-13008
profile	-13009
solvers	-13010
visited	-13011
▁Albert	-13012
▁Fermat	-13013
▁Places	-13014
▁Secret	-13015
▁aspect	-13016
▁contro	-13017
▁geodes	-13018
▁policy	-13019
▁preval	-13020
▁robust	-13021
▁saving	-13022
aternion	-13023
traction	-13024
▁Duffing	-13025
▁Explain	-13026
▁Replace	-13027
▁advance	-13028
▁charity	-13029
▁Interest	-13030
▁calculus	-13031
▁declined	-13032
▁friction	-13033
▁maturity	-13034
▁salaries	-13035
▁tomorrow	-13036
▁accounting	-13037
▁calculators	-13038
▁cardinality	-13039
Hz	-13040
IP	-13041
mi	-13042
oz	-13043
+14	-13044
13:	-13045
18.	-13046
338	-13047
Civ	-13048
New	-13049
RED	-13050
VER	-13051
\}$	-13052
aka	-13053
hrs	-13054
imp	-13055
mul	-13056
క్ర	-13057
ర్ర	-13058
▁1%	-13059
▁3?	-13060
▁Ho	-13061
▁gl	-13062
▁wA	-13063
/3))	-13064
4)^2	-13065
ieve	-13066
lein	-13067
proj	-13068
sign	-13069
ేతిక	-13070
▁#50	-13071
▁158	-13072
▁65.	-13073
▁Gro	-13074
▁Sun	-13075
▁mur	-13076
▁som	-13077
▁xyz	-13078
((-1,	-13079
Sigma	-13080
_{10}	-13081
cover	-13082
eston	-13083
idity	-13084
బ్రహ్	-13085
▁1300	-13086
▁1920	-13087
▁Joey	-13088
▁Lank	-13089
▁Tina	-13090
▁Wolf	-13091
▁pace	-13092
▁soap	-13093
▁soon	-13094
▁సత్య	-13095
▁సాంక	-13096
3(6));	-13097
Civita	-13098
Taylor	-13099
arctan	-13100
shaped	-13101
ించారు	-13102
▁2014,	-13103
▁Enter	-13104
▁beats	-13105
▁drove	-13106
▁girth	-13107
▁hunts	-13108
▁solar	-13109
▁జాతీయ	-13110
▁జొన్న	-13111
▁శాస్త	-13112
▁సాహిత	-13113
classes	-13114
▁hidden	-13115
▁planes	-13116
▁ranges	-13117
▁sparse	-13118
▁territ	-13119
▁throws	-13120
▁widely	-13121
▁(1/2)^(	-13122
▁Cosines	-13123
▁Jackson	-13124
▁english	-13125
▁musical	-13126
▁rebuild	-13127
▁removes	-13128
▁revival	-13129
▁selects	-13130
▁victory	-13131
▁averages	-13132
▁domestic	-13133
▁engineer	-13134
▁printing	-13135
▁programs	-13136
▁surveyed	-13137
individual	-13138
▁Deviation	-13139
▁Eliminate	-13140
▁prominent	-13141
▁thousands	-13142
▁difficulty	-13143
▁normalized	-13144
▁simulations	-13145
ransportation	-13146
▁implications	-13147
▁strawberries	-13148
?"	-13149
DA	-13150
``	-13151
mk	-13152
దీ	-13153
ఫ్	-13154
)..	-13155
107	-13156
239	-13157
243	-13158
269	-13159
32:	-13160
35.	-13161
996	-13162
Siv	-13163
^2*	-13164
aud	-13165
cas	-13166
ped	-13167
▁/2	-13168
▁=(	-13169
▁ME	-13170
▁కల	-13171
▁నగ	-13172
▁∫∫	-13173
^2(\	-13174
^2+2	-13175
_{2}	-13176
iley	-13177
pher	-13178
rian	-13179
}^2$	-13180
▁#28	-13181
▁1,$	-13182
▁107	-13183
▁2.9	-13184
▁2/7	-13185
▁2/9	-13186
▁20:	-13187
▁289	-13188
▁625	-13189
▁7/9	-13190
▁Big	-13191
▁Cro	-13192
▁Jam	-13193
▁Low	-13194
▁Mic	-13195
▁Ray	-13196
▁aim	-13197
▁ber	-13198
▁ped	-13199
",(0,	-13200
(30°)	-13201
2,000	-13202
Model	-13203
_0088	-13204
cript	-13205
defin	-13206
share	-13207
vited	-13208
▁$20.	-13209
▁10.5	-13210
▁17.0	-13211
▁Fred	-13212
▁kine	-13213
▁marg	-13214
▁అన్న	-13215
▁ప్రభ	-13216
inated	-13217
review	-13218
డానికి	-13219
▁Olymp	-13220
▁dream	-13221
▁embed	-13222
▁litre	-13223
▁taxes	-13224
▁views	-13225
▁whale	-13226
▁సంస్థ	-13227
0)--(0,	-13228
posited	-13229
పల్లెలో	-13230
బ్రహ్మణ	-13231
▁25/100	-13232
▁Cantor	-13233
▁Comput	-13234
▁Picard	-13235
▁Search	-13236
▁causal	-13237
▁lambda	-13238
▁stages	-13239
▁superv	-13240
elements	-13241
▁Council	-13242
▁Hessian	-13243
▁athlete	-13244
▁closely	-13245
▁damping	-13246
▁stadium	-13247
▁Original	-13248
▁discrete	-13249
▁సాంకేతిక	-13250
▁Cathedral	-13251
▁Initially	-13252
▁existence	-13253
▁proposals	-13254
▁tolerance	-13255
Sivashinsky	-13256
description	-13257
▁electronic	-13258
▁restriction	-13259
▁participating	-13260
";	-13261
EY	-13262
yl	-13263
బి	-13264
/3.	-13265
191	-13266
254	-13267
355	-13268
40:	-13269
508	-13270
753	-13271
787	-13272
_2}	-13273
_3$	-13274
hok	-13275
occ	-13276
uge	-13277
ulf	-13278
గిన	-13279
▁..	-13280
▁Ty	-13281
▁తా	-13282
▁సె	-13283
Type	-13284
_0^1	-13285
bara	-13286
docs	-13287
ilit	-13288
late	-13289
ownt	-13290
zeta	-13291
ములో	-13292
ోహన్	-13293
▁$7.	-13294
▁$70	-13295
▁$90	-13296
▁(√3	-13297
▁10]	-13298
▁232	-13299
▁276	-13300
▁5/4	-13301
▁64.	-13302
▁Ele	-13303
▁Ian	-13304
▁Lot	-13305
▁[0.	-13306
▁[])	-13307
▁jer	-13308
▁మరి	-13309
.....	-13310
10000	-13311
actly	-13312
cuits	-13313
enari	-13314
ental	-13315
eties	-13316
intic	-13317
piece	-13318
uples	-13319
verty	-13320
▁--->	-13321
▁0.70	-13322
▁10^2	-13323
▁Firm	-13324
▁Hopf	-13325
▁Rome	-13326
▁cele	-13327
▁dish	-13328
▁grey	-13329
▁kick	-13330
▁tell	-13331
▁tren	-13332
▁weak	-13333
▁క్రి	-13334
_00158	-13335
erator	-13336
update	-13337
{2}{3}	-13338
▁100):	-13339
▁Saint	-13340
▁baked	-13341
▁dance	-13342
▁exams	-13343
▁fills	-13344
▁innov	-13345
▁maxim	-13346
▁rupee	-13347
▁tanks	-13348
▁నివాస	-13349
savings	-13350
▁Census	-13351
▁Jordan	-13352
▁Person	-13353
▁Rachel	-13354
▁Remove	-13355
▁eating	-13356
▁lollip	-13357
▁mosque	-13358
▁pencil	-13359
▁please	-13360
▁roller	-13361
▁scenes	-13362
▁varies	-13363
▁wheels	-13364
▁ఘంటసాల	-13365
▁forcing	-13366
▁lessons	-13367
▁trigger	-13368
direction	-13369
▁Congress	-13370
▁classify	-13371
▁metadata	-13372
▁scholars	-13373
▁withdraw	-13374
▁సినిమాకు	-13375
projection	-13376
▁Chemistry	-13377
▁combining	-13378
▁documents	-13379
▁furniture	-13380
▁providing	-13381
▁tetrahedra	-13382
▁contributes	-13383
▁Pennsylvania	-13384
▁continuation	-13385
▁experiencing	-13386
▁intersections	-13387
,-	-13388
Jo	-13389
Le	-13390
MA	-13391
MS	-13392
xz	-13393
*(1	-13394
+50	-13395
1)$	-13396
110	-13397
162	-13398
194	-13399
307	-13400
327	-13401
352	-13402
368	-13403
388	-13404
467	-13405
497	-13406
506	-13407
605	-13408
608	-13409
762	-13410
769	-13411
784	-13412
857	-13413
^3}	-13414
_50	-13415
▁4/	-13416
▁7*	-13417
▁BD	-13418
))/2	-13419
)^2}	-13420
=1$.	-13421
Conn	-13422
Cont	-13423
Nova	-13424
User	-13425
appa	-13426
mass	-13427
})$,	-13428
▁$5,	-13429
▁$6$	-13430
▁151	-13431
▁2)(	-13432
▁315	-13433
▁63.	-13434
▁Bag	-13435
▁cra	-13436
▁hik	-13437
▁mac	-13438
▁sea	-13439
Graph	-13440
enger	-13441
entry	-13442
unnel	-13443
}{2}$	-13444
▁$(2,	-13445
▁$800	-13446
▁25/2	-13447
▁Jeff	-13448
▁Swap	-13449
▁Tony	-13450
▁Year	-13451
▁bees	-13452
▁blow	-13453
▁tags	-13454
_00039	-13455
_00128	-13456
askets	-13457
bought	-13458
ewidth	-13459
itable	-13460
loaded	-13461
neighb	-13462
school	-13463
tainty	-13464
▁$5.00	-13465
▁(0.05	-13466
▁Barns	-13467
▁Early	-13468
▁Janet	-13469
▁Model	-13470
▁draws	-13471
▁meant	-13472
▁swerv	-13473
▁tried	-13474
anguage	-13475
teacher	-13476
▁Employ	-13477
▁Heston	-13478
▁Oxford	-13479
▁coupon	-13480
▁elabor	-13481
▁poetry	-13482
▁towels	-13483
▁చిత్రా	-13484
approved	-13485
capacity	-13486
learning	-13487
▁$10,000	-13488
▁Society	-13489
▁attende	-13490
▁costing	-13491
▁couples	-13492
▁Chirikov	-13493
▁Heritage	-13494
▁bicycles	-13495
▁pictures	-13496
telligence	-13497
▁integrals	-13498
▁treatment	-13499
▁Commission	-13500
▁Population	-13501
▁activities	-13502
▁remainders	-13503
▁retirement	-13504
▁maintenance	-13505
▁communication	-13506
'}	-13507
9}	-13508
dr	-13509
.5.	-13510
006	-13511
008	-13512
12.	-13513
182	-13514
225	-13515
234	-13516
305	-13517
401	-13518
45)	-13519
507	-13520
Chr	-13521
_0$	-13522
_36	-13523
రస్	-13524
ర్వ	-13525
▁'7	-13526
▁*/	-13527
▁=5	-13528
▁SU	-13529
(0.5	-13530
0)..	-13531
5)^2	-13532
^1_{	-13533
^{-2	-13534
aded	-13535
fire	-13536
olis	-13537
ophy	-13538
orry	-13539
owed	-13540
ract	-13541
▁#19	-13542
▁#26	-13543
▁-1/	-13544
▁0.$	-13545
▁12-	-13546
▁245	-13547
▁310	-13548
▁7),	-13549
▁GPA	-13550
▁Nic	-13551
▁Pip	-13552
▁RSA	-13553
▁[(2	-13554
▁bre	-13555
▁vic	-13556
▁yrs	-13557
▁నాయ	-13558
(1)^2	-13559
_0077	-13560
tasks	-13561
▁0.\]	-13562
▁1250	-13563
▁20%.	-13564
▁36.0	-13565
▁7000	-13566
▁Andy	-13567
▁Camb	-13568
▁Epis	-13569
▁Even	-13570
▁Lucy	-13571
▁dome	-13572
▁pond	-13573
▁thir	-13574
▁మధ్య	-13575
_00089	-13576
forall	-13577
ishing	-13578
rowser	-13579
▁$2000	-13580
▁(3/4)	-13581
▁2007,	-13582
▁Armen	-13583
▁Brand	-13584
▁Clear	-13585
▁Grand	-13586
▁bakes	-13587
▁facts	-13588
▁films	-13589
1_00047	-13590
highest	-13591
▁Differ	-13592
▁INSERT	-13593
▁Series	-13594
▁halves	-13595
▁kernel	-13596
▁latest	-13597
▁losses	-13598
▁philos	-13599
▁rising	-13600
▁shifts	-13601
sequence	-13602
▁Subject	-13603
▁credits	-13604
▁decline	-13605
▁guesses	-13606
▁induced	-13607
▁quantum	-13608
▁quintic	-13609
▁suppose	-13610
condition	-13611
defective	-13612
▁investor	-13613
▁magazine	-13614
▁recently	-13615
▁subtopic	-13616
▁Alexander	-13617
▁Principle	-13618
▁allowance	-13619
▁diffusion	-13620
▁envelopes	-13621
▁treewidth	-13622
▁elementary	-13623
▁frequently	-13624
▁partitions	-13625
▁residential	-13626
▁noncommutative	-13627
(√	-13628
OA	-13629
PR	-13630
za	-13631
పూ	-13632
"].	-13633
(50	-13634
-24	-13635
/80	-13636
1.3	-13637
117	-13638
161	-13639
255	-13640
261	-13641
335	-13642
386	-13643
667	-13644
725	-13645
764	-13646
99.	-13647
irs	-13648
ods	-13649
rev	-13650
see	-13651
ysc	-13652
▁.5	-13653
▁1'	-13654
▁9!	-13655
▁BE	-13656
▁SI	-13657
▁అమ	-13658
2)))	-13659
4,4,	-13660
=10,	-13661
Dict	-13662
_1(\	-13663
_2$,	-13664
_{10	-13665
anes	-13666
atre	-13667
eggs	-13668
mony	-13669
roid	-13670
utor	-13671
ుంది	-13672
▁149	-13673
▁2)}	-13674
▁34,	-13675
▁39.	-13676
▁5/7	-13677
▁780	-13678
▁Bus	-13679
▁Jon	-13680
▁Reb	-13681
▁Sir	-13682
▁[4,	-13683
▁std	-13684
▁tal	-13685
▁రూప	-13686
_0039	-13687
aware	-13688
etype	-13689
helon	-13690
socks	-13691
terra	-13692
▁1)^2	-13693
▁Eric	-13694
▁Harr	-13695
▁Sing	-13696
▁Take	-13697
▁arms	-13698
▁beds	-13699
▁bell	-13700
▁pill	-13701
▁prot	-13702
▁tape	-13703
▁చాలా	-13704
▁వారి	-13705
)--(0,	-13706
_00056	-13707
_00067	-13708
_00108	-13709
_00138	-13710
failed	-13711
lorenz	-13712
manent	-13713
module	-13714
orough	-13715
ounces	-13716
stract	-13717
yellow	-13718
össler	-13719
▁0.05,	-13720
▁15000	-13721
▁2001,	-13722
▁2009,	-13723
▁Apoll	-13724
▁Hours	-13725
▁Super	-13726
▁diagn	-13727
▁eleph	-13728
▁pilot	-13729
icksort	-13730
liament	-13731
members	-13732
▁Sharpe	-13733
▁agents	-13734
▁brings	-13735
▁lights	-13736
▁missed	-13737
▁phones	-13738
▁riding	-13739
ilestone	-13740
izations	-13741
▁Returns	-13742
▁domains	-13743
▁fashion	-13744
▁grocery	-13745
▁invited	-13746
▁radical	-13747
▁rebuilt	-13748
ighthouse	-13749
▁channels	-13750
▁cleaning	-13751
▁failures	-13752
▁kattappa	-13753
▁monomial	-13754
▁simplest	-13755
▁weighing	-13756
బ్రహ్మణ్యం	-13757
▁household	-13758
▁primarily	-13759
▁stoppages	-13760
▁warehouse	-13761
▁facilities	-13762
▁composition	-13763
▁conclusions	-13764
▁incorporated	-13765
(0	-13766
0}	-13767
SH	-13768
+1]	-13769
+35	-13770
+60	-13771
1.4	-13772
155	-13773
172	-13774
20,	-13775
203	-13776
205	-13777
249	-13778
252	-13779
268	-13780
494	-13781
509	-13782
65.	-13783
666	-13784
969	-13785
ATT	-13786
Rel	-13787
asp	-13788
lay	-13789
ంచు	-13790
ంపు	-13791
కుం	-13792
▁=1	-13793
▁=4	-13794
▁Ba	-13795
▁ds	-13796
(-5,	-13797
_1^2	-13798
corn	-13799
oder	-13800
oken	-13801
ping	-13802
prim	-13803
this	-13804
unic	-13805
}_{\	-13806
▁#18	-13807
▁#46	-13808
▁$2\	-13809
▁(27	-13810
▁-11	-13811
▁2^4	-13812
▁325	-13813
▁4).	-13814
▁46.	-13815
▁85,	-13816
▁Lie	-13817
▁Mur	-13818
▁Ore	-13819
▁Rey	-13820
▁SSW	-13821
▁mol	-13822
▁pad	-13823
▁కర్	-13824
▁పాల	-13825
10));	-13826
_0047	-13827
_0058	-13828
andon	-13829
asion	-13830
batch	-13831
human	-13832
using	-13833
▁250;	-13834
▁75^\	-13835
▁9000	-13836
▁Caes	-13837
▁Egyp	-13838
▁Swed	-13839
▁Ways	-13840
▁desk	-13841
▁eras	-13842
▁lets	-13843
▁rise	-13844
▁torn	-13845
▁unus	-13846
▁xmin	-13847
▁జీవి	-13848
▁తారు	-13849
_00087	-13850
_00148	-13851
_00168	-13852
_00188	-13853
_00198	-13854
formal	-13855
herent	-13856
icated	-13857
proced	-13858
safety	-13859
sticks	-13860
▁$100,	-13861
▁(1,1,	-13862
▁2015,	-13863
▁Betty	-13864
▁Jenna	-13865
▁Store	-13866
▁beads	-13867
▁liked	-13868
▁likes	-13869
▁nails	-13870
▁nutri	-13871
details	-13872
olterra	-13873
owntown	-13874
request	-13875
▁convex	-13876
▁enumer	-13877
▁hourly	-13878
▁layers	-13879
▁mostly	-13880
▁nation	-13881
▁vessel	-13882
agnitude	-13883
definite	-13884
interval	-13885
సంవత్సరం	-13886
▁Biology	-13887
▁Factory	-13888
▁Library	-13889
▁Rössler	-13890
▁capture	-13891
▁closure	-13892
▁duality	-13893
employees	-13894
workspace	-13895
▁Kuramoto	-13896
▁Strategy	-13897
▁finishes	-13898
▁hectares	-13899
▁spending	-13900
▁Christina	-13901
▁evaluated	-13902
▁undefined	-13903
▁Parameters	-13904
▁approached	-13905
▁simplicity	-13906
▁specifically	-13907
▁computational	-13908
▁Paraconsistent	-13909
PQ	-13910
cf	-13911
{-	-13912
(40	-13913
121	-13914
141	-13915
266	-13916
272	-13917
286	-13918
304	-13919
306	-13920
457	-13921
458	-13922
459	-13923
767	-13924
794	-13925
953	-13926
Can	-13927
[-1	-13928
bel	-13929
inf	-13930
itz	-13931
joy	-13932
tab	-13933
{17	-13934
నాథ	-13935
వాడ	-13936
▁'.	-13937
▁AP	-13938
▁Dx	-13939
▁Sk	-13940
▁UK	-13941
▁dF	-13942
▁నె	-13943
▁√2	-13944
=0$,	-13945
alog	-13946
apse	-13947
keda	-13948
mole	-13949
orge	-13950
sius	-13951
ొక్క	-13952
▁#35	-13953
▁#36	-13954
▁#44	-13955
▁$-\	-13956
▁-14	-13957
▁2*3	-13958
▁37.	-13959
▁370	-13960
▁53.	-13961
▁54.	-13962
▁90.	-13963
▁HTT	-13964
▁సీత	-13965
*5/18	-13966
.5));	-13967
_0070	-13968
bbles	-13969
ounce	-13970
parts	-13971
queue	-13972
usted	-13973
versi	-13974
▁$50.	-13975
▁Fair	-13976
▁Good	-13977
▁dais	-13978
▁dele	-13979
▁pigs	-13980
▁వల్ల	-13981
(10));	-13982
**0.5)	-13983
_00049	-13984
_00126	-13985
bullet	-13986
contin	-13987
limits	-13988
orders	-13989
scored	-13990
vested	-13991
ించాడు	-13992
▁1000.	-13993
▁Ikeda	-13994
▁Small	-13995
▁chief	-13996
▁fault	-13997
▁somew	-13998
▁swaps	-13999
▁tires	-14000
▁ఉపయోగ	-14001
earning	-14002
heduler	-14003
inctive	-14004
ipstick	-14005
ustomer	-14006
▁20/100	-14007
▁Deepak	-14008
▁Palace	-14009
▁detect	-14010
▁gasket	-14011
▁peanut	-14012
▁screen	-14013
▁severe	-14014
▁skills	-14015
▁sweets	-14016
▁thrown	-14017
▁visits	-14018
▁సంవత్స	-14019
generate	-14020
pipeline	-14021
▁ability	-14022
▁believe	-14023
▁claimed	-14024
▁concert	-14025
▁conserv	-14026
▁founded	-14027
▁inhabit	-14028
▁perturb	-14029
▁poverty	-14030
▁runtime	-14031
▁--------	-14032
▁Barnsley	-14033
▁doubling	-14034
▁notation	-14035
▁opportun	-14036
orrelation	-14037
▁Combining	-14038
▁involving	-14039
▁Department	-14040
▁Reflection	-14041
▁artificial	-14042
▁literature	-14043
▁implication	-14044
▁organization	-14045
▁subsequently	-14046
0|	-14047
2$	-14048
OG	-14049
OH	-14050
dR	-14051
sv	-14052
కే	-14053
లీ	-14054
%).	-14055
(13	-14056
+1$	-14057
+24	-14058
.54	-14059
2)2	-14060
246	-14061
28)	-14062
337	-14063
437	-14064
469	-14065
903	-14066
Jul	-14067
Sum	-14068
You	-14069
_48	-14070
ada	-14071
ccc	-14072
how	-14073
ico	-14074
iet	-14075
owl	-14076
sek	-14077
కాం	-14078
టలో	-14079
యిన	-14080
వరం	-14081
▁0}	-14082
▁xz	-14083
John	-14084
_0_9	-14085
accu	-14086
agen	-14087
bury	-14088
fort	-14089
iest	-14090
noon	-14091
such	-14092
ubes	-14093
▁#16	-14094
▁#29	-14095
▁'7'	-14096
▁1.9	-14097
▁10(	-14098
▁183	-14099
▁204	-14100
▁26.	-14101
▁2^{	-14102
▁41.	-14103
▁660	-14104
▁7.2	-14105
▁Aar	-14106
▁Ash	-14107
▁Kay	-14108
▁Rom	-14109
▁Sel	-14110
▁ger	-14111
▁psy	-14112
▁భాగ	-14113
▁మహి	-14114
4,000	-14115
Gener	-14116
herry	-14117
istan	-14118
jelly	-14119
means	-14120
oughn	-14121
parse	-14122
xleft	-14123
ూర్పు	-14124
▁((2,	-14125
▁(-3)	-14126
▁1050	-14127
▁2017	-14128
▁Dave	-14129
▁Gain	-14130
▁Indu	-14131
▁Loop	-14132
▁Mass	-14133
▁Move	-14134
▁dark	-14135
▁dead	-14136
▁poss	-14137
▁pots	-14138
▁wine	-14139
▁మంది	-14140
_00178	-14141
agraph	-14142
antasy	-14143
dollar	-14144
ensure	-14145
houses	-14146
market	-14147
mitted	-14148
ocrats	-14149
recall	-14150
rument	-14151
vertex	-14152
▁0.01.	-14153
▁Exper	-14154
▁Seven	-14155
▁Trust	-14156
▁artis	-14157
▁cocon	-14158
▁goats	-14159
▁incur	-14160
▁looks	-14161
TicksAr	-14162
inverse	-14163
iograph	-14164
selling	-14165
▁Justin	-14166
▁asking	-14167
▁depart	-14168
▁enroll	-14169
▁filmed	-14170
▁roster	-14171
▁భారతీయ	-14172
doubling	-14173
earnings	-14174
urricane	-14175
▁calling	-14176
▁chapter	-14177
▁corners	-14178
▁falling	-14179
▁isolate	-14180
▁muffins	-14181
▁penalty	-14182
▁reports	-14183
▁Northern	-14184
▁bathroom	-14185
▁crackers	-14186
▁fontsize	-14187
▁possibly	-14188
▁quadrant	-14189
▁reaching	-14190
▁revenues	-14191
▁tickdown	-14192
▁watermel	-14193
▁TicksArrx	-14194
▁destroyed	-14195
▁responses	-14196
▁threefold	-14197
▁Romanesque	-14198
▁explicitly	-14199
▁instrument	-14200
▁Explanation	-14201
▁Integrating	-14202
▁technologies	-14203
2+	-14204
Go	-14205
IO	-14206
hu	-14207
తీ	-14208
(2+	-14209
-1:	-14210
-8)	-14211
.10	-14212
.__	-14213
19.	-14214
2**	-14215
236	-14216
27.	-14217
273	-14218
383	-14219
444	-14220
451	-14221
463	-14222
752	-14223
8.4	-14224
984	-14225
=13	-14226
Car	-14227
Min	-14228
^3(	-14229
vas	-14230
was	-14231
{13	-14232
క్ట	-14233
ామి	-14234
▁PE	-14235
▁Ra	-14236
▁wB	-14237
adel	-14238
hose	-14239
ifts	-14240
made	-14241
onda	-14242
util	-14243
what	-14244
త్రి	-14245
▁#13	-14246
▁$27	-14247
▁0):	-14248
▁182	-14249
▁Oil	-14250
▁WOR	-14251
▁dos	-14252
▁gal	-14253
▁sad	-14254
▁sky	-14255
▁und	-14256
(1000	-14257
FAULT	-14258
_0116	-14259
alley	-14260
coins	-14261
daily	-14262
itors	-14263
pound	-14264
రించి	-14265
▁({1,	-14266
▁0.16	-14267
▁1989	-14268
▁1997	-14269
▁2003	-14270
▁9.81	-14271
▁Code	-14272
▁Hunt	-14273
▁Side	-14274
▁Wood	-14275
▁beam	-14276
▁bond	-14277
▁dust	-14278
▁qual	-14279
▁rare	-14280
▁పార్	-14281
_00136	-14282
_00156	-14283
_00176	-14284
_00196	-14285
_00206	-14286
_00208	-14287
consum	-14288
entive	-14289
select	-14290
telugu	-14291
undant	-14292
verses	-14293
▁0.005	-14294
▁Bobby	-14295
▁Hindu	-14296
▁Karen	-14297
▁Linda	-14298
▁burgl	-14299
▁chart	-14300
▁theme	-14301
▁wings	-14302
1_00048	-14303
example	-14304
ranging	-14305
▁(18/5)	-14306
▁50,000	-14307
▁Burges	-14308
▁Muslim	-14309
▁Vicsek	-14310
▁cookie	-14311
▁curved	-14312
▁donate	-14313
▁native	-14314
▁rolled	-14315
▁writer	-14316
▁నారాయణ	-14317
▁ప్రముఖ	-14318
critical	-14319
decision	-14320
▁bridges	-14321
▁captain	-14322
▁injured	-14323
▁ongoing	-14324
▁theater	-14325
▁Specific	-14326
▁artworks	-14327
▁communic	-14328
▁cucumber	-14329
▁displays	-14330
▁insights	-14331
▁oriented	-14332
▁residues	-14333
▁switches	-14334
governance	-14335
▁attendees	-14336
▁corrected	-14337
▁dataclass	-14338
▁presented	-14339
▁Apollonian	-14340
▁permission	-14341
▁validation	-14342
▁institution	-14343
▁transported	-14344
▁quadrilateral	-14345
▁antiderivative	-14346
▁representatives	-14347
2%	-14348
=[	-14349
LD	-14350
UE	-14351
XY	-14352
mo	-14353
దం	-14354
▁ఛ	-14355
"]:	-14356
)^{	-14357
-13	-14358
-50	-14359
204	-14360
207	-14361
237	-14362
247	-14363
283	-14364
322	-14365
326	-14366
439	-14367
48)	-14368
781	-14369
806	-14370
His	-14371
TMs	-14372
aby	-14373
osh	-14374
yer	-14375
{-\	-14376
పతి	-14377
ర్త	-14378
స్య	-14379
▁5^	-14380
▁CR	-14381
▁Es	-14382
▁Ze	-14383
(-3,	-14384
).\]	-14385
2)^2	-14386
Sten	-14387
_0_6	-14388
aksh	-14389
asha	-14390
cube	-14391
ovan	-14392
sell	-14393
ulus	-14394
ణంగా	-14395
న్నా	-14396
▁#14	-14397
▁(6.	-14398
▁148	-14399
▁29,	-14400
▁4/7	-14401
▁42,	-14402
▁49.	-14403
▁4^2	-14404
▁55,	-14405
▁65%	-14406
▁HCE	-14407
▁Tut	-14408
▁Vol	-14409
▁XOR	-14410
▁cru	-14411
▁fan	-14412
▁jew	-14413
_{100	-14414
acent	-14415
orous	-14416
rants	-14417
▁(1.0	-14418
▁(125	-14419
▁200.	-14420
▁Amar	-14421
▁Edge	-14422
▁ants	-14423
▁debt	-14424
▁pine	-14425
▁prev	-14426
▁rear	-14427
_00106	-14428
_00146	-14429
_00186	-14430
arccos	-14431
income	-14432
series	-14433
▁2006,	-14434
▁Color	-14435
▁Klein	-14436
▁Scott	-14437
▁async	-14438
▁camer	-14439
▁skysc	-14440
▁soldi	-14441
▁voice	-14442
▁పట్టణ	-14443
Stenflo	-14444
_{0}^{\	-14445
failure	-14446
orphism	-14447
pposite	-14448
weights	-14449
{3}}{2}	-14450
▁Caesar	-14451
▁colour	-14452
▁conven	-14453
▁rubber	-14454
▁stairs	-14455
▁static	-14456
▁viscos	-14457
perature	-14458
selected	-14459
▁African	-14460
▁Compare	-14461
▁Killing	-14462
▁complic	-14463
▁defense	-14464
▁kittens	-14465
▁lateral	-14466
▁trading	-14467
▁willing	-14468
knowledge	-14469
▁Students	-14470
▁Validate	-14471
▁becoming	-14472
▁designer	-14473
▁hundreds	-14474
▁reducing	-14475
▁retailer	-14476
▁benchmark	-14477
▁butterfly	-14478
▁estimates	-14479
▁telegraph	-14480
▁completion	-14481
▁employment	-14482
▁toothpicks	-14483
▁Alternative	-14484
▁accommodate	-14485
▁distinctive	-14486
▁neighboring	-14487
▁statistical	-14488
▁contradictory	-14489
▁mathematician	-14490
▁recommendation	-14491
BM	-14492
cq	-14493
gx	-14494
(75	-14495
([[	-14496
.56	-14497
.57	-14498
114	-14499
149	-14500
201	-14501
248	-14502
354	-14503
358	-14504
369	-14505
40,	-14506
404	-14507
46.	-14508
462	-14509
464	-14510
505	-14511
602	-14512
TML	-14513
^2/	-14514
ali	-14515
arn	-14516
bes	-14517
dep	-14518
eli	-14519
uro	-14520
web	-14521
క్త	-14522
ముల	-14523
రకు	-14524
ష్ప	-14525
▁&&	-14526
▁Ay	-14527
▁Bl	-14528
▁DA	-14529
▁dS	-14530
▁eV	-14531
(15)	-14532
(2),	-14533
Best	-14534
^2}\	-14535
cons	-14536
cour	-14537
eeds	-14538
nest	-14539
ride	-14540
rust	-14541
stop	-14542
},\]	-14543
క్తి	-14544
▁#25	-14545
▁178	-14546
▁1^2	-14547
▁20*	-14548
▁5).	-14549
▁98.	-14550
▁Aly	-14551
▁Ron	-14552
▁SSB	-14553
▁ఇలా	-14554
candy	-14555
edges	-14556
ivers	-14557
meter	-14558
paper	-14559
swith	-14560
votes	-14561
రిత్ర	-14562
▁1/16	-14563
▁150)	-14564
▁Bern	-14565
▁Stan	-14566
▁gray	-14567
▁hamb	-14568
▁lakh	-14569
▁sett	-14570
▁sons	-14571
_00059	-14572
_00166	-14573
encode	-14574
friend	-14575
fruits	-14576
ressed	-14577
struct	-14578
▁$2.00	-14579
▁(1/8)	-14580
▁0.01,	-14581
▁Lotka	-14582
▁Tutte	-14583
▁hints	-14584
▁rings	-14585
▁suits	-14586
▁పాత్ర	-14587
ariance	-14588
cession	-14589
randint	-14590
{1}{2},	-14591
▁decade	-14592
▁estate	-14593
▁frames	-14594
▁gather	-14595
▁papers	-14596
▁really	-14597
▁rental	-14598
▁runner	-14599
▁trader	-14600
▁twelve	-14601
▁unable	-14602
Volterra	-14603
fraction	-14604
messages	-14605
projects	-14606
▁arrives	-14607
▁innings	-14608
▁shifted	-14609
▁sibling	-14610
▁sustain	-14611
▁నిర్మాత	-14612
purchased	-14613
▁Location	-14614
▁commonly	-14615
▁interpre	-14616
▁password	-14617
▁subgraph	-14618
Connection	-14619
Governance	-14620
negativity	-14621
▁comparing	-14622
▁consumers	-14623
▁excluding	-14624
▁followers	-14625
▁incentive	-14626
▁mechanism	-14627
▁primitive	-14628
▁relatives	-14629
▁textbooks	-14630
▁viscosity	-14631
▁exceptions	-14632
▁lighthouse	-14633
సుబ్రహ్మణ్యం	-14634
▁oscillations	-14635
$)	-14636
:]	-14637
LC	-14638
NA	-14639
ng	-14640
శ్	-14641
▁ఐ	-14642
▁∇	-14643
-17	-14644
-30	-14645
007	-14646
181	-14647
289	-14648
409	-14649
45,	-14650
454	-14651
502	-14652
668	-14653
76:	-14654
786	-14655
80:	-14656
904	-14657
95.	-14658
989	-14659
997	-14660
=28	-14661
^{(	-14662
_5.	-14663
iza	-14664
spe	-14665
udd	-14666
ymp	-14667
ళ్ల	-14668
ాగా	-14669
▁+1	-14670
▁2√	-14671
▁=3	-14672
▁Ah	-14673
▁CE	-14674
▁దొ	-14675
([1,	-14676
JECT	-14677
auty	-14678
eled	-14679
game	-14680
good	-14681
heit	-14682
page	-14683
▁#15	-14684
▁#45	-14685
▁#55	-14686
▁-3)	-14687
▁-4,	-14688
▁1.3	-14689
▁14)	-14690
▁20-	-14691
▁3.4	-14692
▁460	-14693
▁62.	-14694
▁630	-14695
▁85%	-14696
▁AxB	-14697
▁Box	-14698
▁Mag	-14699
▁Say	-14700
▁dad	-14701
▁las	-14702
▁అర్	-14703
▁జరి	-14704
▁సూర	-14705
(2)^2	-14706
ahren	-14707
allel	-14708
gency	-14709
hered	-14710
itals	-14711
miles	-14712
quate	-14713
skill	-14714
sleep	-14715
tokes	-14716
wheel	-14717
చంద్ర	-14718
పాలెం	-14719
▁$0.0	-14720
▁$10,	-14721
▁$15.	-14722
▁200)	-14723
▁Chap	-14724
▁Jake	-14725
▁ODEs	-14726
▁sees	-14727
▁vacc	-14728
▁vers	-14729
▁wage	-14730
▁weap	-14731
▁{(2,	-14732
▁పురా	-14733
▁మహిళ	-14734
▁రావు	-14735
Calcul	-14736
_00043	-14737
agents	-14738
arange	-14739
enario	-14740
itions	-14741
months	-14742
option	-14743
pieces	-14744
shared	-14745
▁2.718	-14746
▁Equil	-14747
▁Evalu	-14748
▁Kelly	-14749
▁buses	-14750
▁cones	-14751
▁fries	-14752
▁happy	-14753
candies	-14754
capital	-14755
conflic	-14756
uration	-14757
usivity	-14758
▁Theore	-14759
▁artist	-14760
▁bubble	-14761
▁causes	-14762
▁packed	-14763
▁prohib	-14764
▁puzzle	-14765
▁rocket	-14766
▁shadow	-14767
▁wolves	-14768
priority	-14769
▁Celsius	-14770
▁DEFAULT	-14771
▁Stephen	-14772
▁critics	-14773
▁dresses	-14774
▁encoura	-14775
▁kilomet	-14776
ahrenheit	-14777
▁biscuits	-14778
▁clusters	-14779
▁creation	-14780
▁elevator	-14781
▁settings	-14782
tification	-14783
▁amplitudes	-14784
▁completing	-14785
▁functional	-14786
▁repetition	-14787
▁supporting	-14788
coefficients	-14789
▁diffusivity	-14790
▁equivalence	-14791
▁inhabitants	-14792
▁measurement	-14793
▁Championship	-14794
▁demonstrates	-14795
▁bootstrapping	-14796
){	-14797
*"	-14798
,)	-14799
ww	-14800
గో	-14801
హు	-14802
("/	-14803
(9)	-14804
))/	-14805
17)	-14806
296	-14807
323	-14808
33%	-14809
387	-14810
472	-14811
60,	-14812
78)	-14813
783	-14814
803	-14815
855	-14816
fto	-14817
iad	-14818
org	-14819
phr	-14820
pic	-14821
}^1	-14822
▁#9	-14823
▁5(	-14824
▁OS	-14825
▁గొ	-14826
(-2,	-14827
1**2	-14828
101'	-14829
125)	-14830
^2_{	-14831
_0_7	-14832
avil	-14833
gers	-14834
grow	-14835
hony	-14836
iona	-14837
othy	-14838
outs	-14839
pref	-14840
tery	-14841
ults	-14842
{5}{	-14843
ల్లా	-14844
సాద్	-14845
▁#24	-14846
▁$-1	-14847
▁(4!	-14848
▁(5)	-14849
▁16%	-14850
▁287	-14851
▁336	-14852
▁365	-14853
▁5/8	-14854
▁Arc	-14855
▁Bad	-14856
▁Cra	-14857
▁PDE	-14858
▁jus	-14859
▁rib	-14860
▁మొద	-14861
_0068	-14862
front	-14863
gradu	-14864
poral	-14865
ronze	-14866
sized	-14867
ticed	-14868
}^2$.	-14869
}^3$.	-14870
▁(0.6	-14871
▁0.26	-14872
▁1/2.	-14873
▁15.8	-14874
▁3500	-14875
▁4500	-14876
▁500,	-14877
▁Best	-14878
▁Care	-14879
▁Gall	-14880
▁Leon	-14881
▁cott	-14882
▁evap	-14883
▁gift	-14884
▁prec	-14885
▁swap	-14886
▁turb	-14887
▁wore	-14888
▁నంది	-14889
▁ప్రజ	-14890
ircase	-14891
teness	-14892
thirds	-14893
unique	-14894
upiter	-14895
{1}{6}	-14896
▁$1.50	-14897
▁'101'	-14898
▁120.0	-14899
▁2008,	-14900
▁2010,	-14901
▁5,000	-14902
▁500/9	-14903
▁Bayes	-14904
▁brack	-14905
▁enjoy	-14906
▁mount	-14907
▁neckl	-14908
▁rival	-14909
▁ships	-14910
▁slots	-14911
▁teeth	-14912
▁vowel	-14913
▁xaxis	-14914
▁yaxis	-14915
▁తరువా	-14916
▁తల్లి	-14917
Charlie	-14918
Minimum	-14919
because	-14920
outcome	-14921
plified	-14922
reasing	-14923
ారెడ్డి	-14924
▁3600.0	-14925
▁corpor	-14926
▁doctor	-14927
▁manner	-14928
▁voting	-14929
▁ఎక్కువ	-14930
▁జాబితా	-14931
cosystem	-14932
standard	-14933
▁Pacific	-14934
▁Russian	-14935
▁Several	-14936
▁Windows	-14937
▁abandon	-14938
▁comment	-14939
▁offices	-14940
▁premium	-14941
▁reduces	-14942
▁scholar	-14943
▁serving	-14944
▁watched	-14945
▁ఉంటుంది	-14946
clockwise	-14947
omination	-14948
▁Georgian	-14949
▁Theorems	-14950
▁Variance	-14951
▁isolated	-14952
▁marginal	-14953
▁pentagon	-14954
▁province	-14955
▁shipment	-14956
▁toppings	-14957
▁గ్రామాలు	-14958
▁---------	-14959
▁Hyderabad	-14960
▁attending	-14961
▁engineers	-14962
▁graphical	-14963
▁returning	-14964
▁unchanged	-14965
▁varieties	-14966
▁Altogether	-14967
▁apartments	-14968
▁atmosphere	-14969
▁boundaries	-14970
▁containers	-14971
▁decorative	-14972
▁impossible	-14973
▁Rearranging	-14974
▁nonnegative	-14975
▁participant	-14976
▁proportions	-14977
▁specialized	-14978
▁temperatures	-14979
▁environmental	-14980
(*	-14981
Ge	-14982
LM	-14983
RI	-14984
dW	-14985
gb	-14986
ji	-14987
mn	-14988
']}	-14989
-1/	-14990
0)$	-14991
115	-14992
11:	-14993
23'	-14994
242	-14995
284	-14996
389	-14997
392	-14998
448	-14999
49.	-15000
491	-15001
888	-15002
965	-15003
IGH	-15004
]])	-15005
^2]	-15006
^4,	-15007
wen	-15008
ంగి	-15009
పట్	-15010
▁"\	-15011
▁5?	-15012
▁7}	-15013
▁?)	-15014
▁PD	-15015
▁vo	-15016
▁ఆల	-15017
,0),	-15018
/4))	-15019
Work	-15020
aret	-15021
cars	-15022
clip	-15023
enge	-15024
hoes	-15025
iger	-15026
mock	-15027
prey	-15028
snow	-15029
utch	-15030
{4}{	-15031
ళ్ళు	-15032
▁#10	-15033
▁#40	-15034
▁$26	-15035
▁(28	-15036
▁153	-15037
▁163	-15038
▁2:3	-15039
▁HCF	-15040
▁Nat	-15041
▁Sic	-15042
▁cas	-15043
▁hon	-15044
▁htt	-15045
▁mel	-15046
▁wra	-15047
(4));	-15048
Speed	-15049
^2}{2	-15050
_0037	-15051
aters	-15052
emale	-15053
ename	-15054
erver	-15055
shape	-15056
union	-15057
▁'23'	-15058
▁(0.8	-15059
▁0.36	-15060
▁2(0)	-15061
▁400)	-15062
▁Army	-15063
▁Less	-15064
▁Loss	-15065
▁Sovi	-15066
▁Wall	-15067
▁educ	-15068
▁elig	-15069
▁hipp	-15070
▁mary	-15071
▁nest	-15072
▁tied	-15073
/100)*	-15074
_00057	-15075
locity	-15076
ticket	-15077
window	-15078
worker	-15079
wright	-15080
▁(1/6)	-15081
▁Molly	-15082
▁Power	-15083
▁Ricci	-15084
▁opens	-15085
▁reign	-15086
▁retry	-15087
▁swarm	-15088
▁swims	-15089
emantic	-15090
▁0.2778	-15091
▁Commit	-15092
▁Govern	-15093
▁Norman	-15094
▁Taylor	-15095
▁arches	-15096
▁bidder	-15097
▁correl	-15098
▁guitar	-15099
▁snowfl	-15100
▁splits	-15101
▁themes	-15102
▁timber	-15103
▁tossed	-15104
arrative	-15105
esperson	-15106
setminus	-15107
హెక్టార్	-15108
▁Abelian	-15109
▁Cluster	-15110
▁Indians	-15111
▁Service	-15112
▁chances	-15113
▁digraph	-15114
▁waiting	-15115
▁స్త్రీల	-15116
palindrom	-15117
versation	-15118
▁Brownian	-15119
▁Calculus	-15120
▁Egyptian	-15121
▁Mersenne	-15122
▁Minister	-15123
▁converge	-15124
▁servings	-15125
▁survival	-15126
▁survived	-15127
▁batteries	-15128
▁bracelets	-15129
▁decrypted	-15130
▁ecosystem	-15131
▁operators	-15132
▁adaptation	-15133
▁integrated	-15134
▁purchasing	-15135
▁identifying	-15136
▁improvement	-15137
-{	-15138
.'	-15139
:%	-15140
EF	-15141
LY	-15142
PS	-15143
VI	-15144
▁⊆	-15145
+22	-15146
-2,	-15147
-7)	-15148
/2=	-15149
171	-15150
293	-15151
303	-15152
30:	-15153
339	-15154
484	-15155
955	-15156
99'	-15157
991	-15158
=3,	-15159
ACK	-15160
IVE	-15161
_16	-15162
_1\	-15163
_40	-15164
emy	-15165
era	-15166
fro	-15167
hyp	-15168
req	-15169
ంపై	-15170
మాన	-15171
▁AF	-15172
▁IV	-15173
▁Ve	-15174
▁[0	-15175
(0.6	-15176
**2,	-15177
-1).	-15178
-10)	-15179
/150	-15180
1)))	-15181
100)	-15182
6667	-15183
ROOT	-15184
Raph	-15185
^2}$	-15186
alph	-15187
anks	-15188
exec	-15189
five	-15190
fuel	-15191
func	-15192
haps	-15193
mond	-15194
sued	-15195
tist	-15196
umin	-15197
ంగ్ల	-15198
బాబు	-15199
మ్మా	-15200
▁#20	-15201
▁(-5	-15202
▁(-6	-15203
▁(1+	-15204
▁14%	-15205
▁1].	-15206
▁215	-15207
▁24%	-15208
▁243	-15209
▁264	-15210
▁3^3	-15211
▁864	-15212
▁Edu	-15213
▁Lew	-15214
▁Pay	-15215
▁Vij	-15216
▁ant	-15217
▁bee	-15218
▁అంట	-15219
▁కవి	-15220
▁పాఠ	-15221
(200,	-15222
jsonl	-15223
liers	-15224
mises	-15225
sales	-15226
ympto	-15227
వచ్చు	-15228
▁'99'	-15229
▁(1/(	-15230
▁0.0,	-15231
▁0.64	-15232
▁1/3)	-15233
▁Diff	-15234
▁Hint	-15235
▁Star	-15236
▁cold	-15237
▁irre	-15238
▁leap	-15239
▁pare	-15240
▁prog	-15241
▁scat	-15242
▁కంది	-15243
▁క్రీ	-15244
=0}^{\	-15245
Return	-15246
mother	-15247
perial	-15248
plates	-15249
▁150.0	-15250
▁2000,	-15251
▁2012,	-15252
▁Laura	-15253
▁Lower	-15254
▁broke	-15255
▁draft	-15256
▁guest	-15257
▁inten	-15258
▁lives	-15259
▁mason	-15260
▁parad	-15261
▁piggy	-15262
▁pints	-15263
▁skill	-15264
Raphson	-15265
graders	-15266
oranges	-15267
updated	-15268
▁Amanda	-15269
▁Common	-15270
▁Soviet	-15271
▁courty	-15272
▁dishes	-15273
▁doughn	-15274
▁orbits	-15275
▁proved	-15276
▁studio	-15277
▁tunnel	-15278
▁yearly	-15279
▁గృహాలు	-15280
accuracy	-15281
optimize	-15282
▁Barbara	-15283
▁Clearly	-15284
▁Florida	-15285
▁asympto	-15286
▁cheaper	-15287
▁dealing	-15288
▁denomin	-15289
▁efforts	-15290
▁fishing	-15291
▁flowing	-15292
▁modules	-15293
▁protect	-15294
▁runners	-15295
▁seasons	-15296
▁తారాగణం	-15297
generator	-15298
▁attached	-15299
▁competit	-15300
▁eligible	-15301
▁feathers	-15302
▁graduate	-15303
▁networks	-15304
▁offering	-15305
▁parenthe	-15306
▁referred	-15307
▁validate	-15308
committees	-15309
▁Amplitude	-15310
▁afternoon	-15311
▁automatic	-15312
▁cucumbers	-15313
▁kilometer	-15314
▁lollipops	-15315
▁platforms	-15316
హెక్టార్లలో	-15317
▁classrooms	-15318
▁comparison	-15319
▁consonants	-15320
▁earthquake	-15321
▁resistance	-15322
5_	-15323
IH	-15324
`:	-15325
dp	-15326
lb	-15327
oh	-15328
వ్	-15329
‡’	-15330
▁ఊ	-15331
*40	-15332
0}(	-15333
1.6	-15334
19:	-15335
222	-15336
263	-15337
294	-15338
298	-15339
36.	-15340
371	-15341
4.8	-15342
407	-15343
48,	-15344
60:	-15345
665	-15346
757	-15347
766	-15348
801	-15349
952	-15350
96)	-15351
962	-15352
968	-15353
99,	-15354
Run	-15355
Sin	-15356
^1)	-15357
_4,	-15358
cpu	-15359
mas	-15360
{25	-15361
ుతి	-15362
ుని	-15363
▁+2	-15364
▁1?	-15365
▁cp	-15366
▁{\	-15367
▁చూ	-15368
▁బొ	-15369
▁వల	-15370
(1.5	-15371
(25)	-15372
(40)	-15373
****	-15374
ISTS	-15375
acts	-15376
sech	-15377
tles	-15378
tter	-15379
when	-15380
}{8}	-15381
▁#32	-15382
▁0);	-15383
▁141	-15384
▁161	-15385
▁164	-15386
▁173	-15387
▁208	-15388
▁3*2	-15389
▁75.	-15390
▁85.	-15391
▁Cam	-15392
▁Fox	-15393
▁Gab	-15394
▁God	-15395
▁Mel	-15396
▁Mes	-15397
▁Put	-15398
▁[(-	-15399
▁bra	-15400
▁pin	-15401
▁pit	-15402
▁ఇవి	-15403
_0086	-15404
alore	-15405
enter	-15406
ports	-15407
ricts	-15408
weeks	-15409
▁$10$	-15410
▁(180	-15411
▁100:	-15412
▁Chen	-15413
▁Coll	-15414
▁Doug	-15415
▁Edin	-15416
▁Prof	-15417
▁Todd	-15418
▁chip	-15419
▁dess	-15420
▁disp	-15421
▁laps	-15422
▁nuts	-15423
▁అప్ప	-15424
_00084	-15425
_00097	-15426
_00139	-15427
duplic	-15428
leaves	-15429
origin	-15430
sembly	-15431
ంపల్లి	-15432
క్ష్మి	-15433
▁$2.50	-15434
▁1000,	-15435
▁Grant	-15436
▁Input	-15437
▁Wales	-15438
▁defic	-15439
▁frost	-15440
▁gross	-15441
▁legal	-15442
▁manip	-15443
▁చెప్ప	-15444
install	-15445
tabular	-15446
▁Academ	-15447
▁Africa	-15448
▁Driver	-15449
▁EXISTS	-15450
▁breaks	-15451
▁export	-15452
▁gender	-15453
▁killed	-15454
▁priced	-15455
▁tonnes	-15456
▁చరిత్ర	-15457
▁చిత్రం	-15458
▁పారుదల	-15459
standing	-15460
tainment	-15461
▁(18/5)]	-15462
▁Eastern	-15463
▁attract	-15464
▁flavors	-15465
▁handled	-15466
▁heavily	-15467
▁orchest	-15468
▁vehicle	-15469
excluding	-15470
ేశ్వరరావు	-15471
▁directed	-15472
▁discover	-15473
▁premises	-15474
▁regarded	-15475
degenerate	-15476
▁Edinburgh	-15477
▁alternate	-15478
▁deposited	-15479
▁quicksort	-15480
▁adjunction	-15481
▁categories	-15482
▁prevalence	-15483
▁quaternion	-15484
▁scientific	-15485
▁surrounded	-15486
▁translates	-15487
▁transaction	-15488
▁multiplicity	-15489
CC	-15490
ja	-15491
rh	-15492
టం	-15493
−1	-15494
"},	-15495
(24	-15496
(90	-15497
/23	-15498
/72	-15499
257	-15500
267	-15501
302	-15502
468	-15503
49,	-15504
503	-15505
603	-15506
606	-15507
66,	-15508
754	-15509
763	-15510
772	-15511
=45	-15512
Max	-15513
ODE	-15514
^3\	-15515
ece	-15516
lla	-15517
ori	-15518
sis	-15519
}+\	-15520
▁1;	-15521
▁7^	-15522
▁ML	-15523
▁],	-15524
▁ty	-15525
▁|2	-15526
▁పూ	-15527
▁మూ	-15528
▁సభ	-15529
0)),	-15530
_0_4	-15531
avor	-15532
iant	-15533
ifer	-15534
igan	-15535
inth	-15536
peak	-15537
టూరి	-15538
బాదు	-15539
▁#65	-15540
▁#70	-15541
▁#85	-15542
▁$(1	-15543
▁$32	-15544
▁11:	-15545
▁131	-15546
▁147	-15547
▁154	-15548
▁179	-15549
▁212	-15550
▁267	-15551
▁278	-15552
▁Cup	-15553
▁Nik	-15554
▁Veg	-15555
▁[5,	-15556
▁dil	-15557
▁{1}	-15558
▁{5,	-15559
▁కళా	-15560
▁గుం	-15561
(1,1,	-15562
-1)^2	-15563
=1}^{	-15564
_0119	-15565
abeth	-15566
aland	-15567
exist	-15568
inton	-15569
posal	-15570
there	-15571
▁(300	-15572
▁0)$.	-15573
▁0.45	-15574
▁10),	-15575
▁3.75	-15576
▁Azer	-15577
▁Bath	-15578
▁Club	-15579
▁Iran	-15580
▁Nina	-15581
▁Song	-15582
▁ange	-15583
▁dxdt	-15584
▁flux	-15585
▁opin	-15586
▁quiz	-15587
▁skip	-15588
▁till	-15589
▁wild	-15590
▁wing	-15591
_00069	-15592
_00074	-15593
_00129	-15594
ardens	-15595
iberal	-15596
idates	-15597
params	-15598
player	-15599
resses	-15600
valued	-15601
▁(1/5)	-15602
▁Bears	-15603
▁Times	-15604
▁Vigen	-15605
▁absor	-15606
▁coinc	-15607
▁joins	-15608
▁links	-15609
▁olymp	-15610
▁overs	-15611
▁rides	-15612
▁slant	-15613
Manager	-15614
ootball	-15615
otenuse	-15616
▁Jewish	-15617
▁battle	-15618
▁bigger	-15619
▁pepper	-15620
▁silent	-15621
▁strain	-15622
adjacent	-15623
andidate	-15624
▁Algebra	-15625
▁Anthony	-15626
▁Indones	-15627
▁Overall	-15628
▁coconut	-15629
▁cooling	-15630
▁forming	-15631
▁grounds	-15632
▁pathlib	-15633
▁stretch	-15634
classical	-15635
▁Canadian	-15636
▁artistic	-15637
▁averaged	-15638
▁branches	-15639
▁coherent	-15640
▁festival	-15641
▁humidity	-15642
▁lipstick	-15643
▁olympiad	-15644
▁weighted	-15645
▁Francisco	-15646
▁erroneous	-15647
▁permanent	-15648
▁procedure	-15649
▁protected	-15650
▁attributes	-15651
▁birational	-15652
▁consistent	-15653
▁connections	-15654
▁salesperson	-15655
▁supermarket	-15656
▁homeomorphic	-15657
(?	-15658
OC	-15659
OS	-15660
kt	-15661
*15	-15662
*30	-15663
/(3	-15664
00=	-15665
1$,	-15666
131	-15667
151	-15668
262	-15669
287	-15670
292	-15671
3).	-15672
334	-15673
359	-15674
402	-15675
442	-15676
449	-15677
47.	-15678
663	-15679
75:	-15680
988	-15681
=35	-15682
=80	-15683
ORY	-15684
]))	-15685
_2|	-15686
got	-15687
ien	-15688
nai	-15689
pas	-15690
pus	-15691
{-1	-15692
కరణ	-15693
జ్ఞ	-15694
ాన్	-15695
ువు	-15696
▁7-	-15697
▁Dz	-15698
▁ST	-15699
▁పర	-15700
▁భీ	-15701
(24)	-15702
-1)^	-15703
/120	-15704
3)--	-15705
=1}^	-15706
Name	-15707
^2/2	-15708
edge	-15709
onom	-15710
stal	-15711
wins	-15712
టుంబ	-15713
లింగ	-15714
ళ్ళి	-15715
ుత్వ	-15716
▁#78	-15717
▁(42	-15718
▁-4.	-15719
▁1)]	-15720
▁1,0	-15721
▁2.1	-15722
▁60-	-15723
▁=10	-15724
▁GDP	-15725
▁Pig	-15726
▁Ven	-15727
▁gem	-15728
▁phr	-15729
(0.7)	-15730
_0045	-15731
backs	-15732
ening	-15733
iders	-15734
press	-15735
shire	-15736
stick	-15737
today	-15738
}^2(\	-15739
వర్గం	-15740
ించిన	-15741
▁(10,	-15742
▁0.24	-15743
▁0.8,	-15744
▁1/2,	-15745
▁2)^2	-15746
▁4(1)	-15747
▁6.25	-15748
▁6:00	-15749
▁Dana	-15750
▁Exam	-15751
▁Fast	-15752
▁Week	-15753
▁coun	-15754
▁feat	-15755
▁mini	-15756
▁mock	-15757
▁rush	-15758
▁తిరు	-15759
Assume	-15760
_00094	-15761
_00169	-15762
ainder	-15763
ftover	-15764
thread	-15765
{1}{2\	-15766
▁0.025	-15767
▁Carla	-15768
▁Islam	-15769
▁Spain	-15770
▁Those	-15771
▁infer	-15772
▁perms	-15773
▁pitch	-15774
▁చేసిన	-15775
▁యొక్క	-15776
▁రచయిత	-15777
display	-15778
neither	-15779
package	-15780
sandbox	-15781
▁Valley	-15782
▁Weight	-15783
▁acting	-15784
▁arcsin	-15785
▁assist	-15786
▁banana	-15787
▁bright	-15788
▁credit	-15789
▁develo	-15790
▁humans	-15791
▁ignore	-15792
▁narrow	-15793
▁petrol	-15794
▁resist	-15795
▁stayed	-15796
▁taller	-15797
▁threat	-15798
▁victim	-15799
▁చూడండి	-15800
-------|	-15801
discount	-15802
language	-15803
ognitive	-15804
▁Rebecca	-15805
▁carries	-15806
▁consume	-15807
▁discuss	-15808
▁mistake	-15809
▁parrots	-15810
▁peaches	-15811
▁readers	-15812
▁shelter	-15813
▁stuffed	-15814
▁visible	-15815
anglemark	-15816
▁Semantic	-15817
▁accounts	-15818
▁benefits	-15819
▁downtown	-15820
▁goldfish	-15821
▁heritage	-15822
▁lemonade	-15823
▁millilit	-15824
▁momentum	-15825
▁shooting	-15826
▁soldiers	-15827
▁teaching	-15828
▁Attention	-15829
▁dedicated	-15830
▁economics	-15831
▁inversely	-15832
[...]
