{
  "<pad>": 0,
  "<unk>": 1,
  "<bos>": 2,
  "<eos>": 3,
  "<sep>": 4,
  "<mask>": 5,
  "▁t": 6,
  "he": 7,
  "in": 8,
  "▁a": 9,
  "on": 10,
  "▁the": 11,
  "er": 12,
  "▁s": 13,
  "ti": 14,
  "re": 15,
  "▁o": 16,
  "en": 17,
  "an": 18,
  "▁c": 19,
  "▁=": 20,
  "is": 21,
  "te": 22,
  "▁p": 23,
  "▁w": 24,
  "▁f": 25,
  "al": 26,
  "▁of": 27,
  "es": 28,
  "▁1": 29,
  "or": 30,
  "▁an": 31,
  "▁m": 32,
  "▁b": 33,
  "▁d": 34,
  "▁(": 35,
  "tion": 36,
  "le": 37,
  "00": 38,
  "at": 39,
  "▁in": 40,
  "ro": 41,
  "it": 42,
  "▁to": 43,
  "▁n": 44,
  "ar": 45,
  "▁2": 46,
  "▁is": 47,
  "ing": 48,
  "▁and": 49,
  "as": 50,
  "▁T": 51,
  "si": 52,
  "ic": 53,
  "et": 54,
  "ex": 55,
  "ra": 56,
  "ed": 57,
  "▁h": 58,
  "nt": 59,
  "tic": 60,
  "ou": 61,
  "▁re": 62,
  "ve": 63,
  "▁sy": 64,
  "exp": 65,
  "sion": 66,
  "▁3": 67,
  "ent": 68,
  "▁S": 69,
  "▁A": 70,
  "ol": 71,
  "▁-": 72,
  "▁th": 73,
  "il": 74,
  "▁l": 75,
  "nthe": 76,
  "nthetic": 77,
  "▁e": 78,
  "ac": 79,
  "▁+": 80,
  "▁synthetic": 81,
  "▁*": 82,
  "im": 83,
  "expan": 84,
  "expansion": 85,
  "▁g": 86,
  "ation": 87,
  "st": 88,
  "um": 89,
  "om": 90,
  "▁$": 91,
  "▁C": 92,
  "ec": 93,
  "ow": 94,
  "ul": 95,
  "▁The": 96,
  "ate": 97,
  "qu": 98,
  "ri": 99,
  "▁for": 100,
  "▁en": 101,
  "ce": 102,
  "▁4": 103,
  "▁5": 104,
  "▁P": 105,
  "▁u": 106,
  "se": 107,
  "▁pro": 108,
  "th": 109,
  "ir": 110,
  "ber": 111,
  "▁#": 112,
  "▁we": 113,
  "▁I": 114,
  "▁st": 115,
  "id": 116,
  "_00": 117,
  "sw": 118,
  "int": 119,
  "▁x": 120,
  "ho": 121,
  "if": 122,
  "swer": 123,
  "▁0": 124,
  "▁L": 125,
  "▁v": 126,
  "ig": 127,
  "am": 128,
  "ur": 129,
  "ay": 130,
  "ot": 131,
  "ly": 132,
  "▁on": 133,
  "▁num": 134,
  "ut": 135,
  "▁k": 136,
  "ab": 137,
  "▁\\": 138,
  "▁B": 139,
  "▁6": 140,
  "▁be": 141,
  "▁y": 142,
  "ge": 143,
  "▁that": 144,
  "▁are": 145,
  "ad": 146,
  "▁\"": 147,
  "▁R": 148,
  "▁con": 149,
  "ith": 150,
  "lo": 151,
  "ver": 152,
  "un": 153,
  "▁by": 154,
  "tep": 155,
  "el": 156,
  "ers": 157,
  "--": 158,
  "▁number": 159,
  "ct": 160,
  "▁F": 161,
  "▁can": 162,
  "▁D": 163,
  "▁as": 164,
  "▁H": 165,
  "ind": 166,
  "ch": 167,
  "▁10": 168,
  "od": 169,
  "ase": 170,
  "▁/": 171,
  "▁with": 172,
  "▁it": 173,
  "her": 174,
  "ple": 175,
  "iv": 176,
  "▁de": 177,
  "^2": 178,
  "▁N": 179,
  "▁at": 180,
  "▁com": 181,
  "ist": 182,
  "our": 183,
  "▁pr": 184,
  "up": 185,
  "ity": 186,
  "▁W": 187,
  "ud": 188,
  "▁M": 189,
  "▁r": 190,
  "ine": 191,
  "us": 192,
  "ore": 193,
  ".0": 194,
  "**": 195,
  "eed": 196,
  "ction": 197,
  "ted": 198,
  "▁8": 199,
  "▁Let": 200,
  "▁po": 201,
  "ment": 202,
  "▁E": 203,
  "ill": 204,
  "ht": 205,
  "▁al": 206,
  "ach": 207,
  "10": 208,
  "ice": 209,
  "ter": 210,
  "all": 211,
  "▁An": 212,
  "▁sp": 213,
  "▁7": 214,
  "▁or": 215,
  "▁wh": 216,
  "▁**": 217,
  "rom": 218,
  "tive": 219,
  "▁sol": 220,
  "▁వ": 221,
  "res": 222,
  "ime": 223,
  "ations": 224,
  "▁le": 225,
  "**:": 226,
  "ort": 227,
  "ds": 228,
  "▁answer": 229,
  "▁12": 230,
  "tal": 231,
  "ath": 232,
  "ue": 233,
  "est": 234,
  "▁lo": 235,
  "der": 236,
  "pp": 237,
  "▁total": 238,
  "▁co": 239,
  "\",": 240,
  "▁per": 241,
  "▁from": 242,
  "▁find": 243,
  "▁equ": 244,
  "ain": 245,
  "ak": 246,
  "▁un": 247,
  "),": 248,
  "ance": 249,
  "▁Step": 250,
  "▁ra": 251,
  "ave": 252,
  "ag": 253,
  "▁'": 254,
  "▁`": 255,
  "cul": 256,
  "లు": 257,
  "age": 258,
  "్ర": 259,
  "_000": 260,
  "ార": 261,
  "▁9": 262,
  "▁man": 263,
  "▁bo": 264,
  "sp": 265,
  "gra": 266,
  "▁he": 267,
  "))": 268,
  "▁each": 269,
  "▁Answer": 270,
  "▁0.": 271,
  "and": 272,
  "▁print": 273,
  "▁if": 274,
  "▁qu": 275,
  "ure": 276,
  "ass": 277,
  "ph": 278,
  "rac": 279,
  "▁will": 280,
  "▁|": 281,
  "▁this": 282,
  "▁pl": 283,
  "్య": 284,
  "▁val": 285,
  "wo": 286,
  "ear": 287,
  "\":": 288,
  "▁ప": 289,
  "rite": 290,
  "fer": 291,
  "pl": 292,
  "▁ro": 293,
  "12": 294,
  "rain": 295,
  "▁G": 296,
  "ess": 297,
  "em": 298,
  "000": 299,
  "▁O": 300,
  "alcul": 301,
  "to": 302,
  "ents": 303,
  "▁hour": 304,
  "ices": 305,
  "▁has": 306,
  "▁In": 307,
  "▁క": 308,
  "ack": 309,
  "iti": 310,
  "▁స": 311,
  "▁20": 312,
  "▁ex": 313,
  "ite": 314,
  "du": 315,
  "▁have": 316,
  "▁sec": 317,
  "ck": 318,
  "gram": 319,
  "ip": 320,
  "ble": 321,
  "▁im": 322,
  "▁cl": 323,
  "yth": 324,
  "▁su": 325,
  "ld": 326,
  "are": 327,
  "ution": 328,
  "ork": 329,
  "ard": 330,
  "▁If": 331,
  "▁program": 332,
  "iz": 333,
  "▁was": 334,
  "50": 335,
  "▁two": 336,
  "ated": 337,
  "ich": 338,
  "ython": 339,
  "irst": 340,
  "de": 341,
  "▁Th": 342,
  "ulti": 343,
  "▁time": 344,
  "▁(1": 345,
  "port": 346,
  "ap": 347,
  "ys": 348,
  "లో": 349,
  "ays": 350,
  "ute": 351,
  "▁whe": 352,
  "▁def": 353,
  "frac": 354,
  "out": 355,
  "}{": 356,
  "ount": 357,
  "low": 358,
  "▁step": 359,
  "▁న": 360,
  "▁multi": 361,
  "hoices": 362,
  "▁us": 363,
  "ight": 364,
  "ant": 365,
  "ang": 366,
  "ame": 367,
  "roup": 368,
  "▁solve": 369,
  "ew": 370,
  "▁calcul": 371,
  "0,": 372,
  "▁[": 373,
  "▁Choices": 374,
  ").": 375,
  "tim": 376,
  "▁many": 377,
  "estion": 378,
  "ence": 379,
  "▁stud": 380,
  "ire": 381,
  "▁which": 382,
  "(1": 383,
  "end": 384,
  "▁ab": 385,
  "▁fun": 386,
  "orm": 387,
  "----": 388,
  "/2": 389,
  "▁write": 390,
  "ile": 391,
  "cho": 392,
  "▁comp": 393,
  "▁100": 394,
  "▁గ": 395,
  "act": 396,
  "ree": 397,
  "ంద": 398,
  "own": 399,
  "▁To": 400,
  "▁z": 401,
  "0.": 402,
  "per": 403,
  "▁ar": 404,
  "ace": 405,
  "iles": 406,
  "les": 407,
  "▁question": 408,
  "▁sh": 409,
  "di": 410,
  "ink": 411,
  "▁Python": 412,
  "ect": 413,
  "▁{": 414,
  "న్": 415,
  "▁Now": 416,
  "▁15": 417,
  "▁hours": 418,
  "ond": 419,
  "ik": 420,
  "iven": 421,
  "▁ch": 422,
  "▁first": 423,
  "ail": 424,
  "▁need": 425,
  "ft": 426,
  "▁se": 427,
  "▁one": 428,
  "▁U": 429,
  "etw": 430,
  "▁function": 431,
  "ies": 432,
  "bs": 433,
  "_0": 434,
  "rig": 435,
  "▁ఉ": 436,
  "▁ret": 437,
  "▁year": 438,
  "urn": 439,
  "one": 440,
  "ory": 441,
  "get": 442,
  "ని": 443,
  "16": 444,
  "▁log": 445,
  "ince": 446,
  "20": 447,
  "▁par": 448,
  "os": 449,
  "▁point": 450,
  "▁form": 451,
  "▁not": 452,
  "ాయ": 453,
  "erv": 454,
  "▁J": 455,
  "ther": 456,
  "ative": 457,
  "▁dist": 458,
  "▁1.": 459,
  "▁so": 460,
  "log": 461,
  "its": 462,
  "tem": 463,
  "ry": 464,
  "▁me": 465,
  "eng": 466,
  "$.": 467,
  "cc": 468,
  "▁equation": 469,
  "▁produ": 470,
  "▁$\\": 471,
  "్త": 472,
  "▁group": 473,
  "డి": 474,
  "▁app": 475,
  "ere": 476,
  "abil": 477,
  "ax": 478,
  "choice": 479,
  "oun": 480,
  "▁min": 481,
  "▁given": 482,
  "▁ad": 483,
  "ast": 484,
  "ust": 485,
  "ode": 486,
  "):": 487,
  "-1": 488,
  "cl": 489,
  "able": 490,
  "▁resp": 491,
  "=\"": 492,
  "▁train": 493,
  "▁than": 494,
  "xt": 495,
  "▁2.": 496,
  "ks": 497,
  "ff": 498,
  "▁exp": 499,
  "▁work": 500,
  "▁How": 501,
  "▁import": 502,
  "▁rel": 503,
  "▁calculate": 504,
  "▁there": 505,
  "▁met": 506,
  "ary": 507,
  "ms": 508,
  "15": 509,
  "25": 510,
  "్రా": 511,
  "▁dat": 512,
  "ability": 513,
  "ign": 514,
  "▁19": 515,
  "▁math": 516,
  "ues": 517,
  "▁do": 518,
  "▁class": 519,
  "▁So": 520,
  "▁value": 521,
  "ength": 522,
  "▁dif": 523,
  "0)": 524,
  "▁use": 525,
  "14": 526,
  "▁return": 527,
  "ult": 528,
  "val": 529,
  "▁tak": 530,
  "op": 531,
  "▁Wh": 532,
  "▁మ": 533,
  "▁about": 534,
  "▁వి": 535,
  "▁comple": 536,
  "▁up": 537,
  "▁all": 538,
  "tial": 539,
  "sq": 540,
  "ug": 541,
  "▁cont": 542,
  "▁1:": 543,
  "▁students": 544,
  "▁.": 545,
  "(2": 546,
  "▁how": 547,
  "ంలో": 548,
  "ould": 549,
  "▁km": 550,
  "ta": 551,
  "ide": 552,
  "▁tr": 553,
  "▁2:": 554,
  "న్న": 555,
  "een": 556,
  "teg": 557,
  "ans": 558,
  "fore": 559,
  "▁30": 560,
  "▁18": 561,
  "fter": 562,
  "▁mat": 563,
  "berg": 564,
  "▁no": 565,
  "ంది": 566,
  "etween": 567,
  "ize": 568,
  "▁where": 569,
  "uten": 570,
  "▁speed": 571,
  "utenberg": 572,
  "▁gutenberg": 573,
  "ome": 574,
  "/3": 575,
  "▁differ": 576,
  "▁res": 577,
  "18": 578,
  "1,": 579,
  "▁16": 580,
  "ments": 581,
  "▁sc": 582,
  "13": 583,
  "▁K": 584,
  "▁between": 585,
  "క్": 586,
  "▁prob": 587,
  "$,": 588,
  "▁their": 589,
  "▁bu": 590,
  "av": 591,
  "▁j": 592,
  "ong": 593,
  "▁ver": 594,
  "▁other": 595,
  "▁years": 596,
  "eter": 597,
  "19": 598,
  "▁then": 599,
  "\")": 600,
  "▁fol": 601,
  "▁25": 602,
  "▁&": 603,
  "▁What": 604,
  "ll": 605,
  ".5": 606,
  "hase": 607,
  "rt": 608,
  "▁50": 609,
  "▁using": 610,
  "▁X": 611,
  "▁There": 612,
  "▁order": 613,
  "్రామ": 614,
  "enc": 615,
  "ాల": 616,
  "▁new": 617,
  "▁sum": 618,
  "▁both": 619,
  "ari": 620,
  "form": 621,
  "▁భ": 622,
  "ey": 623,
  "▁get": 624,
  "▁Since": 625,
  "▁We": 626,
  "▁గ్రామ": 627,
  "▁str": 628,
  "▁V": 629,
  ");": 630,
  "▁integ": 631,
  "ally": 632,
  "2,": 633,
  "ార్": 634,
  "40": 635,
  "▁cur": 636,
  "atus": 637,
  "▁set": 638,
  "▁rem": 639,
  "ning": 640,
  "Phase": 641,
  "right": 642,
  "ord": 643,
  "▁length": 644,
  "▁probability": 645,
  "(\"": 646,
  "▁his": 647,
  "▁out": 648,
  "▁,": 649,
  "▁wik": 650,
  "ial": 651,
  "▁op": 652,
  "'.": 653,
  "ంగ": 654,
  "▁60": 655,
  "sh": 656,
  "▁ele": 657,
  "▁rate": 658,
  "cal": 659,
  "రు": 660,
  "par": 661,
  "▁div": 662,
  "2.": 663,
  "ors": 664,
  "▁mod": 665,
  "ss": 666,
  "1.": 667,
  "▁3.": 668,
  "▁solution": 669,
  "verage": 670,
  "▁cost": 671,
  "ject": 672,
  "మి": 673,
  "itig": 674,
  "▁Sp": 675,
  "▁హ": 676,
  "▁what": 677,
  "ric": 678,
  "▁భూ": 679,
  "▁అ": 680,
  "▁values": 681,
  "▁kde": 682,
  "ild": 683,
  "▁pa": 684,
  "2)": 685,
  "▁let": 686,
  "▁requ": 687,
  "po": 688,
  "ective": 689,
  "▁she": 690,
  "▁``": 691,
  "abase": 692,
  "▁follow": 693,
  "und": 694,
  "ound": 695,
  "ుం": 696,
  "ange": 697,
  "▁am": 698,
  "▁40": 699,
  "so": 700,
  "tions": 701,
  "▁its": 702,
  "60": 703,
  "▁ద": 704,
  "▁```": 705,
  "వస": 706,
  "cent": 707,
  "..": 708,
  "▁Q": 709,
  "▁?": 710,
  "▁were": 711,
  "^3": 712,
  "▁gra": 713,
  "▁more": 714,
  "▁they": 715,
  "pe": 716,
  "▁pe": 717,
  "▁14": 718,
  "ater": 719,
  "irc": 720,
  "igh": 721,
  "ok": 722,
  "▁inc": 723,
  "▁same": 724,
  "▁product": 725,
  "mp": 726,
  "▁1**:": 727,
  "▁2**:": 728,
  "▁1/": 729,
  "17": 730,
  "heck": 731,
  "▁tri": 732,
  "ub": 733,
  "vel": 734,
  "ates": 735,
  "ion": 736,
  "nown": 737,
  "▁after": 738,
  "▁three": 739,
  "▁int": 740,
  "angle": 741,
  "▁fl": 742,
  "▁ర": 743,
  "▁బ": 744,
  "▁3:": 745,
  "ty": 746,
  "▁200": 747,
  "▁కి": 748,
  "met": 749,
  "bserv": 750,
  "30": 751,
  "▁plan": 752,
  "ection": 753,
  "ula": 754,
  "ia": 755,
  "ery": 756,
  "▁these": 757,
  "time": 758,
  "▁average": 759,
  "▁ev": 760,
  "▁నుం": 761,
  "80": 762,
  "▁te": 763,
  "_2": 764,
  "▁24": 765,
  "ost": 766,
  "▁distance": 767,
  "▁నుండి": 768,
  "the": 769,
  "3,": 770,
  "▁tim": 771,
  "tool": 772,
  "▁Con": 773,
  "▁back": 774,
  "lease": 775,
  "ive": 776,
  "▁inter": 777,
  "▁This": 778,
  "▁area": 779,
  "^{": 780,
  "sqrt": 781,
  "▁numbers": 782,
  "▁formula": 783,
  "▁into": 784,
  "▁inst": 785,
  "▁second": 786,
  "ెక్": 787,
  "▁i": 788,
  "▁files": 789,
  "_{": 790,
  "call": 791,
  "▁initi": 792,
  "11": 793,
  "ts": 794,
  "bservation": 795,
  "3_": 796,
  "rix": 797,
  "blem": 798,
  "▁run": 799,
  "▁sub": 800,
  "ati": 801,
  "▁const": 802,
  "▁Please": 803,
  "▁Com": 804,
  "▁database": 805,
  "▁who": 806,
  "▁sys": 807,
  "▁days": 808,
  "cture": 809,
  "ాయి": 810,
  "otal": 811,
  "ెక్ట": 812,
  "▁vari": 813,
  "plic": 814,
  "100": 815,
  "ating": 816,
  "45": 817,
  "ాలు": 818,
  "',": 819,
  "ask": 820,
  "▁max": 821,
  "Action": 822,
  "▁result": 823,
  "▁system": 824,
  "▁Rs": 825,
  "og": 826,
  "ెక్టార్": 827,
  "▁Pro": 828,
  "Observation": 829,
  "75": 830,
  "hr": 831,
  "con": 832,
  "aining": 833,
  "▁హెక్టార్": 834,
  "▁హెక్టార్లు": 835,
  "1)": 836,
  "ical": 837,
  "▁squ": 838,
  "imum": 839,
  "▁ఉన్న": 840,
  "hes": 841,
  "rib": 842,
  "▁36": 843,
  "▁only": 844,
  "emory": 845,
  "▁fact": 846,
  "ov": 847,
  "xity": 848,
  "ens": 849,
  "▁dec": 850,
  "math": 851,
  "ouse": 852,
  "▁Ex": 853,
  "isk": 854,
  "▁<": 855,
  "▁over": 856,
  "▁వ్య": 857,
  "--------": 858,
  "raw": 859,
  "ress": 860,
  "▁భూమి": 861,
  "▁size": 862,
  "known": 863,
  "row": 864,
  "▁think": 865,
  "ER": 866,
  "##": 867,
  "▁tra": 868,
  "మీ": 869,
  "▁Y": 870,
  "▁13": 871,
  "▁must": 872,
  "ుత": 873,
  "▁###": 874,
  "▁appro": 875,
  "ous": 876,
  "min": 877,
  "train": 878,
  "▁line": 879,
  "▁$$": 880,
  "▁key": 881,
  "▁pos": 882,
  "ards": 883,
  "▁unknown": 884,
  "ual": 885,
  "▁Speed": 886,
  "▁cm": 887,
  "ూర": 888,
  "▁(2": 889,
  "(-": 890,
  "▁Find": 891,
  "▁1,": 892,
  "inking": 893,
  "▁3**:": 894,
  "▁mar": 895,
  "▁possi": 896,
  "pi": 897,
  "status": 898,
  "utes": 899,
  "▁price": 900,
  "5,": 901,
  "▁1)": 902,
  "_1": 903,
  "▁వ్యవస": 904,
  "▁posi": 905,
  "▁el": 906,
  "ian": 907,
  "ople": 908,
  "pro": 909,
  "onse": 910,
  "▁times": 911,
  "▁sim": 912,
  "eg": 913,
  "▁Thinking": 914,
  "put": 915,
  "ener": 916,
  "టి": 917,
  "▁sm": 918,
  "udit": 919,
  "▁them": 920,
  "sc": 921,
  "led": 922,
  "\")`": 923,
  "▁De": 924,
  "▁add": 925,
  "▁Time": 926,
  "loy": 927,
  "tif": 928,
  "▁Therefore": 929,
  "ext": 930,
  "ffer": 931,
  "hed": 932,
  "▁case": 933,
  "కి": 934,
  "▁points": 935,
  "▁her": 936,
  "▁cho": 937,
  "ator": 938,
  "8.": 939,
  "▁sel": 940,
  "3)": 941,
  "sin": 942,
  "▁For": 943,
  "▁prof": 944,
  "▁ind": 945,
  "▁day": 946,
  "▁జ": 947,
  "▁initial": 948,
  "▁row": 949,
  "▁define": 950,
  "over": 951,
  "abel": 952,
  "ror": 953,
  "ral": 954,
  "99": 955,
  "▁equal": 956,
  "▁80": 957,
  "4,": 958,
  "▁following": 959,
  "▁≈": 960,
  "inal": 961,
  "}$": 962,
  "▁4.": 963,
  "▁17": 964,
  "▁cor": 965,
  "▁Re": 966,
  "32": 967,
  "▁:": 968,
  "▁when": 969,
  "▁count": 970,
  "▁arch": 971,
  "rit": 972,
  "▁చ": 973,
  "ason": 974,
  "5)": 975,
  "్ల": 976,
  "▁col": 977,
  "▁×": 978,
  "▁any": 979,
  "▁draw": 980,
  "▁conn": 981,
  "▁2,": 982,
  "onds": 983,
  "▁St": 984,
  "ero": 985,
  "▁ఉన్నాయి": 986,
  "కర": 987,
  "answer": 988,
  "olve": 989,
  "▁possible": 990,
  "cos": 991,
  "▁such": 992,
  "▁pre": 993,
  "▁comm": 994,
  "art": 995,
  "ected": 996,
  "▁people": 997,
  "()": 998,
  "sum": 999,
  "ccess": 1000,
  "ie": 1001,
  "▁square": 1002,
  "▁ter": 1003,
  "com": 1004,
  "ulation": 1005,
  "partial": 1006,
  "▁house": 1007,
  "ek": 1008,
  "sider": 1009,
  "clud": 1010,
  "{\"": 1011,
  "▁dire": 1012,
  "▁you": 1013,
  "▁left": 1014,
  "▁test": 1015,
  "ular": 1016,
  "▁require": 1017,
  "▁instance": 1018,
  "▁dis": 1019,
  "itext": 1020,
  "shard": 1021,
  "103_": 1022,
  "ency": 1023,
  "▁wikitext": 1024,
  "vi": 1025,
  "▁percent": 1026,
  "}`": 1027,
  "▁deg": 1028,
  "▁vol": 1029,
  "▁trains": 1030,
  "▁గ్రామం": 1031,
  "▁bec": 1032,
  "▁`{\"": 1033,
  "cd": 1034,
  "reate": 1035,
  "36": 1036,
  "back": 1037,
  "▁%": 1038,
  "ru": 1039,
  "ient": 1040,
  "▁had": 1041,
  "▁minutes": 1042,
  "ake": 1043,
  "text": 1044,
  "{1": 1045,
  "▁also": 1046,
  "▁tow": 1047,
  "lic": 1048,
  "▁old": 1049,
  "▁ways": 1050,
  "use": 1051,
  "▁miles": 1052,
  "▁but": 1053,
  "ze": 1054,
  "▁play": 1055,
  "▁circ": 1056,
  "24": 1057,
  "ithm": 1058,
  "itigations": 1059,
  "▁0.0": 1060,
  "db": 1061,
  "yn": 1062,
  "ately": 1063,
  "▁problem": 1064,
  "▁ఆ": 1065,
  "rent": 1066,
  "▁under": 1067,
  "ower": 1068,
  "▁would": 1069,
  "NS": 1070,
  "uch": 1071,
  "▁mon": 1072,
  "▁equations": 1073,
  "▁వ్యవసాయ": 1074,
  "dition": 1075,
  "▁None": 1076,
  "▁age": 1077,
  "▁right": 1078,
  "alf": 1079,
  "hod": 1080,
  "ob": 1081,
  "ample": 1082,
  "ables": 1083,
  "▁des": 1084,
  "ased": 1085,
  "▁Par": 1086,
  "▁దూర": 1087,
  "bo": 1088,
  "ross": 1089,
  "▁id": 1090,
  "by": 1091,
  "▁దూరంలో": 1092,
  "▁5.": 1093,
  "sec": 1094,
  "ick": 1095,
  "4)": 1096,
  "▁side": 1097,
  "▁go": 1098,
  "tra": 1099,
  "ffic": 1100,
  "▁gener": 1101,
  "▁ang": 1102,
  "hen": 1103,
  "ware": 1104,
  "▁small": 1105,
  "▁oper": 1106,
  "▁ve": 1107,
  "ose": 1108,
  "->": 1109,
  "xim": 1110,
  "ever": 1111,
  "▁ag": 1112,
  "tio": 1113,
  "▁while": 1114,
  "error": 1115,
  "▁check": 1116,
  "pt": 1117,
  "▁pop": 1118,
  "▁11": 1119,
  "2}": 1120,
  "{1}{": 1121,
  "▁clo": 1122,
  "▁pass": 1123,
  "▁does": 1124,
  "▁Pl": 1125,
  "▁true": 1126,
  "path": 1127,
  "33": 1128,
  "▁car": 1129,
  "▁seconds": 1130,
  "త్త": 1131,
  "pres": 1132,
  "roug": 1133,
  "ential": 1134,
  "_0000": 1135,
  "ases": 1136,
  "ma": 1137,
  "gor": 1138,
  "▁end": 1139,
  "▁archite": 1140,
  "▁down": 1141,
  "▁non": 1142,
  "▁lar": 1143,
  "▁read": 1144,
  "ish": 1145,
  "io": 1146,
  "▁zero": 1147,
  "mat": 1148,
  "ces": 1149,
  "▁take": 1150,
  "▁amount": 1151,
  "▁units": 1152,
  "(0,": 1153,
  ")$": 1154,
  "29": 1155,
  "ied": 1156,
  "▁flag": 1157,
  "కు": 1158,
  "70": 1159,
  "ystem": 1160,
  "dt": 1161,
  "78": 1162,
  "ank": 1163,
  "▁writ": 1164,
  "▁dig": 1165,
  "▁Task": 1166,
  "▁fe": 1167,
  "cted": 1168,
  "count": 1169,
  "ify": 1170,
  "▁approxim": 1171,
  "ords": 1172,
  "▁list": 1173,
  "bb": 1174,
  "{\\": 1175,
  "▁En": 1176,
  "ls": 1177,
  "ote": 1178,
  "▁half": 1179,
  "▁DNS": 1180,
  "35": 1181,
  "ne": 1182,
  "▁code": 1183,
  "▁ac": 1184,
  "▁Z": 1185,
  "▁least": 1186,
  "ves": 1187,
  "▁45": 1188,
  "')": 1189,
  "tical": 1190,
  "▁He": 1191,
  "▁four": 1192,
  "▁ఉంది": 1193,
  "▁height": 1194,
  "▁current": 1195,
  "ోగ": 1196,
  "3.": 1197,
  "28": 1198,
  "▁reg": 1199,
  "▁exce": 1200,
  "ides": 1201,
  "num": 1202,
  "▁Then": 1203,
  "ource": 1204,
  "plement": 1205,
  "▁positive": 1206,
  "uffer": 1207,
  "▁stand": 1208,
  "code": 1209,
  "ings": 1210,
  "oug": 1211,
  "▁algor": 1212,
  "26": 1213,
  "day": 1214,
  "▁file": 1215,
  "▁optim": 1216,
  "▁deter": 1217,
  "రా": 1218,
  "orph": 1219,
  "▁3,": 1220,
  "cdot": 1221,
  "▁cent": 1222,
  "▁iter": 1223,
  "app": 1224,
  "▁relative": 1225,
  "▁mean": 1226,
  "▁complete": 1227,
  "uring": 1228,
  "▁much": 1229,
  "old": 1230,
  "ons": 1231,
  "rough": 1232,
  "▁At": 1233,
  "su": 1234,
  "ix": 1235,
  "▁backup": 1236,
  "▁\\\\": 1237,
  "ants": 1238,
  "▁should": 1239,
  "▁}": 1240,
  "iel": 1241,
  "tain": 1242,
  "ature": 1243,
  "alys": 1244,
  "44": 1245,
  "▁2)": 1246,
  "▁graph": 1247,
  "ird": 1248,
  "ict": 1249,
  "round": 1250,
  "▁long": 1251,
  "90": 1252,
  "▁less": 1253,
  "('": 1254,
  "tit": 1255,
  "▁ratio": 1256,
  "ecution": 1257,
  "omorph": 1258,
  "alysis": 1259,
  "▁match": 1260,
  "▁Call": 1261,
  "istance": 1262,
  "],": 1263,
  "▁label": 1264,
  "▁radi": 1265,
  "▁Calcul": 1266,
  "QL": 1267,
  "imit": 1268,
  "-1)": 1269,
  "▁Ch": 1270,
  "ib": 1271,
  "▁algorithm": 1272,
  "▁Here": 1273,
  "2:": 1274,
  "bin": 1275,
  "date": 1276,
  "logs": 1277,
  "్తు": 1278,
  "▁Qu": 1279,
  "▁Comple": 1280,
  "▁reason": 1281,
  "sy": 1282,
  "ume": 1283,
  "▁remaining": 1284,
  "▁ser": 1285,
  "▁different": 1286,
  "▁ite": 1287,
  "76": 1288,
  "▁incre": 1289,
  "▁sin": 1290,
  "space": 1291,
  "▁repres": 1292,
  "▁-1": 1293,
  "▁stru": 1294,
  "ets": 1295,
  "▁method": 1296,
  "PI": 1297,
  "edia": 1298,
  "▁rec": 1299,
  "▁profit": 1300,
  "▁Complexity": 1301,
  "));": 1302,
  "▁population": 1303,
  "very": 1304,
  "▁week": 1305,
  "▁->": 1306,
  ",000": 1307,
  "▁before": 1308,
  "left": 1309,
  "▁dep": 1310,
  "▁divis": 1311,
  "sql": 1312,
  "▁cy": 1313,
  "▁ల": 1314,
  "▁integer": 1315,
  "▁sq": 1316,
  "▁ear": 1317,
  "reated": 1318,
  "▁Total": 1319,
  "▁prime": 1320,
  "any": 1321,
  "sed": 1322,
  "mine": 1323,
  "ray": 1324,
  "▁month": 1325,
  "arget": 1326,
  "▁48": 1327,
  "▁elements": 1328,
  "▁sign": 1329,
  "ific": 1330,
  "ines": 1331,
  "▁port": 1332,
  "ep": 1333,
  "▁sur": 1334,
  "(\\": 1335,
  "sing": 1336,
  "▁pol": 1337,
  "▁range": 1338,
  "olog": 1339,
  "ర్": 1340,
  "▁notif": 1341,
  "▁filesystem": 1342,
  "▁maximum": 1343,
  "ension": 1344,
  "▁angle": 1345,
  "48": 1346,
  "^2)": 1347,
  "aus": 1348,
  "ove": 1349,
  "▁0,": 1350,
  "4.": 1351,
  "▁$2": 1352,
  "theta": 1353,
  "▁త": 1354,
  "group": 1355,
  "read": 1356,
  "ause": 1357,
  "als": 1358,
  "(3": 1359,
  "▁>": 1360,
  "▁inters": 1361,
  "head": 1362,
  "ipedia": 1363,
  "▁However": 1364,
  "▁గ్రామంలో": 1365,
  "▁cos": 1366,
  "▁wikipedia": 1367,
  "▁der": 1368,
  "ages": 1369,
  "gether": 1370,
  "now": 1371,
  "sive": 1372,
  "point": 1373,
  "66": 1374,
  "andom": 1375,
  "ars": 1376,
  "▁Calculate": 1377,
  "RO": 1378,
  "ock": 1379,
  "name": 1380,
  "yp": 1381,
  "▁standard": 1382,
  "▁mid": 1383,
  "▁sa": 1384,
  "olution": 1385,
  "ale": 1386,
  "▁integers": 1387,
  "▁response": 1388,
  "ring": 1389,
  "▁difference": 1390,
  "plica": 1391,
  "other": 1392,
  "/2)": 1393,
  "write": 1394,
  "▁weight": 1395,
  "lf": 1396,
  "ervice": 1397,
  "▁matching": 1398,
  "ged": 1399,
  "etwork": 1400,
  "▁did": 1401,
  "▁respective": 1402,
  "ren": 1403,
  "ులు": 1404,
  "▁numer": 1405,
  "▁gre": 1406,
  "▁data": 1407,
  "96": 1408,
  "matrix": 1409,
  "▁Parse": 1410,
  "▁deriv": 1411,
  "ci": 1412,
  "▁architecture": 1413,
  "fine": 1414,
  "of": 1415,
  "\"\"": 1416,
  "▁build": 1417,
  "pr": 1418,
  "▁1.0": 1419,
  "▁Use": 1420,
  "▁di": 1421,
  "▁sequ": 1422,
  "metry": 1423,
  "▁trans": 1424,
  "▁high": 1425,
  "lock": 1426,
  "ops": 1427,
  "ppa": 1428,
  "▁35": 1429,
  "▁distrib": 1430,
  "atta": 1431,
  "▁target": 1432,
  "buffer": 1433,
  "attappa": 1434,
  "line": 1435,
  "95": 1436,
  "▁π": 1437,
  "▁towards": 1438,
  "▁network": 1439,
  "▁meters": 1440,
  "ins": 1441,
  "*:": 1442,
  "▁(-": 1443,
  "▁pay": 1444,
  "▁matrix": 1445,
  "▁First": 1446,
  "▁mph": 1447,
  "▁triangle": 1448,
  "▁factor": 1449,
  "▁500": 1450,
  "Risk": 1451,
  "size": 1452,
  "్రం": 1453,
  "itigation": 1454,
  "▁mitigations": 1455,
  "Mitigation": 1456,
  "▁28": 1457,
  "▁paint": 1458,
  "tern": 1459,
  "▁score": 1460,
  "▁head": 1461,
  "▁=>": 1462,
  "▁2.0": 1463,
  "▁orig": 1464,
  "mb": 1465,
  "rees": 1466,
  "imension": 1467,
  "ctor": 1468,
  "▁ne": 1469,
  "ise": 1470,
  "ద్య": 1471,
  "▁120": 1472,
  "ety": 1473,
  "ike": 1474,
  "▁dx": 1475,
  "▁workspace": 1476,
  "▁source": 1477,
  "98": 1478,
  "vent": 1479,
  "air": 1480,
  "▁Al": 1481,
  "rb": 1482,
  "ield": 1483,
  "ంట": 1484,
  "▁(3": 1485,
  "lete": 1486,
  "earch": 1487,
  "▁tw": 1488,
  "▁student": 1489,
  "oks": 1490,
  "(0)": 1491,
  "▁writing": 1492,
  "[\"": 1493,
  "▁lead": 1494,
  "▁audit": 1495,
  "▁pair": 1496,
  "essage": 1497,
  "ారు": 1498,
  "▁includ": 1499,
  "▁Rel": 1500,
  "▁pers": 1501,
  "▁requirements": 1502,
  "not": 1503,
  "hn": 1504,
  "▁event": 1505,
  "atement": 1506,
  "▁meet": 1507,
  "▁char": 1508,
  "▁some": 1509,
  "▁every": 1510,
  "▁element": 1511,
  "▁27": 1512,
  "(\"$": 1513,
  "▁den": 1514,
  "ided": 1515,
  "mathbb": 1516,
  "esp": 1517,
  "fact": 1518,
  "ption": 1519,
  "osi": 1520,
  "/5": 1521,
  "▁పో": 1522,
  "38": 1523,
  "ced": 1524,
  "46": 1525,
  "▁np": 1526,
  "యోగ": 1527,
  "▁approximately": 1528,
  "we": 1529,
  "▁API": 1530,
  "ాన": 1531,
  "local": 1532,
  "▁It": 1533,
  "▁third": 1534,
  "xy": 1535,
  "orted": 1536,
  "lemetry": 1537,
  "jective": 1538,
  "▁running": 1539,
  "▁reach": 1540,
  "▁1000": 1541,
  "▁respond": 1542,
  "▁water": 1543,
  "▁because": 1544,
  "27": 1545,
  "▁√": 1546,
  "▁path": 1547,
  "▁fail": 1548,
  "ither": 1549,
  "kattappa": 1550,
  "^(": 1551,
  "ven": 1552,
  "▁ని": 1553,
  "▁సర": 1554,
  "▁together": 1555,
  "ade": 1556,
  "▁index": 1557,
  "▁cap": 1558,
  "MB": 1559,
  "_5": 1560,
  "▁power": 1561,
  "▁through": 1562,
  "▁direction": 1563,
  "ump": 1564,
  "ంగ్": 1565,
  "▁విద్య": 1566,
  "ities": 1567,
  "▁intersection": 1568,
  "▁Jo": 1569,
  "▁self": 1570,
  "ember": 1571,
  "డు": 1572,
  "ాని": 1573,
  "▁nums": 1574,
  "}{\\": 1575,
  "ends": 1576,
  "▁ప్ర": 1577,
  "▁radius": 1578,
  "}.": 1579,
  "▁విని": 1580,
  "SC": 1581,
  "▁0.5": 1582,
  "▁fra": 1583,
  "▁random": 1584,
  "▁Analysis": 1585,
  "AL": 1586,
  "▁groups": 1587,
  "▁consider": 1588,
  "▁Define": 1589,
  "2.16": 1590,
  "▁వినియోగ": 1591,
  "▁sides": 1592,
  "▁90": 1593,
  "service": 1594,
  "▁1/2": 1595,
  "▁exact": 1596,
  "▁base": 1597,
  "▁used": 1598,
  "▁exceed": 1599,
  "$\",": 1600,
  "self": 1601,
  "▁ob": 1602,
  "▁taken": 1603,
  "eys": 1604,
  "2.168.": 1605,
  "▁status": 1606,
  "▁సరఫ": 1607,
  "ather": 1608,
  "▁constant": 1609,
  "tes": 1610,
  "▁Rate": 1611,
  "alls": 1612,
  "AT": 1613,
  "oney": 1614,
  ")^2": 1615,
  "▁space": 1616,
  "▁విద్యుత": 1617,
  "్వ": 1618,
  "_3": 1619,
  "urity": 1620,
  "▁make": 1621,
  "▁6.": 1622,
  "}\\": 1623,
  "face": 1624,
  "▁Un": 1625,
  "▁కే": 1626,
  "▁acc": 1627,
  "ash": 1628,
  "▁compute": 1629,
  "effic": 1630,
  "▁combin": 1631,
  "▁rece": 1632,
  "▁26": 1633,
  "త్తి": 1634,
  "▁cover": 1635,
  "])": 1636,
  "23": 1637,
  "ten": 1638,
  "▁emp": 1639,
  "▁circle": 1640,
  "వి": 1641,
  "▁ph": 1642,
  "ting": 1643,
  "inder": 1644,
  "85": 1645,
  "▁next": 1646,
  "mod": 1647,
  "dd": 1648,
  "▁sup": 1649,
  "▁company": 1650,
  "▁Relative": 1651,
  "▁means": 1652,
  "▁mov": 1653,
  "'(": 1654,
  "ones": 1655,
  "▁larg": 1656,
  "▁ed": 1657,
  "▁corre": 1658,
  "43": 1659,
  "▁bl": 1660,
  "iod": 1661,
  "▁contain": 1662,
  "ges": 1663,
  "▁kmph": 1664,
  "▁కేంద": 1665,
  "▁during": 1666,
  "(1,": 1667,
  "total": 1668,
  "▁else": 1669,
  "▁structure": 1670,
  "SE": 1671,
  "▁variables": 1672,
  "▁bound": 1673,
  "▁twice": 1674,
  "ply": 1675,
  "▁conf": 1676,
  "ంచ": 1677,
  "ynam": 1678,
  "▁నీ": 1679,
  "▁memory": 1680,
  "2.168.1.": 1681,
  "▁ఇ": 1682,
  "ంగా": 1683,
  "omorphic": 1684,
  "oll": 1685,
  "▁start": 1686,
  "▁Thus": 1687,
  "que": 1688,
  "red": 1689,
  "▁సౌ": 1690,
  "▁determine": 1691,
  "requ": 1692,
  "▁box": 1693,
  "osite": 1694,
  "word": 1695,
  "▁fin": 1696,
  "▁pi": 1697,
  "▁since": 1698,
  "hip": 1699,
  "▁Using": 1700,
  "▁perform": 1701,
  "chool": 1702,
  "స్తు": 1703,
  "▁real": 1704,
  "/4": 1705,
  "▁curve": 1706,
  "ాగ": 1707,
  "▁Ar": 1708,
  "gine": 1709,
  "▁Query": 1710,
  "▁respectively": 1711,
  "ల్ల": 1712,
  "కర్య": 1713,
  "▁సౌకర్య": 1714,
  "ditions": 1715,
  "▁sele": 1716,
  "loc": 1717,
  "ps": 1718,
  "ots": 1719,
  "▁)": 1720,
  "▁Two": 1721,
  "ns": 1722,
  "▁coeffic": 1723,
  "్ప": 1724,
  "ved": 1725,
  "load": 1726,
  "▁aut": 1727,
  "▁4,": 1728,
  "▁know": 1729,
  "ecute": 1730,
  "ats": 1731,
  "gs": 1732,
  "▁She": 1733,
  "asy": 1734,
  "▁takes": 1735,
  "rec": 1736,
  "యం": 1737,
  "▁closed": 1738,
  "▁optimal": 1739,
  "ayer": 1740,
  "bstit": 1741,
  "cular": 1742,
  "7,": 1743,
  "▁22": 1744,
  "ardware": 1745,
  "▁నీటి": 1746,
  "లి": 1747,
  "▁gir": 1748,
  "▁వా": 1749,
  "ures": 1750,
  "▁feet": 1751,
  "FF": 1752,
  "▁logic": 1753,
  "ination": 1754,
  "ression": 1755,
  "success": 1756,
  "(1)": 1757,
  "▁3)": 1758,
  "LE": 1759,
  "▁complexity": 1760,
  "▁32": 1761,
  "plication": 1762,
  "▁సరఫరా": 1763,
  "▁operations": 1764,
  "▁–": 1765,
  "ule": 1766,
  "egin": 1767,
  "▁project": 1768,
  "ving": 1769,
  "ormal": 1770,
  "▁been": 1771,
  "▁degrees": 1772,
  "dic": 1773,
  "rating": 1774,
  "▁fo": 1775,
  "ference": 1776,
  "begin": 1777,
  "ible": 1778,
  "▁travel": 1779,
  "89": 1780,
  "▁కింది": 1781,
  "mbol": 1782,
  "tices": 1783,
  "▁cross": 1784,
  "▁implement": 1785,
  "metric": 1786,
  "▁complex": 1787,
  "▁terms": 1788,
  "((": 1789,
  "▁table": 1790,
  "▁period": 1791,
  "▁(5": 1792,
  "47": 1793,
  "for": 1794,
  "eline": 1795,
  "$$": 1796,
  "▁uint": 1797,
  "atency": 1798,
  "step": 1799,
  "▁boys": 1800,
  "+1": 1801,
  "▁After": 1802,
  "uild": 1803,
  "atis": 1804,
  "akes": 1805,
  "49": 1806,
  "▁address": 1807,
  "light": 1808,
  "----------------": 1809,
  "▁300": 1810,
  "ology": 1811,
  "▁Sy": 1812,
  "▁off": 1813,
  "ాం": 1814,
  "cess": 1815,
  "cle": 1816,
  "▁last": 1817,
  "ined": 1818,
  "▁inv": 1819,
  "▁update": 1820,
  "▁70": 1821,
  "▁saf": 1822,
  "▁]": 1823,
  "▁Requ": 1824,
  "▁conditions": 1825,
  "str": 1826,
  "▁em": 1827,
  "▁spec": 1828,
  "6,": 1829,
  "▁వార": 1830,
  "రి": 1831,
  "tract": 1832,
  "omial": 1833,
  "ives": 1834,
  "▁map": 1835,
  "▁cle": 1836,
  "4:": 1837,
  "]:": 1838,
  "python": 1839,
  "▁2*": 1840,
  "ట్": 1841,
  "eters": 1842,
  "▁digit": 1843,
  "htt": 1844,
  "▁cri": 1845,
  "▁sal": 1846,
  "▁money": 1847,
  "max": 1848,
  "rue": 1849,
  "ames": 1850,
  "▁person": 1851,
  "▁5,": 1852,
  "బడి": 1853,
  "▁degree": 1854,
  "▁tem": 1855,
  "},": 1856,
  "▁_": 1857,
  "▁choose": 1858,
  "▁original": 1859,
  "▁output": 1860,
  "▁books": 1861,
  "▁minimum": 1862,
  "▁(4": 1863,
  "alse": 1864,
  "box": 1865,
  "▁inf": 1866,
  "▁keyword": 1867,
  "replica": 1868,
  "65": 1869,
  "▁75": 1870,
  "▁kg": 1871,
  "▁cer": 1872,
  "ానికి": 1873,
  "▁pres": 1874,
  "▁prop": 1875,
  "▁పై": 1876,
  "ling": 1877,
  "here": 1878,
  "▁live": 1879,
  "కె": 1880,
  "తర": 1881,
  "▁relations": 1882,
  "▁5)": 1883,
  "anning": 1884,
  "▁design": 1885,
  "**2": 1886,
  "/100": 1887,
  "▁vertices": 1888,
  "77": 1889,
  "▁150": 1890,
  "▁now": 1891,
  "▁red": 1892,
  "▁numerical": 1893,
  "▁5-": 1894,
  "ways": 1895,
  "▁local": 1896,
  "pose": 1897,
  "▁prov": 1898,
  "▁sold": 1899,
  "▁arr": 1900,
  "▁volume": 1901,
  "బడిన": 1902,
  "})": 1903,
  "synthetic": 1904,
  "▁Run": 1905,
  "▁dt": 1906,
  "▁21": 1907,
  "▁On": 1908,
  "ద్": 1909,
  "ified": 1910,
  "▁Tool": 1911,
  "▁సి": 1912,
  "▁engine": 1913,
  "▁పా": 1914,
  "▁even": 1915,
  "▁field": 1916,
  "▁found": 1917,
  "mid": 1918,
  "oc": 1919,
  "8,": 1920,
  "▁caus": 1921,
  "▁query": 1922,
  "22": 1923,
  "ational": 1924,
  "▁want": 1925,
  "▁common": 1926,
  "▁unit": 1927,
  "▁param": 1928,
  "esponse": 1929,
  "orem": 1930,
  "▁opp": 1931,
  "▁surface": 1932,
  "enti": 1933,
  "▁dom": 1934,
  "idence": 1935,
  "▁dimension": 1936,
  "▁partic": 1937,
  "ists": 1938,
  "మా": 1939,
  "ier": 1940,
  "▁occ": 1941,
  "▁team": 1942,
  "esign": 1943,
  "▁addition": 1944,
  "టు": 1945,
  "IT": 1946,
  "▁either": 1947,
  "▁పైబడిన": 1948,
  "man": 1949,
  "Response": 1950,
  "mon": 1951,
  "▁uni": 1952,
  "ering": 1953,
  "▁dynam": 1954,
  "backup": 1955,
  "▁Build": 1956,
  "▁Im": 1957,
  "▁execution": 1958,
  "▁q": 1959,
  "▁సం": 1960,
  "level": 1961,
  "SI": 1962,
  "▁$5": 1963,
  "▁cub": 1964,
  "=\"/": 1965,
  "▁notific": 1966,
  "SQL": 1967,
  "▁show": 1968,
  "▁pack": 1969,
  "▁flagged": 1970,
  "▁sequence": 1971,
  "▁boundary": 1972,
  "▁{\"": 1973,
  "6.": 1974,
  "py": 1975,
  "▁term": 1976,
  "quation": 1977,
  "}$.": 1978,
  "▁23": 1979,
  "▁cut": 1980,
  "▁Consider": 1981,
  "uted": 1982,
  "▁devi": 1983,
  "▁derivative": 1984,
  "▁del": 1985,
  "▁DE": 1986,
  "urch": 1987,
  "ner": 1988,
  "ార్య": 1989,
  "▁certain": 1990,
  "ized": 1991,
  "▁normal": 1992,
  "▁rect": 1993,
  "రాల": 1994,
  "▁expl": 1995,
  "CT": 1996,
  "ural": 1997,
  "▁Write": 1998,
  "▁frequ": 1999,
  "పు": 2000,
  "ircular": 2001,
  "▁linear": 2002,
  "ior": 2003,
  "▁Sup": 2004,
  "▁success": 2005,
  "▁series": 2006,
  "file": 2007,
  "▁∫": 2008,
  "way": 2009,
  "inc": 2010,
  "▁made": 2011,
  "ga": 2012,
  "ought": 2013,
  "▁Train": 2014,
  "▁school": 2015,
  "ired": 2016,
  "▁-2": 2017,
  "88": 2018,
  "pmatrix": 2019,
  "rier": 2020,
  "igrating": 2021,
  "land": 2022,
  "rie": 2023,
  "ude": 2024,
  "value": 2025,
  "score": 2026,
  "▁downtime": 2027,
  "▁mark": 2028,
  "-2": 2029,
  "▁rb": 2030,
  "(10": 2031,
  "idth": 2032,
  "6)": 2033,
  "▁rest": 2034,
  "ron": 2035,
  "ism": 2036,
  "▁search": 2037,
  "స్": 2038,
  "▁differential": 2039,
  "ache": 2040,
  "▁Car": 2041,
  "▁level": 2042,
  "▁dynamic": 2043,
  "▁isomorphic": 2044,
  "▁400": 2045,
  "til": 2046,
  "▁items": 2047,
  "ingle": 2048,
  "gin": 2049,
  "ాలయం": 2050,
  "▁ఈ": 2051,
  "▁critical": 2052,
  "▁vector": 2053,
  "mer": 2054,
  "▁<=": 2055,
  "▁\\[": 2056,
  "▁//": 2057,
  "▁like": 2058,
  "▁cycl": 2059,
  "ful": 2060,
  "gre": 2061,
  "▁lit": 2062,
  "/3)": 2063,
  "▁block": 2064,
  "ోద": 2065,
  "onent": 2066,
  "9.": 2067,
  "▁చే": 2068,
  "▁$3": 2069,
  "ourier": 2070,
  "▁కార్య": 2071,
  "▁exactly": 2072,
  "▁(1/": 2073,
  "ily": 2074,
  "▁వినియోగం": 2075,
  "▁Set": 2076,
  "▁most": 2077,
  "▁deploy": 2078,
  "▁your": 2079,
  "side": 2080,
  "ounds": 2081,
  "aly": 2082,
  "192.168.1.": 2083,
  "oth": 2084,
  "aces": 2085,
  "dx": 2086,
  "▁girls": 2087,
  "▁logs": 2088,
  "▁expression": 2089,
  "ుతు": 2090,
  "ulate": 2091,
  "▁colle": 2092,
  "▁Fourier": 2093,
  "^(-": 2094,
  "67": 2095,
  "ిక": 2096,
  "▁buy": 2097,
  "▁needs": 2098,
  "▁doll": 2099,
  "imal": 2100,
  "▁endpoint": 2101,
  "omic": 2102,
  "illing": 2103,
  "▁implementation": 2104,
  "▁≤": 2105,
  "▁dri": 2106,
  "amp": 2107,
  "▁High": 2108,
  "▁Create": 2109,
  "tead": 2110,
  "omega": 2111,
  "వులు": 2112,
  "▁process": 2113,
  "▁100.0": 2114,
  "▁(1,": 2115,
  "▁piec": 2116,
  "▁top": 2117,
  "▁state": 2118,
  "▁divided": 2119,
  "▁volati": 2120,
  "▁building": 2121,
  "fig": 2122,
  "▁game": 2123,
  "▁opposite": 2124,
  "ples": 2125,
  "istic": 2126,
  "imize": 2127,
  "diction": 2128,
  "▁interval": 2129,
  "off": 2130,
  "▁represent": 2131,
  "▁applic": 2132,
  "▁rema": 2133,
  "ee": 2134,
  "▁direct": 2135,
  "▁Distance": 2136,
  "▁containing": 2137,
  "ott": 2138,
  "▁conver": 2139,
  "▁interest": 2140,
  "irm": 2141,
  "▁cannot": 2142,
  "var": 2143,
  "me": 2144,
  "list": 2145,
  "▁sqrt": 2146,
  "▁sample": 2147,
  "▁dy": 2148,
  "▁dev": 2149,
  "జు": 2150,
  "▁Check": 2151,
  "▁clean": 2152,
  "mbols": 2153,
  "=1": 2154,
  "▁ins": 2155,
  "▁failure": 2156,
  "son": 2157,
  "▁fri": 2158,
  "▁moving": 2159,
  "ody": 2160,
  "▁Sylow": 2161,
  "▁sho": 2162,
  "భి": 2163,
  "──": 2164,
  "37": 2165,
  "conn": 2166,
  "▁message": 2167,
  "▁4)": 2168,
  "▁(0.": 2169,
  "▁Suppose": 2170,
  "42": 2171,
  "ane": 2172,
  "58": 2173,
  "esigning": 2174,
  "ilt": 2175,
  "▁occur": 2176,
  "▁sw": 2177,
  "orth": 2178,
  "▁...": 2179,
  "▁pip": 2180,
  "verse": 2181,
  ")]": 2182,
  "▁$1": 2183,
  "▁1/3": 2184,
  "▁heading": 2185,
  "▁related": 2186,
  "rid": 2187,
  "▁pat": 2188,
  "▁cyclic": 2189,
  "ark": 2190,
  "▁him": 2191,
  "▁సిని": 2192,
  "39": 2193,
  "▁bin": 2194,
  "ordin": 2195,
  "formation": 2196,
  "▁across": 2197,
  "\\]": 2198,
  "▁Res": 2199,
  "▁part": 2200,
  "^1": 2201,
  "▁శ": 2202,
  "igen": 2203,
  "▁loops": 2204,
  "▁Form": 2205,
  "▁inches": 2206,
  "ients": 2207,
  "▁fraction": 2208,
  "▁(0,": 2209,
  "▁పోష": 2210,
  "/∂": 2211,
  "resp": 2212,
  "▁symp": 2213,
  "▁remainder": 2214,
  "▁autom": 2215,
  "▁model": 2216,
  "రుగ": 2217,
  "▁limit": 2218,
  "▁ris": 2219,
  "ventory": 2220,
  "▁employ": 2221,
  "▁causing": 2222,
  "RE": 2223,
  "_4": 2224,
  "cy": 2225,
  "బ్ల": 2226,
  ".2": 2227,
  "ell": 2228,
  "▁Ob": 2229,
  "▁security": 2230,
  ".,": 2231,
  "7)": 2232,
  "ilest": 2233,
  "ERE": 2234,
  "▁relationship": 2235,
  "loor": 2236,
  "umber": 2237,
  "▁safety": 2238,
  "uting": 2239,
  "▁smallest": 2240,
  "త్ర": 2241,
  "▁roll": 2242,
  "\".": 2243,
  "circ": 2244,
  "rate": 2245,
  "co": 2246,
  "stand": 2247,
  "▁enti": 2248,
  "▁subgroup": 2249,
  "▁child": 2250,
  "rack": 2251,
  "▁కేంద్రం": 2252,
  "▁Per": 2253,
  "▁Given": 2254,
  "▁Problem": 2255,
  "aw": 2256,
  "▁example": 2257,
  "▁DESC": 2258,
  "▁Equation": 2259,
  "▁విద్యుత్": 2260,
  "ము": 2261,
  "ype": 2262,
  "ested": 2263,
  "ream": 2264,
  "raint": 2265,
  "▁flags": 2266,
  "▁version": 2267,
  "acter": 2268,
  "ensor": 2269,
  "length": 2270,
  "}(": 2271,
  "ough": 2272,
  "▁engineering": 2273,
  "\"]": 2274,
  "▁రో": 2275,
  "▁rows": 2276,
  "▁store": 2277,
  "▁low": 2278,
  "▁deviation": 2279,
  "ivid": 2280,
  "▁five": 2281,
  "64": 2282,
  "0.0": 2283,
  "ROM": 2284,
  "▁sympy": 2285,
  "68": 2286,
  ":0": 2287,
  "rehen": 2288,
  "%.": 2289,
  "(2)": 2290,
  "HERE": 2291,
  "^4": 2292,
  "eta": 2293,
  "▁II": 2294,
  "▁men": 2295,
  "values": 2296,
  "▁digits": 2297,
  "mit": 2298,
  "▁FROM": 2299,
  "ization": 2300,
  "sub": 2301,
  "5.": 2302,
  "▁contin": 2303,
  "▁comprehen": 2304,
  "▁bus": 2305,
  "▁typ": 2306,
  "▁మార్": 2307,
  "▁Project": 2308,
  "ares": 2309,
  "tional": 2310,
  "▁could": 2311,
  "0),": 2312,
  "▁wal": 2313,
  "illion": 2314,
  "statement": 2315,
  "▁WHERE": 2316,
  "▁dollars": 2317,
  "ences": 2318,
  "▁largest": 2319,
  "▁\"\"\"": 2320,
  "▁lim": 2321,
  "▁analy": 2322,
  "AB": 2323,
  "(0.": 2324,
  "atch": 2325,
  "▁సాగ": 2326,
  "▁item": 2327,
  "raft": 2328,
  "▁structured": 2329,
  "▁ring": 2330,
  "agination": 2331,
  "ilestones": 2332,
  "tex": 2333,
  "▁above": 2334,
  "వసరాల": 2335,
  "▁che": 2336,
  "▁divisible": 2337,
  "79": 2338,
  "odes": 2339,
  "atisf": 2340,
  "▁solutions": 2341,
  "velo": 2342,
  "(4": 2343,
  "▁med": 2344,
  "▁paths": 2345,
  "▁Objective": 2346,
  "pha": 2347,
  "ull": 2348,
  "1_000": 2349,
  "stage": 2350,
  "▁comprehensive": 2351,
  "▁By": 2352,
  "▁Each": 2353,
  "▁Formulate": 2354,
  "__": 2355,
  "▁city": 2356,
  "boxed": 2357,
  "▁boot": 2358,
  "OT": 2359,
  "▁bas": 2360,
  "▁(2,": 2361,
  "utral": 2362,
  "▁greater": 2363,
  "ned": 2364,
  "tail": 2365,
  "▁fall": 2366,
  "▁being": 2367,
  "▁email": 2368,
  "▁member": 2369,
  "ses": 2370,
  "down": 2371,
  "▁సౌకర్యాలు": 2372,
  "▁SQL": 2373,
  "స్తున్న": 2374,
  "▁When": 2375,
  "▁create": 2376,
  "▁simple": 2377,
  "▁(10": 2378,
  "▁3.0": 2379,
  "▁connection": 2380,
  "eyset": 2381,
  "▁steps": 2382,
  "▁factors": 2383,
  "▁odd": 2384,
  "▁hom": 2385,
  "▁Planning": 2386,
  "▁λ": 2387,
  "▁rates": 2388,
  "IC": 2389,
  "▁+=": 2390,
  "▁Risk": 2391,
  "▁satisf": 2392,
  "▁deployment": 2393,
  "ands": 2394,
  "▁large": 2395,
  "ries": 2396,
  "▁sym": 2397,
  "▁phases": 2398,
  "▁tok": 2399,
  "ZE": 2400,
  "aug": 2401,
  "imeter": 2402,
  "▁capac": 2403,
  "▁contra": 2404,
  "▁latency": 2405,
  "▁best": 2406,
  "▁dual": 2407,
  "▁expected": 2408,
  "▁modes": 2409,
  "55": 2410,
  "▁మార్కె": 2411,
  "prod": 2412,
  "▁Exp": 2413,
  "▁six": 2414,
  "▁risks": 2415,
  "▁bought": 2416,
  "▁tables": 2417,
  "equ": 2418,
  "7.": 2419,
  "34": 2420,
  "▁Pr": 2421,
  "▁fil": 2422,
  "query": 2423,
  "▁5/": 2424,
  "▁ref": 2425,
  "▁percentage": 2426,
  "+2": 2427,
  "place": 2428,
  "▁Execution": 2429,
  "km": 2430,
  "▁respect": 2431,
  "SIZE": 2432,
  "▁New": 2433,
  "▁Solve": 2434,
  "▁frequency": 2435,
  "▁exam": 2436,
  "UFF": 2437,
  "oint": 2438,
  "UFFER": 2439,
  "▁volatile": 2440,
  "నరు": 2441,
  "ances": 2442,
  "aving": 2443,
  "DE": 2444,
  "▁Highlight": 2445,
  "▁Milestones": 2446,
  "91": 2447,
  "ణి": 2448,
  "▁player": 2449,
  "▁automated": 2450,
  "▁Request": 2451,
  "itude": 2452,
  "▁జరుగ": 2453,
  "▁unique": 2454,
  "LECT": 2455,
  "ches": 2456,
  "▁gives": 2457,
  "▁devices": 2458,
  "టీ": 2459,
  "▁load": 2460,
  "▁Mitigations": 2461,
  "bles": 2462,
  "▁4**:": 2463,
  "▁5**:": 2464,
  "▁వనరు": 2465,
  "▁correct": 2466,
  "▁may": 2467,
  "aint": 2468,
  "త్ప": 2469,
  "▁proper": 2470,
  "▁manag": 2471,
  "▁theorem": 2472,
  "▁72": 2473,
  "cost": 2474,
  "▁constraint": 2475,
  "▁42": 2476,
  "▁Conn": 2477,
  "▁Memory": 2478,
  "med": 2479,
  "120": 2480,
  "oid": 2481,
  "▁len": 2482,
  "▁ఉత్ప": 2483,
  "▁domain": 2484,
  "▁multiple": 2485,
  "▁∂": 2486,
  "go": 2487,
  "dump": 2488,
  "=2": 2489,
  "▁required": 2490,
  "_0_": 2491,
  "▁0.1": 2492,
  "iff": 2493,
  "▁firm": 2494,
  "aught": 2495,
  "▁temper": 2496,
  "ిన": 2497,
  "ister": 2498,
  ")/": 2499,
  "▁124": 2500,
  "▁distribution": 2501,
  "500": 2502,
  "valu": 2503,
  "vers": 2504,
  "onents": 2505,
  "inventory": 2506,
  "ert": 2507,
  "ters": 2508,
  "ంటల": 2509,
  "▁functions": 2510,
  "72": 2511,
  "▁పాటు": 2512,
  "_0013": 2513,
  "%,": 2514,
  "ury": 2515,
  "▁cons": 2516,
  "▁0)": 2517,
  "ared": 2518,
  "ynomial": 2519,
  "ann": 2520,
  "orld": 2521,
  "_0017": 2522,
  "factor": 2523,
  "oding": 2524,
  "▁another": 2525,
  "9,": 2526,
  "ూల": 2527,
  "▁వనరుల": 2528,
  "▁$10": 2529,
  "▁They": 2530,
  "▁sets": 2531,
  "ited": 2532,
  "sian": 2533,
  "▁2.4": 2534,
  "▁road": 2535,
  "▁గంటల": 2536,
  "▁retrie": 2537,
  "ness": 2538,
  "▁John": 2539,
  "▁around": 2540,
  "▁enc": 2541,
  "▁star": 2542,
  "+1)": 2543,
  "▁cls": 2544,
  "bstitute": 2545,
  "▁don": 2546,
  "_0014": 2547,
  "▁constru": 2548,
  "▁corresp": 2549,
  "▁information": 2550,
  "omet": 2551,
  "▁try": 2552,
  "_0018": 2553,
  "▁pattern": 2554,
  "dy": 2555,
  "_0016": 2556,
  "ration": 2557,
  "▁Implement": 2558,
  "^\\": 2559,
  "▁att": 2560,
  "▁open": 2561,
  "ంజ": 2562,
  "times": 2563,
  "▁blue": 2564,
  "▁ఉత్పత్తి": 2565,
  "▁వ్యవసాయానికి": 2566,
  "{3": 2567,
  "▁marks": 2568,
  "▁hardware": 2569,
  "▁integral": 2570,
  "ils": 2571,
  "▁tank": 2572,
  "▁final": 2573,
  "force": 2574,
  "▁stock": 2575,
  "▁round": 2576,
  "files": 2577,
  "sid": 2578,
  "_001": 2579,
  "memory": 2580,
  "▁pounds": 2581,
  "▁wants": 2582,
  "▁created": 2583,
  "_0019": 2584,
  "bytes": 2585,
  "▁lines": 2586,
  "stud": 2587,
  "ండ": 2588,
  "▁రా": 2589,
  "▁180": 2590,
  "▁verify": 2591,
  "▁capacity": 2592,
  "test": 2593,
  "email": 2594,
  "ived": 2595,
  "http": 2596,
  "▁Sim": 2597,
  "▁assum": 2598,
  "▁As": 2599,
  "leted": 2600,
  "▁elif": 2601,
  "▁exceeding": 2602,
  "tmp": 2603,
  "till": 2604,
  "▁లే": 2605,
  "▁Bob": 2606,
  "▁polynomial": 2607,
  "/10": 2608,
  "▁gu": 2609,
  "▁our": 2610,
  "speed": 2611,
  "▁రోజు": 2612,
  "▁Red": 2613,
  "amma": 2614,
  "▁additional": 2615,
  "▁application": 2616,
  "▁subject": 2617,
  "la": 2618,
  "▁cal": 2619,
  "▁temperature": 2620,
  "ties": 2621,
  "▁$$\\": 2622,
  "dig": 2623,
  "▁states": 2624,
  "ision": 2625,
  "._": 2626,
  "▁జన": 2627,
  "▁folder": 2628,
  "▁character": 2629,
  "*(": 2630,
  "tics": 2631,
  ".\"": 2632,
  "▁$4": 2633,
  "ality": 2634,
  "▁months": 2635,
  "uler": 2636,
  "users": 2637,
  "▁wave": 2638,
  "number": 2639,
  "records": 2640,
  "▁transform": 2641,
  "▁again": 2642,
  "delete": 2643,
  "▁σ": 2644,
  "▁look": 2645,
  "▁without": 2646,
  "▁condition": 2647,
  "reak": 2648,
  "▁type": 2649,
  "▁client": 2650,
  "{2": 2651,
  "▁sem": 2652,
  "ret": 2653,
  "arch": 2654,
  "entif": 2655,
  "billing": 2656,
  "send": 2657,
  "ividual": 2658,
  "inally": 2659,
  "▁2-": 2660,
  "ented": 2661,
  "▁asso": 2662,
  "▁telemetry": 2663,
  "▁36000": 2664,
  "▁'/": 2665,
  "▁desc": 2666,
  "▁peer": 2667,
  "ilar": 2668,
  "▁64": 2669,
  "▁మూల": 2670,
  "▁disc": 2671,
  "▁`[": 2672,
  "104:": 2673,
  "▁బ్య": 2674,
  "▁[14": 2675,
  "▁Ver": 2676,
  "▁act": 2677,
  "ically": 2678,
  "▁Execute": 2679,
  "▁simpl": 2680,
  "▁testing": 2681,
  "▁dot": 2682,
  "▁calculator": 2683,
  "11]": 2684,
  "▁ow": 2685,
  "▁present": 2686,
  "కా": 2687,
  ":02:": 2688,
  "aves": 2689,
  "▁Resolve": 2690,
  "▁production": 2691,
  "▁Connection": 2692,
  ":02:11]": 2693,
  "▁[14:02:11]": 2694,
  "▁notify": 2695,
  "ను": 2696,
  "▁]`": 2697,
  "▁associ": 2698,
  "▁reachable": 2699,
  "▁iteration": 2700,
  "▁notifications": 2701,
  "ah": 2702,
  "▁dou": 2703,
  "sig": 2704,
  "\"}`": 2705,
  "_0012": 2706,
  "▁మూలాలు": 2707,
  "api": 2708,
  "vity": 2709,
  "/9": 2710,
  "ల్": 2711,
  "RIT": 2712,
  "▁4.0": 2713,
  "▁smaller": 2714,
  "ంప": 2715,
  "▁sl": 2716,
  "_0015": 2717,
  "▁sen": 2718,
  "▁55": 2719,
  "▁బ్యాం": 2720,
  "▁mach": 2721,
  "▁multiply": 2722,
  "tegra": 2723,
  "▁buffer": 2724,
  "▁defined": 2725,
  "graph": 2726,
  "▁classes": 2727,
  "oman": 2728,
  "8_": 2729,
  "▁సినిమా": 2730,
  "తి": 2731,
  "▁6,": 2732,
  "8)": 2733,
  "▁hr": 2734,
  "▁250": 2735,
  "▁center": 2736,
  "ాప": 2737,
  "enn": 2738,
  "ంజరు": 2739,
  "▁బంజరు": 2740,
  "▁contains": 2741,
  "aj": 2742,
  "{1}{2}": 2743,
  "ward": 2744,
  "_0010": 2745,
  "▁along": 2746,
  "▁sorted": 2747,
  "▁replication": 2748,
  "▁son": 2749,
  "eries": 2750,
  "▁plane": 2751,
  "▁vertex": 2752,
  "▁balls": 2753,
  "▁Su": 2754,
  "▁hyp": 2755,
  "▁eigen": 2756,
  "etch": 2757,
  "▁far": 2758,
  "▁error": 2759,
  "▁cutover": 2760,
  "▁spent": 2761,
  "▁took": 2762,
  "▁denote": 2763,
  "▁Migrating": 2764,
  "hour": 2765,
  "class": 2766,
  "▁costs": 2767,
  "▁limits": 2768,
  "fit": 2769,
  "▁well": 2770,
  "angent": 2771,
  "▁father": 2772,
  "▁within": 2773,
  "0000": 2774,
  "▁manager": 2775,
  "bf": 2776,
  "ustom": 2777,
  "▁65": 2778,
  "ICAL": 2779,
  "▁False": 2780,
  "▁Gre": 2781,
  "figure": 2782,
  "ధి": 2783,
  "created": 2784,
  "▁currently": 2785,
  "agon": 2786,
  "\"],": 2787,
  "జ్య": 2788,
  "ament": 2789,
  "▁True": 2790,
  "▁-0.": 2791,
  "▁follows": 2792,
  "▁distributed": 2793,
  "▁7,": 2794,
  "▁hig": 2795,
  "▁raw": 2796,
  "▁stra": 2797,
  "▁server": 2798,
  "మ్": 2799,
  "ees": 2800,
  "▁edges": 2801,
  "subgroup": 2802,
  "▁Hence": 2803,
  "hern": 2804,
  "▁adj": 2805,
  "▁$(": 2806,
  "0)--": 2807,
  "▁array": 2808,
  "▁0.2": 2809,
  "▁fallback": 2810,
  "▁coefficients": 2811,
  "▁av": 2812,
  "▁es": 2813,
  "RITICAL": 2814,
  "-3": 2815,
  "▁divide": 2816,
  "▁individual": 2817,
  "▁{1,": 2818,
  "▁instead": 2819,
  "▁hand": 2820,
  "▁&=": 2821,
  "▁loss": 2822,
  "ech": 2823,
  "▁iterations": 2824,
  "amb": 2825,
  "rol": 2826,
  "inct": 2827,
  "sure": 2828,
  "vious": 2829,
  "tition": 2830,
  "▁increase": 2831,
  "▁stations": 2832,
  "tle": 2833,
  "students": 2834,
  "▁support": 2835,
  "_0020": 2836,
  "▁loop": 2837,
  "▁options": 2838,
  "▁generate": 2839,
  "ending": 2840,
  "2_": 2841,
  "▁tick": 2842,
  "▁Enforce": 2843,
  "ెం": 2844,
  "▁vis": 2845,
  "weight": 2846,
  "_013": 2847,
  "▁600": 2848,
  "anges": 2849,
  "▁Configure": 2850,
  "1_": 2851,
  "user": 2852,
  "▁job": 2853,
  "▁mag": 2854,
  "clu": 2855,
  "▁Sc": 2856,
  "els": 2857,
  "clude": 2858,
  "97": 2859,
  "yle": 2860,
  "udget": 2861,
  "▁Number": 2862,
  "ern": 2863,
  "▁7.": 2864,
  "▁pages": 2865,
  "86": 2866,
  "}{2}": 2867,
  "▁post": 2868,
  "▁still": 2869,
  "▁cup": 2870,
  "▁ఇతర": 2871,
  "▁వాణి": 2872,
  "▁Euler": 2873,
  "▁sent": 2874,
  "▁verified": 2875,
  "▁requested": 2876,
  "_012": 2877,
  "▁region": 2878,
  "▁tangent": 2879,
  "▁20%": 2880,
  "▁based": 2881,
  "ger": 2882,
  "anation": 2883,
  "▁coordin": 2884,
  "duct": 2885,
  "▁వాణిజ్య": 2886,
  "▁user": 2887,
  "egative": 2888,
  "▁Space": 2889,
  "▁leave": 2890,
  "▁walk": 2891,
  "▁apples": 2892,
  "node": 2893,
  "▁components": 2894,
  "▁Ad": 2895,
  "aking": 2896,
  "▁determin": 2897,
  "▁4:": 2898,
  "_0005": 2899,
  "▁pieces": 2900,
  ")(": 2901,
  "▁fund": 2902,
  "డా": 2903,
  "▁ఎ": 2904,
  "▁children": 2905,
  "aster": 2906,
  "▁option": 2907,
  "్యం": 2908,
  "▁ass": 2909,
  "telemetry": 2910,
  "్థ": 2911,
  "cat": 2912,
  "asure": 2913,
  "▁లేని": 2914,
  "▁ent": 2915,
  "▁From": 2916,
  "▁invest": 2917,
  "▁specific": 2918,
  "▁bott": 2919,
  "▁including": 2920,
  "_002": 2921,
  "▁eff": 2922,
  "▁distinct": 2923,
  "92": 2924,
  "▁mother": 2925,
  "▁0$": 2926,
  "alle": 2927,
  "▁1/4": 2928,
  "map": 2929,
  "▁10.": 2930,
  "▁built": 2931,
  "▁colum": 2932,
  "▁Player": 2933,
  "▁ground": 2934,
  "▁Pagination": 2935,
  "ife": 2936,
  "ished": 2937,
  "velop": 2938,
  "▁bool": 2939,
  "▁Keyset": 2940,
  "▁coefficient": 2941,
  "ran": 2942,
  "▁వారం": 2943,
  "▁letters": 2944,
  "▁Designing": 2945,
  "87": 2946,
  "▁-3": 2947,
  "▁mo": 2948,
  "new": 2949,
  "▁det": 2950,
  "▁decimal": 2951,
  "....": 2952,
  "▁Se": 2953,
  "▁Coding": 2954,
  "▁players": 2955,
  "దల": 2956,
  "ారా": 2957,
  "lower": 2958,
  "▁previous": 2959,
  "=\\": 2960,
  "▁AM": 2961,
  "▁Draft": 2962,
  "lation": 2963,
  "cm": 2964,
  "▁సమీ": 2965,
  "▁selected": 2966,
  "▁correspond": 2967,
  "1:": 2968,
  "▁$6": 2969,
  "ifold": 2970,
  "▁circular": 2971,
  "32_": 2972,
  "▁3-": 2973,
  "olds": 2974,
  "result": 2975,
  "కృ": 2976,
  "col": 2977,
  "▁ages": 2978,
  "▁cook": 2979,
  "▁(6": 2980,
  "▁pairs": 2981,
  "▁obtain": 2982,
  "year": 2983,
  "▁break": 2984,
  "factorial": 2985,
  "*2": 2986,
  "84": 2987,
  "spsc": 2988,
  "▁name": 2989,
  "▁custom": 2990,
  "▁perimeter": 2991,
  "/7": 2992,
  "order": 2993,
  "▁BUFFER": 2994,
  "ెలు": 2995,
  "angu": 2996,
  "(5": 2997,
  "▁∩": 2998,
  "▁9.": 2999,
  "imiter": 3000,
  "▁firmware": 3001,
  "index": 3002,
  "itial": 3003,
  "▁alloc": 3004,
  "append": 3005,
  "▁hypot": 3006,
  "ON": 3007,
  "▁ampl": 3008,
  "rea": 3009,
  "రణ": 3010,
  "ానం": 3011,
  "▁One": 3012,
  "▁those": 3013,
  "▁arrange": 3014,
  "▁position": 3015,
  "ష్": 3016,
  "▁Dat": 3017,
  "▁pri": 3018,
  "▁signific": 3019,
  "ROR": 3020,
  "rip": 3021,
  "comes": 3022,
  "▁see": 3023,
  "▁Redis": 3024,
  "reatest": 3025,
  "▁products": 3026,
  "▁successful": 3027,
  "cept": 3028,
  "():": 3029,
  "_01": 3030,
  "angular": 3031,
  "ball": 3032,
  "hema": 3033,
  "▁upd": 3034,
  "▁reac": 3035,
  "▁beh": 3036,
  "▁diam": 3037,
  "entity": 3038,
  "▁φ": 3039,
  "▁win": 3040,
  "ording": 3041,
  "ires": 3042,
  "▁friends": 3043,
  "▁retrieve": 3044,
  "(2,": 3045,
  "▁quad": 3046,
  "())": 3047,
  "hom": 3048,
  "ler": 3049,
  "▁allow": 3050,
  "94": 3051,
  "▁veloc": 3052,
  "▁module": 3053,
  "▁52": 3054,
  "_010": 3055,
  "▁bro": 3056,
  "▁marbles": 3057,
  "ploy": 3058,
  "_0002": 3059,
  "alpha": 3060,
  "▁explanation": 3061,
  "oted": 3062,
  "eks": 3063,
  "▁words": 3064,
  "▁covered": 3065,
  "▁inverse": 3066,
  "izz": 3067,
  "▁grow": 3068,
  "▁బ్యాంకు": 3069,
  "▁(3,": 3070,
  "▁fam": 3071,
  "▁link": 3072,
  "▁known": 3073,
  "-1,": 3074,
  "posi": 3075,
  "▁report": 3076,
  "▁variable": 3077,
  "/(": 3078,
  "align": 3079,
  "imin": 3080,
  "▁Sol": 3081,
  "▁ann": 3082,
  "▁way": 3083,
  "▁boxes": 3084,
  "▁@": 3085,
  "▁fill": 3086,
  "▁gall": 3087,
  "▁integra": 3088,
  "▁Comp": 3089,
  "tom": 3090,
  "▁1.5": 3091,
  "▁until": 3092,
  "▁sphere": 3093,
  "శా": 3094,
  "▁fourth": 3095,
  "apun": 3096,
  "uck": 3097,
  "కం": 3098,
  "▁provide": 3099,
  "▁450": 3100,
  "gy": 3101,
  "▁44": 3102,
  "ales": 3103,
  "ests": 3104,
  "omen": 3105,
  "▁got": 3106,
  "solve": 3107,
  "▁metric": 3108,
  "da": 3109,
  "▁54": 3110,
  "▁track": 3111,
  "▁single": 3112,
  "free": 3113,
  "▁roots": 3114,
  "▁performance": 3115,
  "▁8.": 3116,
  "▁చె": 3117,
  "olved": 3118,
  "▁goal": 3119,
  "^2}": 3120,
  "▁Le": 3121,
  "medi": 3122,
  "ctors": 3123,
  "▁root": 3124,
  "▁maximize": 3125,
  "0,000": 3126,
  "▁Note": 3127,
  "atives": 3128,
  "▁nodes": 3129,
  "▁among": 3130,
  "dict": 3131,
  "▁exceeds": 3132,
  "▁Up": 3133,
  "apunov": 3134,
  "gan": 3135,
  "price": 3136,
  "▁cards": 3137,
  "▁produce": 3138,
  "▁calculations": 3139,
  "message": 3140,
  "▁double": 3141,
  "TL": 3142,
  ")))": 3143,
  "▁token": 3144,
  "ిక్": 3145,
  "omin": 3146,
  "్రాలు": 3147,
  "▁budget": 3148,
  "(3)": 3149,
  "▁బాల": 3150,
  "▁estim": 3151,
  "▁రూ": 3152,
  "']": 3153,
  "appro": 3154,
  "▁Sh": 3155,
  "▁10:": 3156,
  "entify": 3157,
  "ene": 3158,
  "ublic": 3159,
  "ailment": 3160,
  "ails": 3161,
  "_0003": 3162,
  "▁align": 3163,
  "ntailment": 3164,
  "▁rectangle": 3165,
  "ival": 3166,
  "▁home": 3167,
  "00,": 3168,
  "▁dz": 3169,
  "▁abs": 3170,
  "▁call": 3171,
  "▁needed": 3172,
  "▁architect": 3173,
  "ixed": 3174,
  "SELECT": 3175,
  "▁greatest": 3176,
  "▁share": 3177,
  "rm": 3178,
  "▁బా": 3179,
  "▁--": 3180,
  "▁240": 3181,
  "▁entire": 3182,
  "sic": 3183,
  "▁(8": 3184,
  "▁having": 3185,
  "▁parameters": 3186,
  "▁dir": 3187,
  "acher": 3188,
  "▁place": 3189,
  "$?": 3190,
  "వు": 3191,
  "▁కో": 3192,
  "ched": 3193,
  "ging": 3194,
  "▁Loc": 3195,
  "▁added": 3196,
  "▁calculated": 3197,
  "-\\": 3198,
  "arr": 3199,
  "▁langu": 3200,
  "ains": 3201,
  "part": 3202,
  "▁Area": 3203,
  "▁flow": 3204,
  "▁hist": 3205,
  "▁room": 3206,
  "au": 3207,
  "▁Σ": 3208,
  "హా": 3209,
  "▁select": 3210,
  "▁వ్యవస్థ": 3211,
  "▁2/3": 3212,
  "report": 3213,
  "▁members": 3214,
  "▁ω": 3215,
  "ీడి": 3216,
  "ద్ధి": 3217,
  "▁10%": 3218,
  "digit": 3219,
  "▁paid": 3220,
  "swe": 3221,
  "▁trip": 3222,
  "▁weeks": 3223,
  "▁combinations": 3224,
  ",$": 3225,
  "OM": 3226,
  "▁cre": 3227,
  "▁replica": 3228,
  "ually": 3229,
  "▁parts": 3230,
  "▁Finally": 3231,
  "ది": 3232,
  "pend": 3233,
  "▁---": 3234,
  "▁refle": 3235,
  "}^{": 3236,
  "▁received": 3237,
  "+3": 3238,
  "gl": 3239,
  "arrow": 3240,
  "▁curv": 3241,
  "▁110": 3242,
  "prime": 3243,
  "వృ": 3244,
  "}$,": 3245,
  "ైద": 3246,
  "త్తం": 3247,
  "▁Under": 3248,
  "▁whole": 3249,
  "గా": 3250,
  "ton": 3251,
  "▁$100": 3252,
  "▁plug": 3253,
  "హార": 3254,
  "▁cou": 3255,
  "▁modul": 3256,
  "yapunov": 3257,
  "93": 3258,
  "▁8,": 3259,
  "▁లో": 3260,
  "▁10.0": 3261,
  "▁context": 3262,
  "mut": 3263,
  "phi": 3264,
  "rown": 3265,
  "▁manifold": 3266,
  "▁ఆట": 3267,
  "▁గృ": 3268,
  "utive": 3269,
  "▁Audit": 3270,
  "mathcal": 3271,
  "▁change": 3272,
  "▁(1/2)": 3273,
  "/2,": 3274,
  "▁fast": 3275,
  "mathbf": 3276,
  "▁daught": 3277,
  "▁33": 3278,
  "▁56": 3279,
  "▁Verify": 3280,
  "▁jo": 3281,
  "ming": 3282,
  "▁due": 3283,
  "▁particular": 3284,
  "aced": 3285,
  "▁cache": 3286,
  "▁general": 3287,
  "tri": 3288,
  "▁fem": 3289,
  "sen": 3290,
  "▁$12": 3291,
  "▁kil": 3292,
  "▁10,": 3293,
  "▁main": 3294,
  "▁alignment": 3295,
  "▁represents": 3296,
  "▁corresponding": 3297,
  "74": 3298,
  "▁?,": 3299,
  "▁Any": 3300,
  "▁hash": 3301,
  "ission": 3302,
  "ాస": 3303,
  "une": 3304,
  "కృత": 3305,
  "iled": 3306,
  "opt": 3307,
  "▁Ass": 3308,
  "▁later": 3309,
  "=3": 3310,
  "omes": 3311,
  "rand": 3312,
  "▁సాగు": 3313,
  "▁exponent": 3314,
  "oles": 3315,
  "▁జనన": 3316,
  "▁action": 3317,
  "▁SE": 3318,
  "▁seg": 3319,
  "ready": 3320,
  "▁binary": 3321,
  "//": 3322,
  "ipal": 3323,
  "lead": 3324,
  "type": 3325,
  "▁rout": 3326,
  "▁గ్రం": 3327,
  "ips": 3328,
  "▁విధ": 3329,
  "▁విద్యుత్తు": 3330,
  "▁అభి": 3331,
  "▁మరణ": 3332,
  "▁answe": 3333,
  "▁velocity": 3334,
  "axis": 3335,
  "ipher": 3336,
  "aved": 3337,
  "▁sort": 3338,
  "tomcat": 3339,
  "▁bag": 3340,
  "▁purch": 3341,
  "valuate": 3342,
  "▁Update": 3343,
  "▁గ్రంథ": 3344,
  "▁selling": 3345,
  "▁squares": 3346,
  "▁ఆర": 3347,
  "((0,": 3348,
  "ium": 3349,
  "▁dr": 3350,
  "కర్త": 3351,
  "▁equil": 3352,
  "amental": 3353,
  "wed": 3354,
  "▁sql": 3355,
  "▁input": 3356,
  "▁develop": 3357,
  "▁makes": 3358,
  "ంత": 3359,
  "▁95": 3360,
  "pper": 3361,
  "వృద్ధి": 3362,
  "▁games": 3363,
  "▁Option": 3364,
  "▁Database": 3365,
  "9)": 3366,
  "▁Me": 3367,
  "▁symmetric": 3368,
  "73": 3369,
  "arent": 3370,
  "▁bund": 3371,
  "▁full": 3372,
  "▁Solution": 3373,
  "ata": 3374,
  "▁century": 3375,
  "▁increased": 3376,
  "▁List": 3377,
  "secops": 3378,
  "▁apply": 3379,
  "▁describ": 3380,
  "డీ": 3381,
  "room": 3382,
  "racted": 3383,
  "▁మార్కెటి": 3384,
  "▁∪": 3385,
  "▁redu": 3386,
  "metrics": 3387,
  "symbols": 3388,
  "fficient": 3389,
  "▁heav": 3390,
  "▁struct": 3391,
  "hardware": 3392,
  "▁అభివృద్ధి": 3393,
  "=0": 3394,
  "AC": 3395,
  "▁కూ": 3396,
  "▁నమ": 3397,
  "▁oun": 3398,
  "▁పబ్ల": 3399,
  "▁cases": 3400,
  "21": 3401,
  "utta": 3402,
  "▁pizz": 3403,
  "▁payoff": 3404,
  "▁loc": 3405,
  "▁book": 3406,
  "▁continu": 3407,
  "!)": 3408,
  "▁85": 3409,
  "ows": 3410,
  "▁మైద": 3411,
  "ధాన": 3412,
  "▁Deter": 3413,
  "execute": 3414,
  "▁larger": 3415,
  "▁daughter": 3416,
  "dir": 3417,
  "▁away": 3418,
  "▁కార్యకర్త": 3419,
  "ina": 3420,
  "ained": 3421,
  "check": 3422,
  "▁decre": 3423,
  "▁మైదానం": 3424,
  "ders": 3425,
  "త్రిక": 3426,
  "▁fish": 3427,
  "▁Locate": 3428,
  "▁always": 3429,
  "omorphism": 3430,
  "▁employees": 3431,
  "కాహార": 3432,
  "▁పోలి": 3433,
  "▁paralle": 3434,
  "▁గ్రంథాలయం": 3435,
  "The": 3436,
  "ోదు": 3437,
  "▁ఆటల": 3438,
  "▁gets": 3439,
  "▁proxy": 3440,
  "▁వ్యవసాయం": 3441,
  "▁diff": 3442,
  "▁రీడి": 3443,
  "incipal": 3444,
  "▁పబ్లిక్": 3445,
  "▁రీడింగ్": 3446,
  "ift": 3447,
  "▁AB": 3448,
  "▁రూం": 3449,
  "▁reli": 3450,
  "▁నమోదు": 3451,
  "▁Am": 3452,
  "▁cr": 3453,
  "bability": 3454,
  "▁written": 3455,
  "mediately": 3456,
  "▁confidence": 3457,
  "▁sequential": 3458,
  "▁body": 3459,
  "ుతుంది": 3460,
  "▁Alice": 3461,
  "▁cookies": 3462,
  "▁subtract": 3463,
  "▁connected": 3464,
  "(6": 3465,
  "▁49": 3466,
  "▁బాలల": 3467,
  "ుతున్న": 3468,
  "▁విధంగా": 3469,
  "ised": 3470,
  "▁rot": 3471,
  "▁tan": 3472,
  "▁మరణాల": 3473,
  "▁కార్యాలయం": 3474,
  "ked": 3475,
  "ryp": 3476,
  "▁flo": 3477,
  "▁tran": 3478,
  "▁width": 3479,
  "▁million": 3480,
  "lu": 3481,
  "▁ఏ": 3482,
  "థకం": 3483,
  "_005": 3484,
  "orse": 3485,
  "▁Test": 3486,
  "▁cour": 3487,
  "▁పోలింగ్": 3488,
  "ij": 3489,
  "▁పథకం": 3490,
  "▁style": 3491,
  "▁formed": 3492,
  "▁taking": 3493,
  "rup": 3494,
  "days": 3495,
  "▁hit": 3496,
  "▁contradiction": 3497,
  "నీ": 3498,
  "▁≡": 3499,
  "00)": 3500,
  "ood": 3501,
  "▁rule": 3502,
  "▁ప్రధాన": 3503,
  "సం": 3504,
  "por": 3505,
  "ambda": 3506,
  "ratic": 3507,
  "▁keys": 3508,
  "▁ఆరోగ": 3509,
  "▁roadmap": 3510,
  "hest": 3511,
  "▁Chr": 3512,
  "▁అంగ": 3513,
  "cycle": 3514,
  "▁green": 3515,
  "▁results": 3516,
  "63": 3517,
  "ిత": 3518,
  "^2(": 3519,
  "▁38": 3520,
  "▁ఆశా": 3521,
  "meric": 3522,
  "▁కూడా": 3523,
  "▁Determine": 3524,
  "url": 3525,
  "▁women": 3526,
  "▁records": 3527,
  "▁runs": 3528,
  "▁±": 3529,
  "▁RF": 3530,
  "▁study": 3531,
  "▁pick": 3532,
  "▁నిమి": 3533,
  "▁grams": 3534,
  "▁convert": 3535,
  "▁relation": 3536,
  "1.0": 3537,
  "▁white": 3538,
  "▁leading": 3539,
  "area": 3540,
  "▁విన": 3541,
  "కరంగా": 3542,
  "▁గృహా": 3543,
  "▁Roman": 3544,
  "▁already": 3545,
  "▁నిమిత్తం": 3546,
  "▁గృహావసరాల": 3547,
  "కార": 3548,
  "▁హాలు": 3549,
  "ipy": 3550,
  "▁ri": 3551,
  "▁\\[\\": 3552,
  "▁12.5": 3553,
  "▁discount": 3554,
  "▁machine": 3555,
  "▁[]": 3556,
  "iver": 3557,
  "త్తిన": 3558,
  "▁coordinates": 3559,
  "▁Port": 3560,
  "▁comput": 3561,
  "▁express": 3562,
  "▁నికరంగా": 3563,
  "▁విత్తిన": 3564,
  "orn": 3565,
  "_0008": 3566,
  "width": 3567,
  "▁2000": 3568,
  "▁cars": 3569,
  "▁except": 3570,
  "▁diameter": 3571,
  "▁fundamental": 3572,
  "▁μ": 3573,
  "ibr": 3574,
  "work": 3575,
  "▁వాడీ": 3576,
  "▁అంగన్": 3577,
  "Distance": 3578,
  "12}": 3579,
  "▁160": 3580,
  "▁eat": 3581,
  "▁29": 3582,
  "▁Eu": 3583,
  "bmatrix": 3584,
  "/8": 3585,
  "ceed": 3586,
  "ginx": 3587,
  "▁few": 3588,
  "nginx": 3589,
  "▁సమీకృత": 3590,
  "▁language": 3591,
  "▁negative": 3592,
  "్తాప": 3593,
  "/6": 3594,
  "డ్": 3595,
  "://": 3596,
  "▁Rot": 3597,
  "_1(": 3598,
  "▁2(": 3599,
  "itch": 3600,
  "tivity": 3601,
  "▁divisor": 3602,
  "▁reliable": 3603,
  "cer": 3604,
  "▁∫[": 3605,
  "▁bul": 3606,
  "▁mil": 3607,
  "▁works": 3608,
  "▁inside": 3609,
  "▁Understand": 3610,
  "▁Δ": 3611,
  "▁layer": 3612,
  "్తాపత్రిక": 3613,
  "icks": 3614,
  "▁trave": 3615,
  "connected": 3616,
  "floor": 3617,
  "▁34": 3618,
  "erial": 3619,
  "▁teacher": 3620,
  "▁వార్తాపత్రిక": 3621,
  "rel": 3622,
  "▁6)": 3623,
  "▁contrib": 3624,
  "▁సహ": 3625,
  "lass": 3626,
  "▁125": 3627,
  "DB": 3628,
  "ిణ": 3629,
  "▁0.00": 3630,
  "▁Post": 3631,
  "▁whose": 3632,
  "▁సౌకర్యం": 3633,
  "▁exper": 3634,
  "▁lower": 3635,
  "▁→": 3636,
  "▁(12": 3637,
  "ience": 3638,
  "state": 3639,
  "▁పోషణ": 3640,
  "abelian": 3641,
  "▁ఆరోగ్యం": 3642,
  "69": 3643,
  "▁eq": 3644,
  "outh": 3645,
  "▁వినోద": 3646,
  "dimension": 3647,
  "=0.": 3648,
  "view": 3649,
  "through": 3650,
  "homology": 3651,
  "గు": 3652,
  "bra": 3653,
  "▁CP": 3654,
  "వుతున్న": 3655,
  "▁liters": 3656,
  "▁string": 3657,
  "▁curvature": 3658,
  "([": 3659,
  "ba": 3660,
  "oT": 3661,
  "▁pot": 3662,
  "▁sit": 3663,
  "▁cand": 3664,
  "▁plt": 3665,
  "▁give": 3666,
  "▁text": 3667,
  "▁statement": 3668,
  "▁θ": 3669,
  "▁9,": 3670,
  "▁5.0": 3671,
  "▁light": 3672,
  "▁Americ": 3673,
  "▁becomes": 3674,
  "▁Lyapunov": 3675,
  "▁cohomology": 3676,
  "▁ద్వ": 3677,
  "*3": 3678,
  "OTA": 3679,
  "▁2\"": 3680,
  "▁IoT": 3681,
  "▁lengths": 3682,
  "▁material": 3683,
  "00.": 3684,
  "FOTA": 3685,
  "elta": 3686,
  "▁sales": 3687,
  "▁rectangular": 3688,
  "af": 3689,
  "▁0;": 3690,
  "cket": 3691,
  "options": 3692,
  "▁Deploy": 3693,
  "▁chosen": 3694,
  "▁Perform": 3695,
  "aim": 3696,
  "▁No": 3697,
  "▁gen": 3698,
  "▁exist": 3699,
  "▁propor": 3700,
  "▁working": 3701,
  "fty": 3702,
  "▁ax": 3703,
  "echn": 3704,
  "▁1\":": 3705,
  "▁Mar": 3706,
  "▁[0,": 3707,
  "▁below": 3708,
  "▁Initial": 3709,
  "pos": 3710,
  "wise": 3711,
  "CRITICAL": 3712,
  "▁Limiter": 3713,
  "throughput": 3714,
  "dimensional": 3715,
  "▁0.8": 3716,
  "arest": 3717,
  "fect": 3718,
  "ital": 3719,
  "▁mis": 3720,
  "▁assume": 3721,
  "▁!": 3722,
  "home": 3723,
  "────": 3724,
  "▁Ext": 3725,
  "atural": 3726,
  "ేతర": 3727,
  "▁maj": 3728,
  "▁sug": 3729,
  "▁పంప": 3730,
  "asing": 3731,
  "▁tree": 3732,
  "▁scipy": 3733,
  "▁python": 3734,
  "▁correlation": 3735,
  "▁done": 3736,
  "▁mass": 3737,
  "▁bar": 3738,
  "▁Solving": 3739,
  "anti": 3740,
  "▁letter": 3741,
  "tradiction": 3742,
  "▁కేంద్రాలు": 3743,
  "resh": 3744,
  "▁bal": 3745,
  "▁analysis": 3746,
  "▁జరుగుతుంది": 3747,
  "be": 3748,
  "cap": 3749,
  "den": 3750,
  "hods": 3751,
  "imes": 3752,
  "nums": 3753,
  "▁2.5": 3754,
  "angles": 3755,
  "▁symbols": 3756,
  "▁partition": 3757,
  ")--": 3758,
  "▁[/": 3759,
  "wedge": 3760,
  "▁host": 3761,
  "▁quar": 3762,
  "encils": 3763,
  "▁పోషకాహార": 3764,
  "▁characteristic": 3765,
  "_6": 3766,
  "lie": 3767,
  "ిణీ": 3768,
  "ominator": 3769,
  "infty": 3770,
  "reports": 3771,
  "▁పంపిణీ": 3772,
  "▁conflic": 3773,
  "▁produced": 3774,
  "*.": 3775,
  "+4": 3776,
  "version": 3777,
  "▁behav": 3778,
  "▁association": 3779,
  "}}": 3780,
  "▁actual": 3781,
  "▁completed": 3782,
  "▁substitute": 3783,
  "▁bundle": 3784,
  "▁sk": 3785,
  "ATAL": 3786,
  "uster": 3787,
  "▁methods": 3788,
  "▁plat": 3789,
  "▁word": 3790,
  "▁nearest": 3791,
  "▁(4,": 3792,
  "▁repe": 3793,
  "sensor": 3794,
  "▁ద్వారా": 3795,
  "/12": 3796,
  "ighb": 3797,
  "▁(45": 3798,
  "▁cipher": 3799,
  "▁extract": 3800,
  "*}": 3801,
  "].": 3802,
  "▁dogs": 3803,
  "▁వినియోగంలో": 3804,
  "▁వ్యవసాయేతర": 3805,
  "▁140": 3806,
  "▁ball": 3807,
  "▁edge": 3808,
  "▁just": 3809,
  "uit": 3810,
  "▁$50": 3811,
  "▁cubic": 3812,
  "▁Station": 3813,
  "▁defective": 3814,
  "▁quadratic": 3815,
  "▁Entailment": 3816,
  "▁tail": 3817,
  "▁Chern": 3818,
  "▁partial": 3819,
  "*)": 3820,
  "array": 3821,
  "▁scores": 3822,
  "aca": 3823,
  "▁xy": 3824,
  "atic": 3825,
  "▁ext": 3826,
  "anged": 3827,
  "method": 3828,
  "▁choos": 3829,
  "▁heavy": 3830,
  "aintain": 3831,
  "▁season": 3832,
  "▁logical": 3833,
  "oDB": 3834,
  "▁put": 3835,
  "lambda": 3836,
  "ేశ": 3837,
  "▁lag": 3838,
  "SET": 3839,
  "Lock": 3840,
  "rodu": 3841,
  "tick": 3842,
  "▁comb": 3843,
  "▁shir": 3844,
  "▁salary": 3845,
  "▁generated": 3846,
  "-4": 3847,
  "▁800": 3848,
  "▁OFF": 3849,
  "▁race": 3850,
  "▁inequ": 3851,
  "▁Single": 3852,
  "▁ounces": 3853,
  "▁$8": 3854,
  "▁1/6": 3855,
  "▁Work": 3856,
  "search": 3857,
  "▁family": 3858,
  "Con": 3859,
  "▁include": 3860,
  "▁rank": 3861,
  "▁Jack": 3862,
  "▁rabb": 3863,
  "▁reads": 3864,
  "▁minute": 3865,
  "▁natural": 3866,
  "+5": 3867,
  "▁≥": 3868,
  "ATE": 3869,
  "admin": 3870,
  "▁Next": 3871,
  "▁pointer": 3872,
  "▁variety": 3873,
  "2),": 3874,
  "వార": 3875,
  "▁(7": 3876,
  "▁0.3": 3877,
  "greSQL": 3878,
  "▁Joint": 3879,
  "▁income": 3880,
  "wh": 3881,
  "▁ke": 3882,
  "▁food": 3883,
  "స్తున్నారు": 3884,
  "▁buildings": 3885,
  "▁PostgreSQL": 3886,
  "▁going": 3887,
  "▁places": 3888,
  "];": 3889,
  "ipp": 3890,
  "▁37": 3891,
  "▁50%": 3892,
  "▁0.05": 3893,
  "ైన": 3894,
  "ాడు": 3895,
  "cial": 3896,
  "https": 3897,
  "venue": 3898,
  "▁hold": 3899,
  "Series": 3900,
  "▁successfully": 3901,
  ".$": 3902,
  "''(": 3903,
  "▁63": 3904,
  "▁66": 3905,
  "ిల్ల": 3906,
  "distance": 3907,
  "▁behavior": 3908,
  "Ar": 3909,
  "▁say": 3910,
  "▁OFFSET": 3911,
  "▁object": 3912,
  "▁parallel": 3913,
  "▁derivatives": 3914,
  "quad": 3915,
  "▁remov": 3916,
  "Search": 3917,
  "▁strateg": 3918,
  "alp": 3919,
  "xyz": 3920,
  "▁31": 3921,
  "aper": 3922,
  "audit": 3923,
  "▁adjac": 3924,
  "▁బావులు": 3925,
  "overline": 3926,
  "solution": 3927,
  "▁dict": 3928,
  "▁gave": 3929,
  "secutive": 3930,
  "ొస": 3931,
  "▁ge": 3932,
  "▁12.": 3933,
  "▁har": 3934,
  "▁200,": 3935,
  "▁Sorted": 3936,
  "▁10)": 3937,
  "▁cha": 3938,
  "▁Array": 3939,
  "$:": 3940,
  "▁claim": 3941,
  "▁constraints": 3942,
  "sys": 3943,
  "Free": 3944,
  "ారుదల": 3945,
  "ailable": 3946,
  "▁Atomic": 3947,
  "▁outcomes": 3948,
  "▁resolution": 3949,
  "play": 3950,
  "▁0.4": 3951,
  "▁node": 3952,
  "▁central": 3953,
  "(3,": 3954,
  "సెం": 3955,
  "▁Col": 3956,
  "▁You": 3957,
  "▁separ": 3958,
  "▁techn": 3959,
  "▁Rotated": 3960,
  "▁analyze": 3961,
  "▁Circular": 3962,
  "rot": 3963,
  "▁$20": 3964,
  "ellow": 3965,
  "▁isol": 3966,
  "include": 3967,
  "▁checks": 3968,
  "82": 3969,
  "uth": 3970,
  "▁good": 3971,
  "▁answers": 3972,
  "▁neutral": 3973,
  "▁satisfy": 3974,
  "}{3": 3975,
  "▁aud": 3976,
  "stream": 3977,
  "PSC": 3978,
  "cep": 3979,
  "▁Ro": 3980,
  "ufact": 3981,
  "▁measure": 3982,
  "56": 3983,
  "mar": 3984,
  "comb": 3985,
  "ators": 3986,
  "▁libr": 3987,
  "▁magn": 3988,
  "▁Buffer": 3989,
  "iving": 3990,
  "▁City": 3991,
  "▁infin": 3992,
  "ecurity": 3993,
  "ferences": 3994,
  "▁pipeline": 3995,
  "_0006": 3996,
  "▁against": 3997,
  "▁combined": 3998,
  "▁చేస్తున్నారు": 3999,
  "':": 4000,
  "ids": 4001,
  "}$$": 4002,
  "▁dog": 4003,
  "▁cube": 4004,
  "▁వస్తు": 4005,
  "neutral": 4006,
  "▁requires": 4007,
  "గ్": 4008,
  "glish": 4009,
  "▁కోసం": 4010,
  "alpaca": 4011,
  "_78": 4012,
  "▁Can": 4013,
  "bil": 4014,
  "▁conflict": 4015,
  "▁principal": 4016,
  "ల్లి": 4017,
  "inter": 4018,
  "▁96": 4019,
  "sent": 4020,
  "▁Ind": 4021,
  "ERROR": 4022,
  "▁5/18": 4023,
  "syslog": 4024,
  "▁amplitude": 4025,
  "▁39": 4026,
  "▁tax": 4027,
  "plies": 4028,
  "▁tickets": 4029,
  "▁manufact": 4030,
  "▁uses": 4031,
  "▁therm": 4032,
  "▁రోజుకు": 4033,
  "contradiction": 4034,
  "no": 4035,
  "▁25%": 4036,
  "▁hel": 4037,
  "▁platform": 4038,
  "▁wind": 4039,
  "1),": 4040,
  "ొసై": 4041,
  "▁exists": 4042,
  "*5": 4043,
  "...": 4044,
  "rows": 4045,
  "since": 4046,
  "ొసైటీ": 4047,
  "▁Pass": 4048,
  "▁propag": 4049,
  "▁సొసైటీ": 4050,
  "▁Question": 4051,
  "▁IN": 4052,
  "▁db": 4053,
  "ects": 4054,
  "▁fru": 4055,
  "▁These": 4056,
  "filepath": 4057,
  "▁optimization": 4058,
  "చ్": 4059,
  "lit": 4060,
  "▁cyl": 4061,
  "▁perfect": 4062,
  "▁identity": 4063,
  "assi": 4064,
  "▁regular": 4065,
  "▁మార్కెటింగ్": 4066,
  "బ్లీ": 4067,
  "▁sensi": 4068,
  "▁delete": 4069,
  "▁record": 4070,
  "స్త": 4071,
  "lack": 4072,
  "lect": 4073,
  "▁valid": 4074,
  "సెంబ్లీ": 4075,
  "▁scored": 4076,
  "31": 4077,
  "hi": 4078,
  "\"\"\"": 4079,
  "10,": 4080,
  "▁er": 4081,
  "▁-->": 4082,
  "▁own": 4083,
  "▁account": 4084,
  "dle": 4085,
  "Gamma": 4086,
  "▁Back": 4087,
  "▁fetch": 4088,
  "▁sever": 4089,
  "▁starting": 4090,
  ":00": 4091,
  "▁fit": 4092,
  "▁deleted": 4093,
  "▁అసెంబ్లీ": 4094,
  "▁consecutive": 4095,
  "-5": 4096,
  "0);": 4097,
  "▁spend": 4098,
  "latency": 4099,
  "▁called": 4100,
  "▁resolved": 4101,
  "81": 4102,
  "let": 4103,
  "ault": 4104,
  "▁Int": 4105,
  "▁లభి": 4106,
  "^5": 4107,
  "ooth": 4108,
  "ోంది": 4109,
  "▁once": 4110,
  "▁Print": 4111,
  "▁public": 4112,
  "ke": 4113,
  "ergy": 4114,
  "host": 4115,
  "ంచిన": 4116,
  "overn": 4117,
  "▁sells": 4118,
  "▁strict": 4119,
  "▁thermal": 4120,
  "▁vectors": 4121,
  "▁relatively": 4122,
  "41": 4123,
  "ంటలు": 4124,
  "▁Found": 4125,
  "-2)": 4126,
  "body": 4127,
  "ceeds": 4128,
  "▁With": 4129,
  "▁profiles": 4130,
  "%)": 4131,
  "cut": 4132,
  "msg": 4133,
  "▁App": 4134,
  "^2,": 4135,
  "unch": 4136,
  "clusion": 4137,
  "(*)": 4138,
  "▁46": 4139,
  "mark": 4140,
  "▁0.6": 4141,
  "▁major": 4142,
  "▁diagon": 4143,
  "▁represented": 4144,
  "్రీ": 4145,
  "▁#5": 4146,
  "event": 4147,
  "▁sell": 4148,
  "▁image": 4149,
  "tee": 4150,
  "▁early": 4151,
  "▁40%": 4152,
  "▁tor": 4153,
  "▁begin": 4154,
  "▁instances": 4155,
  "▁approximate": 4156,
  "▁operational": 4157,
  "=$": 4158,
  "_8": 4159,
  "otes": 4160,
  "isted": 4161,
  "▁File": 4162,
  "▁York": 4163,
  "▁drift": 4164,
  "▁smooth": 4165,
  "▁download": 4166,
  "ST": 4167,
  "pop": 4168,
  "uel": 4169,
  "▁Acc": 4170,
  "airs": 4171,
  "▁1/5": 4172,
  "▁Sum": 4173,
  "reach": 4174,
  "▁5000": 4175,
  "depend": 4176,
  "▁పంటలు": 4177,
  "▁column": 4178,
  "విధ": 4179,
  "gebra": 4180,
  "ition": 4181,
  "recip": 4182,
  "▁\"/": 4183,
  "▁Bo": 4184,
  "▁mer": 4185,
  "▁plot": 4186,
  "▁అవసరాల": 4187,
  "▁whether": 4188,
  "▁efficient": 4189,
  "▁వస్తువులు": 4190,
  "▁-\\": 4191,
  "▁Is": 4192,
  "▁12)": 4193,
  "urther": 4194,
  "▁neighb": 4195,
  "▁rational": 4196,
  "ago": 4197,
  "duk": 4198,
  "▁నీటిప": 4199,
  "▁propagation": 4200,
  "eq": 4201,
  "resolve": 4202,
  "Security": 4203,
  "izes": 4204,
  "=4": 4205,
  "▁పు": 4206,
  "_006": 4207,
  "tice": 4208,
  "ended": 4209,
  "▁numpy": 4210,
  "▁pencils": 4211,
  "▁నీటిపారుదల": 4212,
  "▁లభిస్తున్న": 4213,
  "▁allocations": 4214,
  "/4)": 4215,
  "div": 4216,
  "len": 4217,
  "▁స్": 4218,
  "amber": 4219,
  "aries": 4220,
  "ories": 4221,
  "ctions": 4222,
  "▁atomic": 4223,
  "▁commit": 4224,
  "▁gallons": 4225,
  "classmethod": 4226,
  "oren": 4227,
  "▁$15": 4228,
  "tient": 4229,
  "▁loads": 4230,
  "▁baseline": 4231,
  "init": 4232,
  "iding": 4233,
  "▁hous": 4234,
  "▁risk": 4235,
  "▁empty": 4236,
  "▁వివిధ": 4237,
  "▁female": 4238,
  "▁randomly": 4239,
  ")}": 4240,
  "▁0:": 4241,
  "▁dump": 4242,
  "▁tear": 4243,
  "▁delays": 4244,
  "▁produces": 4245,
  "▁అవుతున్న": 4246,
  "=[\"": 4247,
  "orenz": 4248,
  "▁events": 4249,
  "▁అవుతున్నాయి": 4250,
  "71": 4251,
  ".2.": 4252,
  "▁rs": 4253,
  "▁III": 4254,
  "▁rewrite": 4255,
  "▁increases": 4256,
  "asket": 4257,
  "▁here": 4258,
  "▁wall": 4259,
  "ometry": 4260,
  "exceeds": 4261,
  "▁permut": 4262,
  "▁theory": 4263,
  "less": 4264,
  "▁124.": 4265,
  "▁Euro": 4266,
  "▁Send": 4267,
  "▁suit": 4268,
  "▁faster": 4269,
  "▁Passage": 4270,
  "5829": 4271,
  "=8": 4272,
  "KB": 4273,
  "▁All": 4274,
  "percent": 4275,
  "▁transp": 4276,
  "=(": 4277,
  "top": 4278,
  "aches": 4279,
  "▁denominator": 4280,
  "▁bat": 4281,
  "Audit": 4282,
  "▁Runge": 4283,
  "▁Delete": 4284,
  "hostname": 4285,
  "▁archive": 4286,
  "▁mathema": 4287,
  "▁timeout": 4288,
  "▁Extracted": 4289,
  "200": 4290,
  "▁99": 4291,
  "Kutta": 4292,
  "▁cans": 4293,
  "▁ping": 4294,
  "▁resid": 4295,
  "▁Created": 4296,
  "చ్చ": 4297,
  "▁oil": 4298,
  "▁color": 4299,
  "▁world": 4300,
  "deleted": 4301,
  "▁started": 4302,
  "dns": 4303,
  "▁0.9": 4304,
  "▁tre": 4305,
  "scill": 4306,
  "▁Other": 4307,
  "▁Required": 4308,
  "▁hostname": 4309,
  "▁notification": 4310,
  "▁reachability": 4311,
  "}}`": 4312,
  "▁['": 4313,
  "grep": 4314,
  "▁Grep": 4315,
  "▁sine": 4316,
  "582912}": 4317,
  "recipient": 4318,
  "▁12582912}": 4319,
  "▁combination": 4320,
  "IM": 4321,
  "des": 4322,
  "sim": 4323,
  "▁84": 4324,
  "=\"*.": 4325,
  "cing": 4326,
  "next": 4327,
  "▁1}`": 4328,
  "▁\"1.0": 4329,
  "▁median": 4330,
  "CD": 4331,
  "bal": 4332,
  "ley": 4333,
  "ుతోంది": 4334,
  "▁1.0.2.": 4335,
  "▁higher": 4336,
  "▁uptime": 4337,
  "▁circles": 4338,
  "▁immediately": 4339,
  ".2\",": 4340,
  "uptime": 4341,
  "▁2.4}`": 4342,
  "▁45091": 4343,
  "▁Saved": 4344,
  "▁36000,": 4345,
  "▁Backup": 4346,
  "reachable": 4347,
  "▁\"1.0.2\",": 4348,
  "▁operation": 4349,
  "run": 4350,
  "▁360": 4351,
  "89\"}`": 4352,
  "▁124}`": 4353,
  "▁making": 4354,
  "▁45091}`": 4355,
  "set": 4356,
  "▁$7": 4357,
  "mean": 4358,
  "▁art": 4359,
  "▁fixed": 4360,
  "▁influ": 4361,
  "▁itself": 4362,
  "SW": 4363,
  "iss": 4364,
  "▁date": 4365,
  "▁switch": 4366,
  "▁సాగునీ": 4367,
  "▁జరుగుతోంది": 4368,
  "▁3*": 4369,
  "pass": 4370,
  "▁land": 4371,
  "▁sale": 4372,
  "▁weigh": 4373,
  "▁parameter": 4374,
  "3:": 4375,
  "nd": 4376,
  "▁3),": 4377,
  "▁elect": 4378,
  "▁Product": 4379,
  "▁(\\": 4380,
  "vari": 4381,
  "▁(1-": 4382,
  "▁bir": 4383,
  "▁gas": 4384,
  "▁backend": 4385,
  "=5": 4386,
  "══": 4387,
  "iter": 4388,
  "^(-1)": 4389,
  "atures": 4390,
  "▁—": 4391,
  "▁OR": 4392,
  "entim": 4393,
  "▁Which": 4394,
  "iminate": 4395,
  "▁billion": 4396,
  "▁cluster": 4397,
  "▁ep": 4398,
  "▁hrs": 4399,
  "ument": 4400,
  "▁Indi": 4401,
  "▁coins": 4402,
  "▁dirty": 4403,
  "abilities": 4404,
  "▁directly": 4405,
  "▁component": 4406,
  ".5,": 4407,
  "▁సాగునీరు": 4408,
  "aps": 4409,
  "▁TTL": 4410,
  "▁nec": 4411,
  "iness": 4412,
  "▁chamber": 4413,
  "▁transmit": 4414,
  "^2+": 4415,
  "ugu": 4416,
  "▁Add": 4417,
  "▁foot": 4418,
  "▁centim": 4419,
  "▁energy": 4420,
  "▁initiate": 4421,
  "▁projective": 4422,
  "▁hy": 4423,
  "▁His": 4424,
  "▁oscill": 4425,
  "▁resulting": 4426,
  "ేష": 4427,
  ".0,": 4428,
  "ape": 4429,
  "otic": 4430,
  "▁audits": 4431,
  "/18": 4432,
  "▁-4": 4433,
  "▁Val": 4434,
  "adiff": 4435,
  "▁Chic": 4436,
  "▁note": 4437,
  "cutover": 4438,
  "▁routers": 4439,
  "▁updates": 4440,
  "Migrating": 4441,
  "▁Maintain": 4442,
  "▁datadiff": 4443,
  "▁teardown": 4444,
  "▁factorial": 4445,
  "ney": 4446,
  "och": 4447,
  "▁6**:": 4448,
  "▁move": 4449,
  "▁alone": 4450,
  "▁filled": 4451,
  "▁Replication": 4452,
  "jo": 4453,
  "°)": 4454,
  "aily": 4455,
  "▁Rem": 4456,
  "▁assig": 4457,
  "▁individuals": 4458,
  "pen": 4459,
  "▁law": 4460,
  "_0007": 4461,
  "▁According": 4462,
  "az": 4463,
  "ండల": 4464,
  "▁mi": 4465,
  "▁జిల్ల": 4466,
  "▁growth": 4467,
  "position": 4468,
  ")*": 4469,
  "▁identify": 4470,
  "ki": 4471,
  "సు": 4472,
  "▁88": 4473,
  "▁సంత": 4474,
  "▁Compute": 4475,
  "▁quarter": 4476,
  "ef": 4477,
  "▁able": 4478,
  "▁indu": 4479,
  "▁Point": 4480,
  "▁artic": 4481,
  "▁genus": 4482,
  "▁adjacent": 4483,
  "▁∈": 4484,
  "▁5%": 4485,
  "▁dem": 4486,
  "▁bucket": 4487,
  "▁brother": 4488,
  "▁triangles": 4489,
  "▁directions": 4490,
  "▁△": 4491,
  "12,": 4492,
  "▁serv": 4493,
  "▁pizza": 4494,
  ")$.": 4495,
  "125": 4496,
  "▁eg": 4497,
  "pple": 4498,
  "▁Lo": 4499,
  "rium": 4500,
  "tesian": 4501,
  "▁Chicago": 4502,
  "▁concent": 4503,
  "▁details": 4504,
  "AR": 4505,
  "iam": 4506,
  "unt": 4507,
  "ush": 4508,
  "▁mu": 4509,
  "▁Jul": 4510,
  "▁black": 4511,
  "ram": 4512,
  "▁2),": 4513,
  "ashed": 4514,
  "▁soft": 4515,
  "▁algebra": 4516,
  "▁binomial": 4517,
  "▁considered": 4518,
  "{(": 4519,
  "def": 4520,
  "ifth": 4521,
  "▁15.": 4522,
  "▁Del": 4523,
  "▁English": 4524,
  "▁minimize": 4525,
  "▁traveled": 4526,
  "bstituting": 4527,
  "▁192.168.1.": 4528,
  "=\"192.168.1.": 4529,
  "▁\"192.168.1.": 4530,
  "://192.168.1.": 4531,
  "-25": 4532,
  "orre": 4533,
  "▁chocol": 4534,
  "▁orders": 4535,
  "▁Mr": 4536,
  "ills": 4537,
  "vial": 4538,
  "▁12,": 4539,
  "▁card": 4540,
  "▁defin": 4541,
  "▁Express": 4542,
  "▁ten": 4543,
  "enuse": 4544,
  "▁significant": 4545,
  "uid": 4546,
  "గ్గ": 4547,
  "▁tall": 4548,
  "▁north": 4549,
  "ception": 4550,
  "▁circuit": 4551,
  "123": 4552,
  "▁5:": 4553,
  "▁>=": 4554,
  "రం": 4555,
  "fol": 4556,
  "key": 4557,
  "base": 4558,
  "▁మండల": 4559,
  "▁coupl": 4560,
  "▁ensure": 4561,
  "▁quanti": 4562,
  "ky": 4563,
  "వా": 4564,
  "=10": 4565,
  "▁!=": 4566,
  "core": 4567,
  "hedral": 4568,
  "▁10000": 4569,
  "▁routing": 4570,
  "▁potential": 4571,
  "▁centimeters": 4572,
  "$-": 4573,
  "}_": 4574,
  ".\"\"\"": 4575,
  "ears": 4576,
  "▁cups": 4577,
  "▁turn": 4578,
  "▁flash": 4579,
  "▁market": 4580,
  "▁several": 4581,
  "^{-": 4582,
  "blems": 4583,
  "olume": 4584,
  "▁0.25": 4585,
  "▁types": 4586,
  "▁candid": 4587,
  "▁register": 4588,
  "▁Substitute": 4589,
  ")|": 4590,
  "cls": 4591,
  "▁$0": 4592,
  "▁cents": 4593,
  "▁construction": 4594,
  "OR": 4595,
  "subs": 4596,
  "▁And": 4597,
  "active": 4598,
  "▁circum": 4599,
  "▁chaotic": 4600,
  "▁oranges": 4601,
  "spec": 4602,
  "▁Out": 4603,
  "netic": 4604,
  "▁prac": 4605,
  "▁grade": 4606,
  "▁simul": 4607,
  "▁leaves": 4608,
  "▁available": 4609,
  "▁du": 4610,
  "limit": 4611,
  "▁keep": 4612,
  "▁rabbits": 4613,
  "dependent": 4614,
  "రప": 4615,
  "▁ft": 4616,
  "▁Morse": 4617,
  "▁bread": 4618,
  "▁highest": 4619,
  "▁similar": 4620,
  "placement": 4621,
  "▁couplers": 4622,
  "week": 4623,
  "nings": 4624,
  "onday": 4625,
  "ుల": 4626,
  "/5)": 4627,
  "456": 4628,
  "van": 4629,
  "▁Lu": 4630,
  "based": 4631,
  "▁(100": 4632,
  "▁rather": 4633,
  "▁segment": 4634,
  "160": 4635,
  "attle": 4636,
  "▁1/12": 4637,
  "action": 4638,
  "▁Europe": 4639,
  "▁modulo": 4640,
  "▁pointers": 4641,
  "▁isolation": 4642,
  "pre": 4643,
  "}{4": 4644,
  "▁IP": 4645,
  "▁చేయ": 4646,
  "▁boat": 4647,
  "subgroups": 4648,
  "▁included": 4649,
  "▁eigenvalues": 4650,
  "▁integration": 4651,
  ")\\": 4652,
  "_008": 4653,
  "race": 4654,
  "ibrium": 4655,
  "▁meter": 4656,
  "▁annual": 4657,
  "▁simplify": 4658,
  "▁β": 4659,
  "(4,": 4660,
  "data": 4661,
  "▁bric": 4662,
  "▁help": 4663,
  "▁scen": 4664,
  "▁subs": 4665,
  "▁earned": 4666,
  "▁equival": 4667,
  "▁evaluate": 4668,
  "nx": 4669,
  "(5)": 4670,
  "with": 4671,
  "వారీ": 4672,
  "▁getting": 4673,
  "▁మార్కెట్": 4674,
  "▁మొ": 4675,
  "▁Bri": 4676,
  "▁beta": 4677,
  "▁indic": 4678,
  "▁recur": 4679,
  "▁angles": 4680,
  "▁questions": 4681,
  "ED": 4682,
  "త్": 4683,
  "tok": 4684,
  "▁77": 4685,
  "ding": 4686,
  "▁Jan": 4687,
  "ratio": 4688,
  "▁gain": 4689,
  "▁areas": 4690,
  "▁జిల్లా": 4691,
  "▁variance": 4692,
  "▁రోజువారీ": 4693,
  "OOM": 4694,
  "ession": 4695,
  "ounted": 4696,
  "▁upper": 4697,
  "▁enough": 4698,
  "▁references": 4699,
  "abu": 4700,
  "ప్ప": 4701,
  "▁Fri": 4702,
  "▁fig": 4703,
  "▁spends": 4704,
  "bar": 4705,
  "rop": 4706,
  "▁Ca": 4707,
  "_014": 4708,
  "▁6.0": 4709,
  "▁Plug": 4710,
  "▁goes": 4711,
  "Designing": 4712,
  "▁composite": 4713,
  "-8": 4714,
  "2(": 4715,
  "▁47": 4716,
  "▁trig": 4717,
  "ateral": 4718,
  "▁shown": 4719,
  "▁obtained": 4720,
  "▁understand": 4721,
  "=6": 4722,
  "▁vi": 4723,
  "▁0$.": 4724,
  "▁dam": 4725,
  "_0009": 4726,
  "▁Cache": 4727,
  "{5": 4728,
  "cks": 4729,
  "▁ol": 4730,
  "▁30%": 4731,
  "▁60%": 4732,
  "▁air": 4733,
  "▁slo": 4734,
  "▁triple": 4735,
  "▁solving": 4736,
  "sm": 4737,
  "▁Ph": 4738,
  "▁{2,": 4739,
  "▁near": 4740,
  "▁strategy": 4741,
  "▁subgroups": 4742,
  "▁prom": 4743,
  "▁sand": 4744,
  "▁Index": 4745,
  "rank": 4746,
  "▁became": 4747,
  "▁country": 4748,
  "▁markers": 4749,
  "▁problems": 4750,
  "▁reference": 4751,
  "St": 4752,
  "400": 4753,
  "bert": 4754,
  "▁est": 4755,
  "▁Gaus": 4756,
  "1(": 4757,
  "---": 4758,
  "▁4*": 4759,
  "▁El": 4760,
  "▁passes": 4761,
  "▁tensor": 4762,
  "0.5": 4763,
  "(10,": 4764,
  "loader": 4765,
  "▁altern": 4766,
  "▁denoted": 4767,
  "▁dimensions": 4768,
  "IN": 4769,
  "ev": 4770,
  "na": 4771,
  "squ": 4772,
  "▁-5": 4773,
  "elly": 4774,
  "gory": 4775,
  "▁4),": 4776,
  "▁Cal": 4777,
  "▁Case": 4778,
  "raction": 4779,
  "▁receive": 4780,
  "▁revenue": 4781,
  "deg": 4782,
  "goal": 4783,
  "▁(20": 4784,
  "▁arc": 4785,
  "hours": 4786,
  "▁cycle": 4787,
  "▁false": 4788,
  "▁short": 4789,
  "▁సహకార": 4790,
  "▁lookup": 4791,
  "▁speeds": 4792,
  "linewidth": 4793,
  "▁important": 4794,
  "^2$": 4795,
  "dec": 4796,
  "lor": 4797,
  "▁1),": 4798,
  "▁sing": 4799,
  "▁rollout": 4800,
  "▁bootloader": 4801,
  "EM": 4802,
  "▁La": 4803,
  "▁Pa": 4804,
  "aling": 4805,
  "erson": 4806,
  "▁11.": 4807,
  "▁aff": 4808,
  "▁1200": 4809,
  "▁United": 4810,
  "▁consists": 4811,
  "hat": 4812,
  "▁62": 4813,
  "come": 4814,
  "ored": 4815,
  "zero": 4816,
  "tected": 4817,
  "▁World": 4818,
  "▁floor": 4819,
  "ategory": 4820,
  "▁parent": 4821,
  "▁station": 4822,
  "▁satisfies": 4823,
  "+\\": 4824,
  "▁rain": 4825,
  "▁repl": 4826,
  "ఎమ్": 4827,
  "ison": 4828,
  "▁rev": 4829,
  "▁inves": 4830,
  "▁complement": 4831,
  "▁independent": 4832,
  ".)": 4833,
  "}.\\]": 4834,
  "న్ని": 4835,
  "▁3/4": 4836,
  "points": 4837,
  "numbers": 4838,
  "▁finite": 4839,
  "▁hypothes": 4840,
  "▁Cartesian": 4841,
  "▁Deploying": 4842,
  "▁properties": 4843,
  "1/": 4844,
  "/20": 4845,
  "True": 4846,
  "need": 4847,
  "roll": 4848,
  "plify": 4849,
  "▁said": 4850,
  "▁apart": 4851,
  "▁α": 4852,
  "▁Ge": 4853,
  "▁కొ": 4854,
  "▁Her": 4855,
  "elugu": 4856,
  "▁milk": 4857,
  "▁piece": 4858,
  "▁metres": 4859,
  "ological": 4860,
  "▁divisors": 4861,
  "ించ": 4862,
  "▁('": 4863,
  "▁Mon": 4864,
  "▁park": 4865,
  "▁possibil": 4866,
  "-0": 4867,
  ".00": 4868,
  "iron": 4869,
  "▁won": 4870,
  "books": 4871,
  "టీఎమ్": 4872,
  "▁pipe": 4873,
  "▁assert": 4874,
  "▁necess": 4875,
  "▁evidence": 4876,
  "▁began": 4877,
  "▁library": 4878,
  "▁Indexing": 4879,
  "▁conclusion": 4880,
  "kg": 4881,
  "▁Cl": 4882,
  "abor": 4883,
  "ript": 4884,
  "▁buys": 4885,
  "▁business": 4886,
  "ym": 4887,
  "DER": 4888,
  "alth": 4889,
  "▁సంఘ": 4890,
  "_0004": 4891,
  "ondon": 4892,
  "▁sche": 4893,
  "▁James": 4894,
  "▁bulbs": 4895,
  "▁party": 4896,
  "▁Lorenz": 4897,
  "▁signal": 4898,
  "▁slices": 4899,
  "▁history": 4900,
  "▁estimate": 4901,
  "▁eliminate": 4902,
  "▁ide": 4903,
  "orrow": 4904,
  "▁designed": 4905,
  "▁ON": 4906,
  "aged": 4907,
  "diff": 4908,
  "▁lay": 4909,
  "▁Char": 4910,
  "▁London": 4911,
  "▁hypotenuse": 4912,
  "etic": 4913,
  "▁Div": 4914,
  "ridge": 4915,
  "▁consum": 4916,
  "▁finish": 4917,
  "▁investment": 4918,
  "tan": 4919,
  "▁Cent": 4920,
  "▁went": 4921,
  "▁monthly": 4922,
  "4_": 4923,
  "▁BY": 4924,
  "ules": 4925,
  "▁వరి": 4926,
  "▁easy": 4927,
  "▁free": 4928,
  "సి": 4929,
  "lev": 4930,
  "rror": 4931,
  "FATAL": 4932,
  "▁ఏటీఎమ్": 4933,
  "▁Theorem": 4934,
  "▁suitable": 4935,
  "tr": 4936,
  "stra": 4937,
  "▁144": 4938,
  "▁Mat": 4939,
  "▁leg": 4940,
  "lying": 4941,
  "▁watch": 4942,
  "▁factory": 4943,
  "rem": 4944,
  "ante": 4945,
  "unction": 4946,
  "pm": 4947,
  "cont": 4948,
  "oper": 4949,
  "▁తెలు": 4950,
  "▁లోపు": 4951,
  "lished": 4952,
  "▁phase": 4953,
  "triangle": 4954,
  "▁described": 4955,
  "▁programming": 4956,
  "mary": 4957,
  "▁SPI": 4958,
  "▁0.01": 4959,
  "▁Some": 4960,
  "▁late": 4961,
  "/15": 4962,
  "3),": 4963,
  "▁ln": 4964,
  "cise": 4965,
  "▁Key": 4966,
  "pping": 4967,
  "▁cong": 4968,
  "▁Initialize": 4969,
  "▁1]": 4970,
  "from": 4971,
  "ailed": 4972,
  "▁Arch": 4973,
  "▁వెలు": 4974,
  "▁agent": 4975,
  "▁houses": 4976,
  "▁implies": 4977,
  "▁ఒ": 4978,
  "}{2": 4979,
  "ctal": 4980,
  "▁20)": 4981,
  "irect": 4982,
  "random": 4983,
  "though": 4984,
  "▁Christ": 4985,
  "▁Plugging": 4986,
  "_007": 4987,
  "tish": 4988,
  "▁swe": 4989,
  "rypted": 4990,
  "▁brown": 4991,
  "▁church": 4992,
  "▁occurs": 4993,
  "rightarrow": 4994,
  ".4": 4995,
  "62": 4996,
  "నే": 4997,
  "(5,": 4998,
  "▁My": 4999,
  "plot": 5000,
  "▁210": 5001,
  "▁fox": 5002,
  "▁pup": 5003,
  "▁yellow": 5004,
  "▁passeng": 5005,
  "'?": 5006,
  "{2}": 5007,
  "olic": 5008,
  "▁443": 5009,
  "▁thus": 5010,
  "▁listed": 5011,
  "▁review": 5012,
  "▁software": 5013,
  "▁slope": 5014,
  "▁neighbor": 5015,
  "▁hypothesis": 5016,
  "Eq": 5017,
  "180": 5018,
  "leq": 5019,
  "▁2\\": 5020,
  "▁Fe": 5021,
  "ేషన్": 5022,
  "plane": 5023,
  "▁Mary": 5024,
  "▁safe": 5025,
  "▁tool": 5026,
  "▁provided": 5027,
  "▁determinant": 5028,
  "ded": 5029,
  "gon": 5030,
  "_009": 5031,
  "xture": 5032,
  "▁Similar": 5033,
  "▁timeline": 5034,
  "83": 5035,
  "(100": 5036,
  "reed": 5037,
  "▁epis": 5038,
  "▁payload": 5039,
  "▁equilibrium": 5040,
  "^0": 5041,
  "_7": 5042,
  "ese": 5043,
  "▁Tr": 5044,
  "reet": 5045,
  "▁earn": 5046,
  "▁American": 5047,
  "▁research": 5048,
  "['": 5049,
  "ship": 5050,
  "▁Ins": 5051,
  "▁town": 5052,
  "▁seman": 5053,
  "▁spect": 5054,
  "▁probabilities": 5055,
  "hib": 5056,
  "men": 5057,
  "▁Av": 5058,
  "▁union": 5059,
  "▁Telugu": 5060,
  "▁basket": 5061,
  "▁blocks": 5062,
  "▁cat": 5063,
  "▁past": 5064,
  "cation": 5065,
  "needed": 5066,
  "▁76": 5067,
  "▁__": 5068,
  "radi": 5069,
  "▁song": 5070,
  "▁సంఘం": 5071,
  "▁adult": 5072,
  "▁magnitude": 5073,
  "BC": 5074,
  "+10": 5075,
  "_2)": 5076,
  "rum": 5077,
  "▁(-1": 5078,
  "▁128": 5079,
  "▁mut": 5080,
  "▁Mean": 5081,
  "▁starts": 5082,
  "7:": 5083,
  "▁68": 5084,
  "▁Sub": 5085,
  "▁life": 5086,
  "people": 5087,
  "▁older": 5088,
  "versity": 5089,
  "▁classi": 5090,
  "▁therefore": 5091,
  "ief": 5092,
  "▁2^": 5093,
  "▁81": 5094,
  "itor": 5095,
  "▁Jac": 5096,
  "▁స్ట": 5097,
  "▁candy": 5098,
  "▁chooses": 5099,
  "▁Substituting": 5100,
  "my": 5101,
  "_{\\": 5102,
  "▁20,": 5103,
  "▁secret": 5104,
  "▁approach": 5105,
  "▁customers": 5106,
  "▁significance": 5107,
  "pies": 5108,
  "▁Bar": 5109,
  "▁hen": 5110,
  "▁daily": 5111,
  "▁Working": 5112,
  "▁inequality": 5113,
  "50,": 5114,
  "▁41": 5115,
  "▁105": 5116,
  "▁continuous": 5117,
  "In": 5118,
  "^1(": 5119,
  "పలి": 5120,
  "ూర్": 5121,
  "▁3(": 5122,
  "gest": 5123,
  "▁But": 5124,
  "▁hum": 5125,
  "▁lad": 5126,
  "balls": 5127,
  "▁cone": 5128,
  "▁ORDER": 5129,
  "iem": 5130,
  "▁పె": 5131,
  "▁1/8": 5132,
  "andra": 5133,
  "▁float": 5134,
  "▁worth": 5135,
  "dog": 5136,
  "ony": 5137,
  "uts": 5138,
  "▁58": 5139,
  "▁accu": 5140,
  "▁shor": 5141,
  "isters": 5142,
  "▁impro": 5143,
  "▁commun": 5144,
  "▁తెలుగు": 5145,
  ")=": 5146,
  "▁య": 5147,
  "folio": 5148,
  "▁lear": 5149,
  "▁Peter": 5150,
  "▁press": 5151,
  "▁votes": 5152,
  "▁congru": 5153,
  "▁ordered": 5154,
  "▁decision": 5155,
  "▁positions": 5156,
  "▁transport": 5157,
  "▁equivalent": 5158,
  "[:": 5159,
  "ేత": 5160,
  ")$$": 5161,
  "▁10^": 5162,
  "▁నటి": 5163,
  "▁camp": 5164,
  "▁task": 5165,
  "▁Friday": 5166,
  "▁meaning": 5167,
  "▁వెలుపలి": 5168,
  "▁Addition": 5169,
  "8:": 5170,
  "▁CPU": 5171,
  "▁lock": 5172,
  "▁lost": 5173,
  "▁cylinder": 5174,
  "UR": 5175,
  "▁[(": 5176,
  "IMIT": 5177,
  "▁pen": 5178,
  "imals": 5179,
  "rated": 5180,
  "▁Exception": 5181,
  "▁43": 5182,
  "▁Po": 5183,
  "▁RS": 5184,
  "ందిన": 5185,
  "lobal": 5186,
  "▁asked": 5187,
  "▁teams": 5188,
  "▁78": 5189,
  "▁boy": 5190,
  "▁idx": 5191,
  "model": 5192,
  "uture": 5193,
  "▁(0.0": 5194,
  "▁core": 5195,
  "tograph": 5196,
  "▁friend": 5197,
  "▁Seattle": 5198,
  "▁creating": 5199,
  "+6": 5200,
  "oes": 5201,
  "▁ము": 5202,
  "▁mole": 5203,
  "▁Similarly": 5204,
  "▁7)": 5205,
  "beta": 5206,
  "eros": 5207,
  "▁$0.": 5208,
  "elian": 5209,
  "▁100)": 5210,
  "▁fifth": 5211,
  "▁Monday": 5212,
  "ithmetic": 5213,
  "▁finding": 5214,
  "1}": 5215,
  "9:": 5216,
  "nes": 5217,
  "▁Dec": 5218,
  "▁finally": 5219,
  "▁fitness": 5220,
  "▁returns": 5221,
  "▁collected": 5222,
  "▁constants": 5223,
  "▁representation": 5224,
  ".8": 5225,
  "\\\\": 5226,
  "vey": 5227,
  "▁Te": 5228,
  "▁3.5": 5229,
  "▁పరప": 5230,
  "▁male": 5231,
  "config": 5232,
  "orrect": 5233,
  "▁Count": 5234,
  "▁accid": 5235,
  "▁further": 5236,
  "-1}": 5237,
  "▁82": 5238,
  "(15,": 5239,
  "▁(-1)": 5240,
  "▁Mark": 5241,
  "▁cast": 5242,
  "▁joint": 5243,
  "▁paper": 5244,
  "▁scale": 5245,
  "▁explain": 5246,
  "▁logistic": 5247,
  ".3": 5248,
  "▁లం": 5249,
  "▁వే": 5250,
  "▁√(": 5251,
  "erve": 5252,
  "▁very": 5253,
  "▁పరపతి": 5254,
  "▁handle": 5255,
  "▁tokens": 5256,
  "▁workers": 5257,
  "▁sn": 5258,
  "▁rep": 5259,
  "range": 5260,
  "▁travels": 5261,
  "▁computer": 5262,
  "▁customer": 5263,
  "_9": 5264,
  "clo": 5265,
  "psi": 5266,
  "▁my": 5267,
  "ikes": 5268,
  "block": 5269,
  "▁shop": 5270,
  "linear": 5271,
  "▁harmon": 5272,
  "▁middle": 5273,
  "▁scenari": 5274,
  "▁diagonal": 5275,
  "▁homology": 5276,
  "▁particip": 5277,
  "▁∧": 5278,
  "ics": 5279,
  "REATE": 5280,
  "ంగు": 5281,
  "▁చి": 5282,
  "book": 5283,
  "దగ్గ": 5284,
  "▁eggs": 5285,
  "▁force": 5286,
  "answers": 5287,
  "▁propos": 5288,
  "▁mixture": 5289,
  "population": 5290,
  "▁circumference": 5291,
  "6:": 5292,
  "ole": 5293,
  "▁fore": 5294,
  "▁adding": 5295,
  "▁isomorphism": 5296,
  "▁arrangements": 5297,
  "0))": 5298,
  "ham": 5299,
  "lar": 5300,
  "క్క": 5301,
  "**2)": 5302,
  "bine": 5303,
  "కెలు": 5304,
  "▁(1)": 5305,
  "▁pal": 5306,
  "fetch": 5307,
  "rought": 5308,
  "▁dividing": 5309,
  ")$,": 5310,
  "best": 5311,
  "/100)": 5312,
  "arden": 5313,
  "▁youn": 5314,
  "Memory": 5315,
  "▁chance": 5316,
  "▁చేయదగ్గ": 5317,
  "ీత": 5318,
  "=12": 5319,
  "eth": 5320,
  "ythag": 5321,
  "amount": 5322,
  "▁raise": 5323,
  "▁Length": 5324,
  "▁లంకెలు": 5325,
  "▁Average": 5326,
  "▁profile": 5327,
  "1.5": 5328,
  "zen": 5329,
  "ried": 5330,
  "▁shoes": 5331,
  "▁shirts": 5332,
  "▁iterate": 5333,
  "▁concentration": 5334,
  "80/": 5335,
  "ana": 5336,
  "▁Max": 5337,
  "▁fav": 5338,
  "▁pur": 5339,
  "inary": 5340,
  "olute": 5341,
  "▁effort": 5342,
  "▁slower": 5343,
  "▁NOT": 5344,
  "▁elev": 5345,
  "▁fire": 5346,
  "urface": 5347,
  "tention": 5348,
  "▁Pythag": 5349,
  "▁SELECT": 5350,
  "▁straight": 5351,
  "uff": 5352,
  "rypt": 5353,
  "urrent": 5354,
  "▁Dynam": 5355,
  "▁choice": 5356,
  "▁concept": 5357,
  "▁−": 5358,
  "▁20.0": 5359,
  "▁States": 5360,
  "▁intern": 5361,
  "దు": 5362,
  "rew": 5363,
  "uary": 5364,
  "▁Log": 5365,
  "▁May": 5366,
  "▁During": 5367,
  "▁histor": 5368,
  "▁columns": 5369,
  "▁Id": 5370,
  "▁bi": 5371,
  "▁ate": 5372,
  "power": 5373,
  "▁consist": 5374,
  "▁traveling": 5375,
  "^2\\": 5376,
  "▁130": 5377,
  "▁bet": 5378,
  "orean": 5379,
  "▁systems": 5380,
  ".6": 5381,
  "ూరు": 5382,
  "iform": 5383,
  "itched": 5384,
  "▁CREATE": 5385,
  "▁recover": 5386,
  "▁weights": 5387,
  "}\")": 5388,
  "▁(`": 5389,
  "▁57": 5390,
  "ners": 5391,
  "▁$1.": 5392,
  "▁Min": 5393,
  "ircle": 5394,
  "▁extra": 5395,
  "▁statis": 5396,
  "LL": 5397,
  "50)": 5398,
  "_1_": 5399,
  "▁51": 5400,
  "▁Tom": 5401,
  "▁shift": 5402,
  "clusive": 5403,
  "tically": 5404,
  "▁passed": 5405,
  "▁property": 5406,
  "(1-": 5407,
  "్తి": 5408,
  "}^{\\": 5409,
  "▁2/5": 5410,
  "label": 5411,
  "▁fuel": 5412,
  "▁prin": 5413,
  "_00000": 5414,
  "▁LIMIT": 5415,
  "▁close": 5416,
  "ifference": 5417,
  "▁numerator": 5418,
  "{4": 5419,
  "25)": 5420,
  "ense": 5421,
  "▁ran": 5422,
  "sible": 5423,
  "▁pole": 5424,
  "▁visit": 5425,
  "▁Ensure": 5426,
  "▁neither": 5427,
  "iqu": 5428,
  "▁Be": 5429,
  "▁Em": 5430,
  "▁3/5": 5431,
  "▁choices": 5432,
  "▁removed": 5433,
  "▁walking": 5434,
  "▁((": 5435,
  "▁Ed": 5436,
  "▁py": 5437,
  "▁Ger": 5438,
  "▁hyper": 5439,
  "▁Otherwise": 5440,
  "probability": 5441,
  "^{\\": 5442,
  "▁5*": 5443,
  "izer": 5444,
  "acters": 5445,
  "▁hands": 5446,
  "▁hence": 5447,
  "coordin": 5448,
  "▁analyz": 5449,
  "▁origin": 5450,
  "▁brought": 5451,
  "▁sorting": 5452,
  "10)": 5453,
  "▁67": 5454,
  "▁la": 5455,
  "▁Combine": 5456,
  "▁architectural": 5457,
  "▁PC": 5458,
  "ల్లో": 5459,
  "▁95%": 5460,
  "ously": 5461,
  "▁DynamoDB": 5462,
  "▁invested": 5463,
  "▁tracking": 5464,
  "ణం": 5465,
  "▁Ale": 5466,
  "years": 5467,
  "▁drawn": 5468,
  "▁estab": 5469,
  "▁fewer": 5470,
  "▁singular": 5471,
  "▁permutations": 5472,
  "-6": 5473,
  "AN": 5474,
  "umba": 5475,
  "▁(2)": 5476,
  "▁8.0": 5477,
  "▁CON": 5478,
  "▁trees": 5479,
  "▁Expand": 5480,
  "▁theore": 5481,
  "▁trigon": 5482,
  "▁స్టేషన్": 5483,
  "▁committee": 5484,
  "▁≠": 5485,
  "▁$9": 5486,
  "▁$[": 5487,
  "chie": 5488,
  "json": 5489,
  "▁190": 5490,
  "▁gold": 5491,
  "▁priv": 5492,
  "sample": 5493,
  "▁Delhi": 5494,
  "▁portfolio": 5495,
  "▁structures": 5496,
  "''": 5497,
  "(4)": 5498,
  "▁0.7": 5499,
  "rench": 5500,
  "uming": 5501,
  "▁arri": 5502,
  "▁seek": 5503,
  "mission": 5504,
  "▁Simplify": 5505,
  "క్ష": 5506,
  "▁స్వ": 5507,
  "▁wide": 5508,
  "▁Archite": 5509,
  "▁control": 5510,
  "AD": 5511,
  "`)": 5512,
  "dor": 5513,
  "▁ga": 5514,
  "oids": 5515,
  "sequ": 5516,
  "}}{\\": 5517,
  "▁Sier": 5518,
  "iction": 5519,
  "▁section": 5520,
  "▁updated": 5521,
  "▁initially": 5522,
  "▁signature": 5523,
  "▁collection": 5524,
  "_1,": 5525,
  "dis": 5526,
  "urs": 5527,
  "0));": 5528,
  "etra": 5529,
  "pped": 5530,
  "ured": 5531,
  "ields": 5532,
  "umbai": 5533,
  "▁Fact": 5534,
  "▁House": 5535,
  "50.": 5536,
  "ena": 5537,
  "▁1-": 5538,
  "▁Sec": 5539,
  "▁ban": 5540,
  "▁curves": 5541,
  "▁occurred": 5542,
  "▁multiples": 5543,
  "▁determined": 5544,
  "ln": 5545,
  "det": 5546,
  "▁$|": 5547,
  "▁BC": 5548,
  "conf": 5549,
  "inski": 5550,
  "strip": 5551,
  "▁Gaussian": 5552,
  "▁characters": 5553,
  "భా": 5554,
  "urg": 5555,
  "▁-1.": 5556,
  "▁108": 5557,
  "▁gcd": 5558,
  "month": 5559,
  "▁film": 5560,
  "anging": 5561,
  "▁Jacob": 5562,
  "▁Three": 5563,
  "▁persons": 5564,
  "▁absolute": 5565,
  "(-1": 5566,
  "▁Rec": 5567,
  "▁sam": 5568,
  "▁tit": 5569,
  "cepts": 5570,
  "▁Tech": 5571,
  "1_0000": 5572,
  "apping": 5573,
  "▁belie": 5574,
  "▁script": 5575,
  "▁reaction": 5576,
  "▁receives": 5577,
  "▁Probability": 5578,
  "20)": 5579,
  "▁8)": 5580,
  "open": 5581,
  "▁15,": 5582,
  "agent": 5583,
  "divis": 5584,
  "▁route": 5585,
  "▁covari": 5586,
  "▁digital": 5587,
  "ola": 5588,
  "▁1$": 5589,
  "▁Eq": 5590,
  "term": 5591,
  "▁Haus": 5592,
  "▁poly": 5593,
  "▁void": 5594,
  "▁ప్రా": 5595,
  "▁Additionally": 5596,
  "▁53": 5597,
  "▁Of": 5598,
  "(1).": 5599,
  "▁imp": 5600,
  "gamma": 5601,
  "▁8080": 5602,
  "▁tech": 5603,
  "ensity": 5604,
  "iemann": 5605,
  "▁delay": 5606,
  "▁drink": 5607,
  "▁10,000": 5608,
  "▁Profit": 5609,
  "▁cosine": 5610,
  "assandra": 5611,
  "▁precise": 5612,
  "▁National": 5613,
  "▁examples": 5614,
  "▁infinite": 5615,
  "▁particle": 5616,
  "బ్": 5617,
  "▁80%": 5618,
  "▁doc": 5619,
  "▁east": 5620,
  "▁pens": 5621,
  "▁bottles": 5622,
  "▁optimized": 5623,
  "▁increasing": 5624,
  "sol": 5625,
  "ద్ద": 5626,
  "pmod": 5627,
  "match": 5628,
  "▁guess": 5629,
  "▁played": 5630,
  "▁painter": 5631,
  "▁rotated": 5632,
  "▁checking": 5633,
  "_3_": 5634,
  "lier": 5635,
  "racy": 5636,
  "▁eas": 5637,
  "▁ell": 5638,
  "▁INDE": 5639,
  "enerate": 5640,
  "▁Mumbai": 5641,
  "▁damage": 5642,
  "▁lowest": 5643,
  "▁divides": 5644,
  "140": 5645,
  "cre": 5646,
  "ట్ట": 5647,
  "amed": 5648,
  "comm": 5649,
  "dorff": 5650,
  "▁meas": 5651,
  "1_0004": 5652,
  "▁INDEX": 5653,
  "▁North": 5654,
  "▁seven": 5655,
  "▁typed": 5656,
  "▁thresh": 5657,
  "▁winning": 5658,
  "▁equilateral": 5659,
  "52": 5660,
  "^2.": 5661,
  "unc": 5662,
  "▁ఒక": 5663,
  "rays": 5664,
  "▁1.2": 5665,
  "ority": 5666,
  "▁Babu": 5667,
  "▁Will": 5668,
  "▁hunt": 5669,
  "▁site": 5670,
  "ometric": 5671,
  "▁demand": 5672,
  "▁modern": 5673,
  "▁Hausdorff": 5674,
  "▁purchased": 5675,
  "▁registers": 5676,
  "(8": 5677,
  "4),": 5678,
  "add": 5679,
  "▁US": 5680,
  "▁Che": 5681,
  "enced": 5682,
  "▁Hist": 5683,
  "▁నిర్": 5684,
  "avings": 5685,
  "▁achie": 5686,
  "▁Divide": 5687,
  "▁govern": 5688,
  "▁weekly": 5689,
  "switched": 5690,
  "▁fractal": 5691,
  "▁quantity": 5692,
  "EN": 5693,
  "}.$": 5694,
  "ఖ్య": 5695,
  "rupt": 5696,
  "▁Enduk": 5697,
  "▁polic": 5698,
  "▁rules": 5699,
  "▁depend": 5700,
  "▁placed": 5701,
  "▁నటించిన": 5702,
  "▁requests": 5703,
  "percentage": 5704,
  "▁Endukante": 5705,
  "▁fractions": 5706,
  ")^": 5707,
  "har": 5708,
  "osp": 5709,
  "▁||": 5710,
  "▁15%": 5711,
  "▁Ste": 5712,
  "▁[1,": 5713,
  "▁That": 5714,
  "▁jour": 5715,
  "123456": 5716,
  "▁fruit": 5717,
  "▁సినిమ": 5718,
  "▁occurring": 5719,
  "▁Pythagorean": 5720,
  "li": 5721,
  "(6,": 5722,
  "▁[-": 5723,
  "ront": 5724,
  "▁11,": 5725,
  "inner": 5726,
  "▁split": 5727,
  "▁సాగని": 5728,
  "▁beginning": 5729,
  "▁pagination": 5730,
  "/1": 5731,
  "54": 5732,
  "▁69": 5733,
  "join": 5734,
  "ogram": 5735,
  "▁kind": 5736,
  "▁wood": 5737,
  "pinski": 5738,
  "▁eight": 5739,
  "▁borrow": 5740,
  "▁bottom": 5741,
  "▁CRITICAL": 5742,
  "▁compound": 5743,
  "▁Sierpinski": 5744,
  "0)`": 5745,
  "▁Or": 5746,
  "_003": 5747,
  "▁0$,": 5748,
  "▁spe": 5749,
  "enses": 5750,
  "▁seed": 5751,
  "▁-----": 5752,
  "▁ellip": 5753,
  "▁tetra": 5754,
  "▁School": 5755,
  "▁longer": 5756,
  "ationship": 5757,
  "▁arranged": 5758,
  "▁Cassandra": 5759,
  "▁chocolate": 5760,
  "▁development": 5761,
  ")).": 5762,
  "-3)": 5763,
  "REN": 5764,
  "▁arg": 5765,
  "house": 5766,
  "▁come": 5767,
  "▁forms": 5768,
  "▁abelian": 5769,
  "▁radians": 5770,
  "\"),": 5771,
  "CUR": 5772,
  "ints": 5773,
  "▁256": 5774,
  "▁ice": 5775,
  "▁Sure": 5776,
  "▁coff": 5777,
  "▁scan": 5778,
  "▁course": 5779,
  "▁correctly": 5780,
  "బో": 5781,
  "_2(": 5782,
  "▁fac": 5783,
  "ework": 5784,
  "▁Ange": 5785,
  "▁json": 5786,
  "CURREN": 5787,
  "otient": 5788,
  "▁kilom": 5789,
  "▁liter": 5790,
  "▁global": 5791,
  "-7": 5792,
  "().": 5793,
  "▁($": 5794,
  "abla": 5795,
  "andy": 5796,
  "ములు": 5797,
  "dient": 5798,
  "riers": 5799,
  "achine": 5800,
  "▁Identify": 5801,
  "▁integrate": 5802,
  ".\",": 5803,
  "5),": 5804,
  "Produ": 5805,
  "▁Iter": 5806,
  "▁Lock": 5807,
  "▁Pointers": 5808,
  "▁counting": 5809,
  "▁employee": 5810,
  "▁proportion": 5811,
  "^6": 5812,
  "%),": 5813,
  "{3}": 5814,
  "▁ER": 5815,
  "000,": 5816,
  "▁220": 5817,
  "▁Hel": 5818,
  "▁Sam": 5819,
  "Error": 5820,
  "▁motion": 5821,
  "▁worked": 5822,
  "▁expressed": 5823,
  "57": 5824,
  "61": 5825,
  "car": 5826,
  "▁Pe": 5827,
  "▁os": 5828,
  "▁కా": 5829,
  "▁మా": 5830,
  "most": 5831,
  "▁ste": 5832,
  "after": 5833,
  "▁prove": 5834,
  "▁eigenve": 5835,
  "▁resource": 5836,
  "/60": 5837,
  "ael": 5838,
  "lim": 5839,
  "▁#4": 5840,
  "▁16,": 5841,
  "▁War": 5842,
  "▁pho": 5843,
  "first": 5844,
  "▁plus": 5845,
  "approx": 5846,
  "system": 5847,
  "▁cubes": 5848,
  "▁access": 5849,
  "▁observ": 5850,
  "▁చెందిన": 5851,
  "▁billions": 5852,
  "fl": 5853,
  "ారి": 5854,
  "▁సు": 5855,
  "ious": 5856,
  "▁Row": 5857,
  "▁notes": 5858,
  "▁truck": 5859,
  "▁better": 5860,
  "▁stream": 5861,
  "▁overall": 5862,
  "▁passing": 5863,
  "*1": 5864,
  "enth": 5865,
  "rick": 5866,
  "▁Man": 5867,
  "▁bags": 5868,
  "▁diag": 5869,
  "▁exhib": 5870,
  "▁south": 5871,
  "▁walls": 5872,
  "▁scanning": 5873,
  "▁algebraic": 5874,
  "ళ్": 5875,
  "▁∆": 5876,
  "-06": 5877,
  "equiv": 5878,
  "ledge": 5879,
  "▁view": 5880,
  "uesday": 5881,
  "▁14:00": 5882,
  "3}": 5883,
  "bit": 5884,
  "ele": 5885,
  "మ్మ": 5886,
  "2026": 5887,
  "kmph": 5888,
  "▁Don": 5889,
  "▁Gra": 5890,
  "icult": 5891,
  "{1}{\\": 5892,
  "▁Geor": 5893,
  "▁earns": 5894,
  "▁offer": 5895,
  "▁shows": 5896,
  "▁reduced": 5897,
  "▁various": 5898,
  "3/": 5899,
  "fo": 5900,
  "ades": 5901,
  "▁20.": 5902,
  "▁Art": 5903,
  "▁spo": 5904,
  "▁0.15": 5905,
  "▁girl": 5906,
  "▁survey": 5907,
  "▁located": 5908,
  "▁signals": 5909,
  "▁tetrahed": 5910,
  "▁CONCURREN": 5911,
  "▁congruent": 5912,
  "TLY": 5913,
  "▁59": 5914,
  "▁$18": 5915,
  "▁Des": 5916,
  "▁ballo": 5917,
  "▁holds": 5918,
  "▁yards": 5919,
  "▁allowed": 5920,
  "▁parents": 5921,
  "▁remains": 5922,
  "▁contexts": 5923,
  "▁features": 5924,
  "▁Fl": 5925,
  "▁ago": 5926,
  "Delta": 5927,
  "uplic": 5928,
  "▁Aust": 5929,
  "▁axis": 5930,
  "▁insp": 5931,
  "-06-25": 5932,
  "▁maint": 5933,
  "▁often": 5934,
  "▁tower": 5935,
  "▁14:00:": 5936,
  "▁Avoids": 5937,
  "▁keyset": 5938,
  "▁schedu": 5939,
  "2026-06-25": 5940,
  "▁construct": 5941,
  "▁reflected": 5942,
  "▁semantics": 5943,
  "▁CONCURRENTLY": 5944,
  "▁-6": 5945,
  "▁13,": 5946,
  "plied": 5947,
  "words": 5948,
  "▁fair": 5949,
  "▁rent": 5950,
  "▁stri": 5951,
  "▁Multi": 5952,
  "▁MySQL": 5953,
  "▁compe": 5954,
  "123456',": 5955,
  "────────": 5956,
  "▁promoted": 5957,
  "▁according": 5958,
  "▁('2026-06-25": 5959,
  "lib": 5960,
  "▁సా": 5961,
  "▁dest": 5962,
  "▁birth": 5963,
  "▁plain": 5964,
  "▁prune": 5965,
  "lection": 5966,
  "Producer": 5967,
  "ification": 5968,
  "▁machines": 5969,
  "▁molecular": 5970,
  "+2)": 5971,
  "_004": 5972,
  "hood": 5973,
  "▁(5,": 5974,
  "board": 5975,
  "final": 5976,
  "nabla": 5977,
  "▁care": 5978,
  "▁fails": 5979,
  "▁trace": 5980,
  "▁coffee": 5981,
  "▁animals": 5982,
  "▁barriers": 5983,
  "▁electric": 5984,
  "▁remember": 5985,
  "▁interrupt": 5986,
  "5:": 5987,
  "oriz": 5988,
  "real": 5989,
  "▁225": 5990,
  "▁Ret": 5991,
  "delta": 5992,
  "▁mile": 5993,
  "▁(1/3)": 5994,
  "▁alpha": 5995,
  "▁science": 5996,
  "AM": 5997,
  "2))": 5998,
  "^{2": 5999,
  "dom": 6000,
  "sel": 6001,
  "శ్వ": 6002,
  "▁AC": 6003,
  "▁DB": 6004,
  "▁et": 6005,
  "iment": 6006,
  "sumer": 6007,
  "present": 6008,
  "rotated": 6009,
  "▁Statement": 6010,
  "▁constructed": 6011,
  "*10": 6012,
  "ందు": 6013,
  "ille": 6014,
  "odge": 6015,
  "▁50.": 6016,
  "▁Pol": 6017,
  "▁mom": 6018,
  "define": 6019,
  "▁carry": 6020,
  "▁foxes": 6021,
  "▁organ": 6022,
  "ication": 6023,
  "irected": 6024,
  "▁service": 6025,
  "▁conclude": 6026,
  "▁encrypted": 6027,
  "▁objective": 6028,
  "చి": 6029,
  "ont": 6030,
  "000.": 6031,
  "amps": 6032,
  "▁dro": 6033,
  "bound": 6034,
  "▁SPSC": 6035,
  "▁dice": 6036,
  "▁spsc": 6037,
  "▁offic": 6038,
  "▁attack": 6039,
  "▁garden": 6040,
  "▁content": 6041,
  "▁typedef": 6042,
  "▁continue": 6043,
  "▁gradient": 6044,
  "▁rollback": 6045,
  "▁passengers": 6046,
  "||": 6047,
  "SPSC": 6048,
  "dots": 6049,
  "▁350": 6050,
  "▁Jer": 6051,
  "▁lif": 6052,
  "astic": 6053,
  "rance": 6054,
  "▁0.75": 6055,
  "▁farm": 6056,
  "BUFFER": 6057,
  "orizon": 6058,
  "▁ERROR": 6059,
  "Consumer": 6060,
  "▁January": 6061,
  "▁division": 6062,
  "▁spectrum": 6063,
  "53": 6064,
  "=7": 6065,
  "▁#8": 6066,
  "igma": 6067,
  "inst": 6068,
  "▁15)": 6069,
  "▁270": 6070,
  "▁shut": 6071,
  "▁today": 6072,
  "▁private": 6073,
  "(1/": 6074,
  "_2,": 6075,
  "hel": 6076,
  "టలు": 6077,
  "▁79": 6078,
  "(10)": 6079,
  "leep": 6080,
  "urer": 6081,
  "vert": 6082,
  "▁wor": 6083,
  "▁vide": 6084,
  "combin": 6085,
  "▁Final": 6086,
  "▁jelly": 6087,
  "▁reached": 6088,
  "▁replace": 6089,
  "TM": 6090,
  "+1}": 6091,
  "▁(\"": 6092,
  "▁Dav": 6093,
  "close": 6094,
  "▁...,": 6095,
  "▁1/10": 6096,
  "▁15.0": 6097,
  "▁ones": 6098,
  "▁wins": 6099,
  "ources": 6100,
  "▁basic": 6101,
  "▁stress": 6102,
  "▁crosses": 6103,
  "▁special": 6104,
  "▁సినిమాలు": 6105,
  "▁possibilities": 6106,
  "59": 6107,
  "దేశ": 6108,
  "▁#6": 6109,
  "▁Bet": 6110,
  "▁Imp": 6111,
  "cdots": 6112,
  "valid": 6113,
  "▁dise": 6114,
  "jection": 6115,
  "▁Assume": 6116,
  "▁replaced": 6117,
  "gcd": 6118,
  "pri": 6119,
  "▁87": 6120,
  "ague": 6121,
  "▁$2.": 6122,
  "▁16.": 6123,
  "▁Also": 6124,
  "▁decl": 6125,
  "ultane": 6126,
  "▁bridge": 6127,
  "▁failed": 6128,
  "▁ladder": 6129,
  "▁British": 6130,
  "▁changes": 6131,
  ")2": 6132,
  "▁#3": 6133,
  "▁HM": 6134,
  "title": 6135,
  "▁Cost": 6136,
  "sqlite": 6137,
  "▁decom": 6138,
  "▁sandw": 6139,
  "▁playing": 6140,
  "▁kilogram": 6141,
  "▁receiver": 6142,
  "▁sensitivity": 6143,
  "ii": 6144,
  "▁χ": 6145,
  "(12": 6146,
  "/25": 6147,
  "yal": 6148,
  "ుడు": 6149,
  "▁98": 6150,
  "dies": 6151,
  "rict": 6152,
  "▁480": 6153,
  "mical": 6154,
  "▁Mich": 6155,
  "▁cows": 6156,
  "▁torus": 6157,
  "▁assign": 6158,
  "▁quotient": 6159,
  "▁segments": 6160,
  "ser": 6161,
  "ulum": 6162,
  "▁900": 6163,
  "▁June": 6164,
  "▁bars": 6165,
  "▁cats": 6166,
  "▁econ": 6167,
  "▁util": 6168,
  "▁Based": 6169,
  "▁linked": 6170,
  "▁introdu": 6171,
  "ryptograph": 6172,
  "xi": 6173,
  "abs": 6174,
  "▁Ag": 6175,
  "cher": 6176,
  "udes": 6177,
  "unds": 6178,
  "▁280": 6179,
  "▁శాస": 6180,
  "పల్లి": 6181,
  "▁Mong": 6182,
  "rangle": 6183,
  "▁Black": 6184,
  "▁others": 6185,
  "▁article": 6186,
  "▁equally": 6187,
  "▁multiplying": 6188,
  "తో": 6189,
  "}^2": 6190,
  "▁3}": 6191,
  "aset": 6192,
  "atur": 6193,
  "▁war": 6194,
  "ticks": 6195,
  "▁3600": 6196,
  "andard": 6197,
  "▁faces": 6198,
  "▁sister": 6199,
  "▁decided": 6200,
  "▁purchase": 6201,
  "▁simultane": 6202,
  "√3": 6203,
  "▁^": 6204,
  "^3)": 6205,
  "_1)": 6206,
  "▁30,": 6207,
  "▁Mod": 6208,
  "▁pet": 6209,
  "commit": 6210,
  "▁heads": 6211,
  "▁looking": 6212,
  "▁detected": 6213,
  "▁reasoning": 6214,
  "▁proportional": 6215,
  "rd": 6216,
  "-1]": 6217,
  "mis": 6218,
  "tor": 6219,
  "▁4}": 6220,
  "▁కు": 6221,
  "long": 6222,
  "రావు": 6223,
  "small": 6224,
  "▁Scot": 6225,
  "arters": 6226,
  "rolled": 6227,
  "▁enter": 6228,
  "▁capital": 6229,
  "▁dihedral": 6230,
  ":\",": 6231,
  "ABC": 6232,
  "▁112": 6233,
  "▁13.": 6234,
  "▁Hen": 6235,
  "▁Uni": 6236,
  "lling": 6237,
  "▁grid": 6238,
  "langle": 6239,
  "▁shape": 6240,
  "▁indust": 6241,
  "zz": 6242,
  "▁#2": 6243,
  "▁Hz": 6244,
  "▁sto": 6245,
  "aring": 6246,
  "height": 6247,
  "▁equals": 6248,
  "▁packet": 6249,
  "▁shared": 6250,
  "▁desired": 6251,
  "▁Assuming": 6252,
  "▁European": 6253,
  "▁variations": 6254,
  "cles": 6255,
  "▁(15": 6256,
  "▁512": 6257,
  "▁Ham": 6258,
  "oston": 6259,
  "▁12.0": 6260,
  "▁heat": 6261,
  "▁pend": 6262,
  "sident": 6263,
  "▁expan": 6264,
  "alities": 6265,
  "▁appear": 6266,
  "▁become": 6267,
  "▁remove": 6268,
  "▁Riemann": 6269,
  ")}{": 6270,
  "▁92": 6271,
  "tian": 6272,
  "బోరు": 6273,
  "▁2.0)": 6274,
  "▁bank": 6275,
  "▁శ్రీ": 6276,
  "▁basis": 6277,
  "▁decor": 6278,
  "▁stone": 6279,
  "▁Boston": 6280,
  "▁pressure": 6281,
  "▁sensitive": 6282,
  "Sy": 6283,
  "oo": 6284,
  "25,": 6285,
  "cus": 6286,
  "▁vs": 6287,
  "▁బీ": 6288,
  "eval": 6289,
  "కులు": 6290,
  "▁18,": 6291,
  "▁Har": 6292,
  "istry": 6293,
  "riter": 6294,
  "circle": 6295,
  "▁clear": 6296,
  "product": 6297,
  "bum": 6298,
  "▁(9": 6299,
  "▁9)": 6300,
  "▁Co": 6301,
  "▁ju": 6302,
  "find": 6303,
  "▁320": 6304,
  "▁Bra": 6305,
  "▁face": 6306,
  "▁ship": 6307,
  "_00013": 6308,
  "_00019": 6309,
  "▁collect": 6310,
  "▁associated": 6311,
  "Th": 6312,
  "ళ్ళ": 6313,
  "cale": 6314,
  "temp": 6315,
  "▁big": 6316,
  "▁భార": 6317,
  "olves": 6318,
  "▁pays": 6319,
  "▁rele": 6320,
  "▁bring": 6321,
  "project": 6322,
  "▁MongoDB": 6323,
  "▁clients": 6324,
  "▁denotes": 6325,
  "▁summary": 6326,
  "▁decrease": 6327,
  "▁container": 6328,
  "/16": 6329,
  "fly": 6330,
  "ris": 6331,
  "▁\"\"": 6332,
  "▁(50": 6333,
  "▁ans": 6334,
  "money": 6335,
  "▁prim": 6336,
  "▁Their": 6337,
  "▁favor": 6338,
  "▁lunch": 6339,
  "▁title": 6340,
  "▁config": 6341,
  "▁layout": 6342,
  "specific": 6343,
  "▁college": 6344,
  "▁earnings": 6345,
  "▁recovery": 6346,
  "▁estimated": 6347,
  "▁simulation": 6348,
  "▁displacement": 6349,
  "TE": 6350,
  "▁vow": 6351,
  "▁eats": 6352,
  "▁{(1,": 6353,
  "▁Paris": 6354,
  "▁sweep": 6355,
  "agnetic": 6356,
  "current": 6357,
  "approval": 6358,
  "▁targets": 6359,
  "Ra": 6360,
  "▁#7": 6361,
  "▁పి": 6362,
  "▁7.0": 6363,
  "▁van": 6364,
  "▁చిత": 6365,
  "▁More": 6366,
  "▁wire": 6367,
  "▁South": 6368,
  "▁waves": 6369,
  "▁French": 6370,
  "▁logged": 6371,
  "▁compact": 6372,
  "▁disease": 6373,
  "▁journey": 6374,
  "▁packets": 6375,
  "▁Expected": 6376,
  "▁cryptograph": 6377,
  "10.": 6378,
  "eff": 6379,
  "▁AI": 6380,
  "▁sil": 6381,
  "▁sod": 6382,
  "▁Paul": 6383,
  "▁vary": 6384,
  "cluding": 6385,
  "factors": 6386,
  "▁supply": 6387,
  "▁borrowed": 6388,
  "▁arithmetic": 6389,
  "▁4-": 6390,
  "ceil": 6391,
  "comp": 6392,
  "ians": 6393,
  "onian": 6394,
  "▁3000": 6395,
  "_00017": 6396,
  "▁catch": 6397,
  "▁phone": 6398,
  "▁Church": 6399,
  "▁slight": 6400,
  "▁strong": 6401,
  "▁candies": 6402,
  "▁default": 6403,
  "▁pendulum": 6404,
  "▁basketball": 6405,
  "**3": 6406,
  "vis": 6407,
  "true": 6408,
  "ramid": 6409,
  "velope": 6410,
  "▁Elect": 6411,
  "▁plant": 6412,
  "▁100000": 6413,
  "▁picked": 6414,
  "▁flowers": 6415,
  "▁necessary": 6416,
  "నా": 6417,
  "ega": 6418,
  "ష్ణ": 6419,
  "shir": 6420,
  "celer": 6421,
  "unday": 6422,
  "wards": 6423,
  "▁Both": 6424,
  "▁కాని": 6425,
  "▁glass": 6426,
  "▁great": 6427,
  "▁socks": 6428,
  "outcomes": 6429,
  "▁monitor": 6430,
  "romagnetic": 6431,
  "▁calculating": 6432,
  "bru": 6433,
  "imizes": 6434,
  "▁breadth": 6435,
  "▁elevation": 6436,
  "}{5": 6437,
  "్రి": 6438,
  "▁5}": 6439,
  "▁gr": 6440,
  "లోని": 6441,
  "▁198": 6442,
  "▁?\",": 6443,
  "▁Aug": 6444,
  "_0001": 6445,
  "▁Round": 6446,
  "▁doesn": 6447,
  "▁logar": 6448,
  "▁depends": 6449,
  "▁infected": 6450,
  "▁vertical": 6451,
  "▁difficult": 6452,
  "▁Sm": 6453,
  "▁0$$": 6454,
  "▁175": 6455,
  "▁4.5": 6456,
  "▁pow": 6457,
  "▁Bill": 6458,
  "▁Apple": 6459,
  "▁Hodge": 6460,
  "arrange": 6461,
  "aturday": 6462,
  "▁entity": 6463,
  "▁answered": 6464,
  "+8": 6465,
  "^(2": 6466,
  "aur": 6467,
  "^(-2": 6468,
  "ells": 6469,
  "stru": 6470,
  "▁page": 6471,
  "▁Chris": 6472,
  "▁river": 6473,
  "essages": 6474,
  "▁colors": 6475,
  "▁discus": 6476,
  "▁horizon": 6477,
  "▁subjects": 6478,
  "▁addresses": 6479,
  "▁relationships": 6480,
  "]]": 6481,
  "ౌర": 6482,
  "15,": 6483,
  "lin": 6484,
  "orts": 6485,
  "▁3/2": 6486,
  "rence": 6487,
  "start": 6488,
  "▁hund": 6489,
  "▁rails": 6490,
  "▁plants": 6491,
  "▁angular": 6492,
  "▁Fraction": 6493,
  "▁enrolled": 6494,
  "▁repeated": 6495,
  "coordinate": 6496,
  "▁ciphertext": 6497,
  "CE": 6498,
  "_\\": 6499,
  "war": 6500,
  "▁9.0": 6501,
  "▁Reg": 6502,
  "black": 6503,
  "where": 6504,
  "▁conj": 6505,
  "▁toys": 6506,
  "▁charge": 6507,
  "▁trivial": 6508,
  "▁compared": 6509,
  "▁simultaneously": 6510,
  "*4": 6511,
  "AP": 6512,
  "mu": 6513,
  "+3)": 6514,
  "urb": 6515,
  "ర్శ": 6516,
  "▁6:": 6517,
  "}{3}": 6518,
  "▁700": 6519,
  "▁రాజ": 6520,
  "▁swim": 6521,
  "▁chest": 6522,
  "▁sixth": 6523,
  "▁walks": 6524,
  "▁princi": 6525,
  "▁reject": 6526,
  "▁elliptic": 6527,
  "▁kilometers": 6528,
  "(7": 6529,
  "ha": 6530,
  "ాత": 6531,
  "ష్ట": 6532,
  "▁14.": 6533,
  "▁por": 6534,
  "▁0.02": 6535,
  "▁Park": 6536,
  "▁club": 6537,
  "▁none": 6538,
  "▁Group": 6539,
  "▁crash": 6540,
  "▁corrup": 6541,
  "▁nature": 6542,
  "▁stable": 6543,
  "▁trials": 6544,
  "▁compare": 6545,
  "▁display": 6546,
  "▁inclusive": 6547,
  "ait": 6548,
  "య్య": 6549,
  "▁[\"": 6550,
  "draw": 6551,
  "▁$25": 6552,
  "cakes": 6553,
  "izing": 6554,
  "orses": 6555,
  "viron": 6556,
  "▁Read": 6557,
  "▁ante": 6558,
  "▁Value": 6559,
  "▁music": 6560,
  "▁buying": 6561,
  "▁Standard": 6562,
  "▁infinity": 6563,
  "PER": 6564,
  "▁83": 6565,
  "ifur": 6566,
  "▁-1,": 6567,
  "▁Dan": 6568,
  "▁Map": 6569,
  "arily": 6570,
  "_00014": 6571,
  "▁album": 6572,
  "▁calib": 6573,
  "▁domin": 6574,
  "▁island": 6575,
  "▁stocks": 6576,
  "▁Running": 6577,
  "▁William": 6578,
  "▁traffic": 6579,
  "▁nonlinear": 6580,
  "▁completely": 6581,
  "|\\": 6582,
  "ీయ": 6583,
  "+12": 6584,
  "▁74": 6585,
  "▁x̄": 6586,
  "▁పొ": 6587,
  "flow": 6588,
  "▁Sud": 6589,
  "othic": 6590,
  "_00030": 6591,
  "edance": 6592,
  "encies": 6593,
  "▁March": 6594,
  "▁touch": 6595,
  "▁truth": 6596,
  "▁regard": 6597,
  "▁remain": 6598,
  "▁Machine": 6599,
  "*6": 6600,
  "▁$30": 6601,
  "▁24)": 6602,
  "useum": 6603,
  "ushed": 6604,
  "▁1500": 6605,
  "▁mode": 6606,
  "▁pain": 6607,
  "▁భారత": 6608,
  "▁visited": 6609,
  "▁manufacturer": 6610,
  "TO": 6611,
  "1))": 6612,
  "lue": 6613,
  "▁రచ": 6614,
  "like": 6615,
  "lity": 6616,
  "ysic": 6617,
  "════": 6618,
  "▁196": 6619,
  "which": 6620,
  "▁4000": 6621,
  "▁King": 6622,
  "▁auth": 6623,
  "▁pool": 6624,
  "_00016": 6625,
  "encing": 6626,
  "▁David": 6627,
  "▁Frank": 6628,
  "▁chick": 6629,
  "▁never": 6630,
  "duction": 6631,
  "▁August": 6632,
  "▁category": 6633,
  "▁finished": 6634,
  "difference": 6635,
  "▁classroom": 6636,
  "పి": 6637,
  "▁â": 6638,
  "▁δ": 6639,
  "ope": 6640,
  "▁86": 6641,
  "▁SP": 6642,
  "more": 6643,
  "▁199": 6644,
  "▁ABC": 6645,
  "_00010": 6646,
  "_00029": 6647,
  "square": 6648,
  "▁cloth": 6649,
  "▁prefer": 6650,
  "▁outcome": 6651,
  "▁chambers": 6652,
  "CM": 6653,
  "pes": 6654,
  "▁MD": 6655,
  "bott": 6656,
  "▁$1,": 6657,
  "▁$60": 6658,
  "▁(-2": 6659,
  "▁(19": 6660,
  "▁0),": 6661,
  "▁Ital": 6662,
  "▁iden": 6663,
  "_00018": 6664,
  "_00025": 6665,
  "source": 6666,
  "▁might": 6667,
  "▁packs": 6668,
  "▁sugar": 6669,
  "▁episode": 6670,
  "▁improve": 6671,
  "▁candidate": 6672,
  "▁approaches": 6673,
  "+20": 6674,
  "ogn": 6675,
  "plan": 6676,
  "well": 6677,
  "▁(25": 6678,
  "▁7.5": 6679,
  "▁80.": 6680,
  "▁జనా": 6681,
  "ently": 6682,
  "rimin": 6683,
  "ripts": 6684,
  "▁Alex": 6685,
  "▁Nash": 6686,
  "▁Stud": 6687,
  "▁Every": 6688,
  "▁goods": 6689,
  "▁preserv": 6690,
  "▁Subtract": 6691,
  "▁tradition": 6692,
  "(-2": 6693,
  "/11": 6694,
  "▁AN": 6695,
  "▁Ne": 6696,
  "_2_2": 6697,
  "▁appl": 6698,
  "▁came": 6699,
  "_00015": 6700,
  "asible": 6701,
  "ecause": 6702,
  "▁delta": 6703,
  "riminant": 6704,
  "▁Tuesday": 6705,
  "▁learning": 6706,
  "▁policies": 6707,
  "▁oscillator": 6708,
  "▁interference": 6709,
  "NE": 6710,
  "(1.": 6711,
  "(2*": 6712,
  "non": 6713,
  "▁5!": 6714,
  "▁లి": 6715,
  "*100": 6716,
  "▁Eng": 6717,
  "cards": 6718,
  "orpor": 6719,
  "▁bill": 6720,
  "▁surv": 6721,
  "▁trac": 6722,
  "▁While": 6723,
  "▁expon": 6724,
  "▁fruits": 6725,
  "▁Measure": 6726,
  "▁matches": 6727,
  "▁species": 6728,
  "▁multiplied": 6729,
  "▁throughput": 6730,
  "808": 6731,
  "vec": 6732,
  "ట్టి": 6733,
  "▁5),": 6734,
  "▁Ear": 6735,
  "▁Sch": 6736,
  "▁saw": 6737,
  "▁cult": 6738,
  "▁named": 6739,
  "▁covers": 6740,
  "▁భూములు": 6741,
  "together": 6742,
  "▁Convert": 6743,
  "▁acceler": 6744,
  "/36": 6745,
  "625": 6746,
  "=20": 6747,
  "పాల": 6748,
  "▁61": 6749,
  "pril": 6750,
  "▁Pen": 6751,
  "▁mir": 6752,
  "▁సంగ": 6753,
  "rices": 6754,
  "radius": 6755,
  "▁plate": 6756,
  "▁జనాభా": 6757,
  "fitness": 6758,
  "▁active": 6759,
  "▁counter": 6760,
  "▁objects": 6761,
  "▁outside": 6762,
  "▁simplified": 6763,
  "▁wavelength": 6764,
  "51": 6765,
  "ందం": 6766,
  "▁√3": 6767,
  "anas": 6768,
  "yard": 6769,
  "ifies": 6770,
  "itive": 6771,
  "▁40.0": 6772,
  "▁Book": 6773,
  "▁roof": 6774,
  "_00020": 6775,
  "nesday": 6776,
  "▁batch": 6777,
  "▁chips": 6778,
  "▁human": 6779,
  "▁Histor": 6780,
  "▁సాగులో": 6781,
  "▁England": 6782,
  "▁dataset": 6783,
  "▁Evaluate": 6784,
  "▁depending": 6785,
  "▁downstream": 6786,
  "▁redirected": 6787,
  "icy": 6788,
  "లలో": 6789,
  "atio": 6790,
  "ique": 6791,
  "లోపు": 6792,
  "▁$16": 6793,
  "▁Ann": 6794,
  "▁Sep": 6795,
  "cases": 6796,
  "▁25%,": 6797,
  "▁30.0": 6798,
  "▁50%,": 6799,
  "▁semi": 6800,
  "_00035": 6801,
  "istent": 6802,
  "uments": 6803,
  "ముల్లో": 6804,
  "▁dozen": 6805,
  "▁Factor": 6806,
  "▁pyramid": 6807,
  "▁mismatch": 6808,
  "▁grounding": 6809,
  "▁government": 6810,
  "▁statements": 6811,
  "▁directional": 6812,
  "bu": 6813,
  "vin": 6814,
  "ెడ్": 6815,
  "▁Wi": 6816,
  "▁$14": 6817,
  "▁18.": 6818,
  "▁Fer": 6819,
  "▁60.0": 6820,
  "▁happ": 6821,
  "▁బీడు": 6822,
  "_00026": 6823,
  "_00028": 6824,
  "▁Return": 6825,
  "▁simply": 6826,
  "▁derived": 6827,
  "▁includes": 6828,
  "▁slightly": 6829,
  "▁standing": 6830,
  "▁calibrated": 6831,
  "▁mathematical": 6832,
  "__(": 6833,
  "▁{}": 6834,
  "▁1))": 6835,
  "▁adv": 6836,
  "▁{3,": 6837,
  "▁పౌర": 6838,
  "Sylow": 6839,
  "ribed": 6840,
  "table": 6841,
  "▁$200": 6842,
  "▁100%": 6843,
  "tember": 6844,
  "▁pound": 6845,
  "▁levels": 6846,
  "▁shield": 6847,
  "▁కానివి": 6848,
  "▁feasible": 6849,
  "▁released": 6850,
  "▁భూముల్లో": 6851,
  "▁intersect": 6852,
  "▁allocation": 6853,
  "▁coordinate": 6854,
  "▁differenti": 6855,
  "Re": 6856,
  "pay": 6857,
  "pet": 6858,
  "▁గు": 6859,
  "pack": 6860,
  "▁(18": 6861,
  "▁40.": 6862,
  "▁ori": 6863,
  "tools": 6864,
  "bruary": 6865,
  "uation": 6866,
  "▁Track": 6867,
  "▁front": 6868,
  "▁chairs": 6869,
  "▁సరఫరాల": 6870,
  "▁Multiply": 6871,
  "▁recursive": 6872,
  "▁commission": 6873,
  "combinations": 6874,
  "▁approximation": 6875,
  "▁multiplication": 6876,
  "^*": 6877,
  "uv": 6878,
  "130": 6879,
  "=1,": 6880,
  "pole": 6881,
  "unte": 6882,
  "ంద్ర": 6883,
  "ల్లె": 6884,
  "▁24.": 6885,
  "▁25,": 6886,
  "▁PCB": 6887,
  "▁mor": 6888,
  "ifier": 6889,
  "inese": 6890,
  "sigma": 6891,
  "▁July": 6892,
  "▁West": 6893,
  "▁feed": 6894,
  "▁video": 6895,
  "▁Gothic": 6896,
  "▁however": 6897,
  "▁savings": 6898,
  "!(": 6899,
  "+9": 6900,
  "^0(": 6901,
  "acy": 6902,
  "hol": 6903,
  "ప్ర": 6904,
  "enna": 6905,
  "▁1$.": 6906,
  "(2.0,": 6907,
  "▁(-20": 6908,
  "▁coin": 6909,
  "▁kids": 6910,
  "change": 6911,
  "▁juice": 6912,
  "▁night": 6913,
  "▁rooms": 6914,
  "▁trunc": 6915,
  "▁wheel": 6916,
  "ription": 6917,
  "divisors": 6918,
  "negative": 6919,
  "▁reading": 6920,
  "▁scripts": 6921,
  "▁countries": 6922,
  "▁successes": 6923,
  "▁decomposition": 6924,
  "*7": 6925,
  "[(": 6926,
  "uc": 6927,
  "-10": 6928,
  "EMI": 6929,
  "ably": 6930,
  "▁$40": 6931,
  "apsed": 6932,
  "espan": 6933,
  "iches": 6934,
  "▁band": 6935,
  "▁null": 6936,
  "_00036": 6937,
  "▁Flask": 6938,
  "▁bifur": 6939,
  "▁subset": 6940,
  "▁shutdown": 6941,
  "▁analyzers": 6942,
  "ml": 6943,
  "నగ": 6944,
  "SWR": 6945,
  "VSWR": 6946,
  "దలైన": 6947,
  "రంలో": 6948,
  "▁14,": 6949,
  "▁jar": 6950,
  "▁sun": 6951,
  "▁RSSI": 6952,
  "▁mixed": 6953,
  "▁pizzas": 6954,
  "▁Instead": 6955,
  "▁Michael": 6956,
  "▁amplifier": 6957,
  "▁University": 6958,
  "▁corrupting": 6959,
  "▁horizontal": 6960,
  "▁established": 6961,
  "--(": 6962,
  "Dep": 6963,
  "▁1}": 6964,
  "▁Med": 6965,
  "▁ton": 6966,
  "▁$(0,": 6967,
  "▁asym": 6968,
  "▁peak": 6969,
  "▁rail": 6970,
  "▁bypass": 6971,
  "▁figure": 6972,
  "▁opened": 6973,
  "▁primes": 6974,
  "▁ticket": 6975,
  "equation": 6976,
  "▁Envelope": 6977,
  "▁Impedance": 6978,
  "▁truncated": 6979,
  "▁trigonometry": 6980,
  "▁Electromagnetic": 6981,
  "xx": 6982,
  "{6": 6983,
  "▁•": 6984,
  ",0)": 6985,
  "=15": 6986,
  "king": 6987,
  "rong": 6988,
  "▁Law": 6989,
  "▁too": 6990,
  "iture": 6991,
  "third": 6992,
  "▁role": 6993,
  "▁stay": 6994,
  "estern": 6995,
  "parent": 6996,
  "▁timer": 6997,
  "((0,0)--": 6998,
  "▁traject": 6999,
  "▁shortest": 7000,
  "▁September": 7001,
  "ంచి": 7002,
  "▁br": 7003,
  "root": 7004,
  "▁err": 7005,
  "▁hol": 7006,
  "ensus": 7007,
  "▁wife": 7008,
  "person": 7009,
  "▁Trans": 7010,
  "▁board": 7011,
  "▁chron": 7012,
  "▁gradu": 7013,
  "▁conjug": 7014,
  "▁flight": 7015,
  "▁ప్రాంత": 7016,
  "▁crashed": 7017,
  "▁identical": 7018,
  "▁asymmetric": 7019,
  "▁originally": 7020,
  "▁volatility": 7021,
  "▁discriminant": 7022,
  "np": 7023,
  "(),": 7024,
  "▁df": 7025,
  "iber": 7026,
  "scale": 7027,
  "▁0.1,": 7028,
  "▁stick": 7029,
  "▁Volume": 7030,
  "▁cities": 7031,
  "▁instru": 7032,
  "▁approval": 7033,
  "▁numerically": 7034,
  "Al": 7035,
  "II": 7036,
  "బా": 7037,
  "లా": 7038,
  ")^(": 7039,
  "},$": 7040,
  "▁89": 7041,
  "case": 7042,
  "▁Bel": 7043,
  "▁bed": 7044,
  "▁led": 7045,
  "ctive": 7046,
  "ithms": 7047,
  "{1}{2": 7048,
  "▁Weak": 7049,
  "▁anti": 7050,
  "▁norm": 7051,
  "_00012": 7052,
  "itudes": 7053,
  "▁100%)": 7054,
  "▁April": 7055,
  "▁Ratio": 7056,
  "▁fluid": 7057,
  "▁Output": 7058,
  "▁horses": 7059,
  "▁recent": 7060,
  "ologically": 7061,
  "▁influence": 7062,
  ".1": 7063,
  "]$": 7064,
  ".5)": 7065,
  "Pro": 7066,
  "ano": 7067,
  "ara": 7068,
  "hic": 7069,
  "sia": 7070,
  "tel": 7071,
  "---|": 7072,
  "▁(16": 7073,
  "▁30.": 7074,
  "▁OOM": 7075,
  "▁jog": 7076,
  "▁2014": 7077,
  "▁stop": 7078,
  "versal": 7079,
  "▁clock": 7080,
  "▁labor": 7081,
  "▁resume": 7082,
  "represent": 7083,
  "▁Notebook": 7084,
  "▁choosing": 7085,
  "▁experience": 7086,
  "▁thresholds": 7087,
  "Ex": 7088,
  "bon": 7089,
  "▁ir": 7090,
  "▁∫(": 7091,
  "000)": 7092,
  "▁4/5": 7093,
  "▁Oct": 7094,
  "▁Sci": 7095,
  "▁obs": 7096,
  "▁ren": 7097,
  "▁pred": 7098,
  "porary": 7099,
  "target": 7100,
  "volume": 7101,
  "ryption": 7102,
  "session": 7103,
  "▁diagram": 7104,
  "▁checksum": 7105,
  "▁geometry": 7106,
  "▁routines": 7107,
  "▁centralized": 7108,
  "▁applications": 7109,
  "▁representing": 7110,
  "ంధ": 7111,
  "tau": 7112,
  "▁73": 7113,
  "▁Ab": 7114,
  "asks": 7115,
  "▁720": 7116,
  "▁bid": 7117,
  "▁net": 7118,
  "dfrac": 7119,
  "qquad": 7120,
  "▁appe": 7121,
  "jected": 7122,
  "▁drive": 7123,
  "▁prices": 7124,
  "▁amounts": 7125,
  "▁diction": 7126,
  "▁matrices": 7127,
  "▁corresponds": 7128,
  "chi": 7129,
  "ctan": 7130,
  "▁135": 7131,
  "▁chey": 7132,
  "▁knot": 7133,
  "▁seen": 7134,
  "▁bottle": 7135,
  "ednesday": 7136,
  "▁decides": 7137,
  "▁polygon": 7138,
  "▁inactive": 7139,
  "▁indexing": 7140,
  "▁watchdog": 7141,
  "▁inequalities": 7142,
  "ka": 7143,
  "lcm": 7144,
  "opy": 7145,
  "ober": 7146,
  "offel": 7147,
  "ofing": 7148,
  "▁100.": 7149,
  "Deploy": 7150,
  "exists": 7151,
  "▁apple": 7152,
  "▁Sudden": 7153,
  "ulations": 7154,
  "▁quality": 7155,
  "▁volunte": 7156,
  "▁practice": 7157,
  "bstitution": 7158,
  "▁simulator": 7159,
  "▁candidates": 7160,
  "abi": 7161,
  "▁Ink": 7162,
  "▁pig": 7163,
  "▁100,": 7164,
  "▁ends": 7165,
  "▁meat": 7166,
  "▁chrom": 7167,
  "▁exter": 7168,
  "▁canary": 7169,
  "▁office": 7170,
  "limiting": 7171,
  "▁females": 7172,
  "----------": 7173,
  "▁bypassing": 7174,
  "▁plaintext": 7175,
  "▁Christoffel": 7176,
  "బు": 7177,
  "(6)": 7178,
  "10}": 7179,
  "inv": 7180,
  "rote": 7181,
  "▁(1%": 7182,
  "upper": 7183,
  "ysics": 7184,
  "▁50.0": 7185,
  "▁HMAC": 7186,
  "▁Lamp": 7187,
  "▁(10%,": 7188,
  "▁Henry": 7189,
  "limiter": 7190,
  "related": 7191,
  "▁Staged": 7192,
  "▁commut": 7193,
  "▁giving": 7194,
  "▁bricked": 7195,
  "▁earlier": 7196,
  "▁Saturday": 7197,
  "▁returned": 7198,
  "▁rollouts": 7199,
  "▁effective": 7200,
  "▁covariance": 7201,
  "▁exponential": 7202,
  "En": 7203,
  "గి": 7204,
  "▁ρ": 7205,
  "_2_": 7206,
  "del": 7207,
  "▁Mc": 7208,
  "ighth": 7209,
  "ility": 7210,
  "▁1/24": 7211,
  "▁nine": 7212,
  "_00024": 7213,
  "_00032": 7214,
  "digits": 7215,
  "tokens": 7216,
  "▁demon": 7217,
  "▁arrays": 7218,
  "▁househ": 7219,
  "▁blocked": 7220,
  "▁Remember": 7221,
  "▁breakers": 7222,
  "▁classical": 7223,
  "▁మండలానికి": 7224,
  "▁deviations": 7225,
  "\"{": 7226,
  "యా": 7227,
  "√2": 7228,
  "159": 7229,
  "=44": 7230,
  "త్స": 7231,
  "▁(0": 7232,
  "-1))": 7233,
  "cand": 7234,
  "duku": 7235,
  "sort": 7236,
  "▁1).": 7237,
  "▁Lua": 7238,
  "▁asp": 7239,
  "beans": 7240,
  "water": 7241,
  "▁born": 7242,
  "_00005": 7243,
  "ensive": 7244,
  "▁plans": 7245,
  "trivial": 7246,
  "▁butter": 7247,
  "▁spikes": 7248,
  "▁feature": 7249,
  "▁setting": 7250,
  "Deploying": 7251,
  "▁followed": 7252,
  "▁spoofing": 7253,
  "▁theorems": 7254,
  "▁timeouts": 7255,
  "▁logarithm": 7256,
  "▁understanding": 7257,
  "Sch": 7258,
  "aff": 7259,
  "tiv": 7260,
  "(-0.": 7261,
  "▁197": 7262,
  "▁36.": 7263,
  "▁Cov": 7264,
  "gence": 7265,
  "▁legs": 7266,
  "paring": 7267,
  "▁parab": 7268,
  "▁quick": 7269,
  "▁zeros": 7270,
  "initial": 7271,
  "▁Street": 7272,
  "▁adults": 7273,
  "▁enduku": 7274,
  "▁gallon": 7275,
  "▁Context": 7276,
  "▁mapping": 7277,
  "▁windows": 7278,
  "vironment": 7279,
  "▁location": 7280,
  "▁scenario": 7281,
  "+7": 7282,
  "కో": 7283,
  "-12": 7284,
  "త్వ": 7285,
  "▁బృ": 7286,
  "ster": 7287,
  "▁101": 7288,
  "▁Ram": 7289,
  "▁deb": 7290,
  "▁gro": 7291,
  "▁lot": 7292,
  "▁2001": 7293,
  "▁farmer": 7294,
  "▁balance": 7295,
  "▁bananas": 7296,
  "▁install": 7297,
  "▁producing": 7298,
  "▁Architecture": 7299,
  "999": 7300,
  "▁3/": 7301,
  "▁vac": 7302,
  "▁cake": 7303,
  "istant": 7304,
  "▁సంఖ్య": 7305,
  "▁caught": 7306,
  "▁harmony": 7307,
  "▁studied": 7308,
  "intercept": 7309,
  "▁existing": 7310,
  "▁definition": 7311,
  ")/2": 7312,
  "-0.": 7313,
  "doc": 7314,
  "▁avg": 7315,
  "▁rho": 7316,
  "▁sty": 7317,
  "▁bird": 7318,
  "▁clim": 7319,
  "▁దర్శ": 7320,
  "▁October": 7321,
  "▁-7": 7322,
  "▁Sw": 7323,
  "inch": 7324,
  "▁$13": 7325,
  "▁(30": 7326,
  "_0024": 7327,
  "ackey": 7328,
  "itary": 7329,
  "ortun": 7330,
  "▁onto": 7331,
  "▁చెరు": 7332,
  "▁grand": 7333,
  "▁metal": 7334,
  "content": 7335,
  "▁grades": 7336,
  "▁Chinese": 7337,
  "imination": 7338,
  "▁packages": 7339,
  "ES": 7340,
  "కొ": 7341,
  "▁’": 7342,
  "MAT": 7343,
  "^3,": 7344,
  "elb": 7345,
  "han": 7346,
  "sts": 7347,
  "▁7:": 7348,
  "▁save": 7349,
  "▁shirt": 7350,
  "▁attend": 7351,
  "▁likely": 7352,
  "▁accuracy": 7353,
  "▁assuming": 7354,
  "▁expenses": 7355,
  "▁exterior": 7356,
  "▁flagpole": 7357,
  "▁sections": 7358,
  "[\\": 7359,
  "/3,": 7360,
  "ions": 7361,
  "raph": 7362,
  "పురం": 7363,
  "▁$24": 7364,
  "▁(60": 7365,
  "▁Pre": 7366,
  "ester": 7367,
  "▁vill": 7368,
  "rayons": 7369,
  "▁evalu": 7370,
  "▁behind": 7371,
  "▁models": 7372,
  "▁spaces": 7373,
  "▁stamps": 7374,
  "▁session": 7375,
  "▁Although": 7376,
  "▁February": 7377,
  "▁expansion": 7378,
  "Fi": 7379,
  "_1$": 7380,
  "_{0": 7381,
  "▁3!": 7382,
  "▁Ms": 7383,
  "(3))": 7384,
  "^{-1": 7385,
  "ench": 7386,
  "reng": 7387,
  "}.$.": 7388,
  "▁750": 7389,
  "idate": 7390,
  "ining": 7391,
  "▁deal": 7392,
  "▁hall": 7393,
  "▁scul": 7394,
  "▁snow": 7395,
  "minute": 7396,
  "textbf": 7397,
  "▁50000": 7398,
  "▁FATAL": 7399,
  "▁annum": 7400,
  "▁బృందం": 7401,
  "average": 7402,
  "▁police": 7403,
  "........": 7404,
  "▁datetime": 7405,
  "▁measures": 7406,
  "▁upstream": 7407,
  "▁topological": 7408,
  "▁automorphism": 7409,
  "▁manufacturing": 7410,
  "-9": 7411,
  "If": 7412,
  "_10": 7413,
  "▁పే": 7414,
  "hist": 7415,
  "love": 7416,
  "tees": 7417,
  "uple": 7418,
  "▁ded": 7419,
  "5,000": 7420,
  "Right": 7421,
  "▁Desk": 7422,
  "▁rese": 7423,
  "▁shad": 7424,
  "▁goals": 7425,
  "▁males": 7426,
  "▁Helmet": 7427,
  "▁sector": 7428,
  "▁vowels": 7429,
  "▁meeting": 7430,
  "▁accident": 7431,
  "▁interior": 7432,
  "▁computing": 7433,
  "▁distances": 7434,
  "ai": 7435,
  "}^": 7436,
  "emp": 7437,
  "▁-2.": 7438,
  "▁25.": 7439,
  "▁5.2": 7440,
  "ached": 7441,
  "▁cell": 7442,
  "▁insc": 7443,
  "▁సమీప": 7444,
  "indrom": 7445,
  "▁format": 7446,
  "▁orange": 7447,
  "▁developed": 7448,
  "x̄": 7449,
  "ేవ": 7450,
  "▁·": 7451,
  "170": 7452,
  "80.": 7453,
  "_5_": 7454,
  "bed": 7455,
  "bul": 7456,
  "dim": 7457,
  "}^3": 7458,
  "ాయక": 7459,
  "▁తో": 7460,
  "▁Dis": 7461,
  "▁sus": 7462,
  "▁soda": 7463,
  "_00033": 7464,
  "▁wrote": 7465,
  "▁former": 7466,
  "▁future": 7467,
  "▁raised": 7468,
  "▁weighs": 7469,
  "▁studying": 7470,
  "▁regression": 7471,
  "▁sequentially": 7472,
  "▁1.4": 7473,
  "▁17,": 7474,
  "▁195": 7475,
  "▁216": 7476,
  "▁rod": 7477,
  "▁arti": 7478,
  "▁pump": 7479,
  "comple": 7480,
  "▁cream": 7481,
  "▁poles": 7482,
  "▁density": 7483,
  "▁retrieving": 7484,
  "▁acceleration": 7485,
  "HE": 7486,
  "XT": 7487,
  "ae": 7488,
  ".5%": 7489,
  "256": 7490,
  "800": 7491,
  "_4_": 7492,
  "}{1": 7493,
  "▁({": 7494,
  "▁71": 7495,
  "▁1):": 7496,
  "▁2^2": 7497,
  "▁Age": 7498,
  "▁Jim": 7499,
  "night": 7500,
  "▁Jane": 7501,
  "▁Scan": 7502,
  "mented": 7503,
  "▁India": 7504,
  "▁birds": 7505,
  "▁sigma": 7506,
  "▁Second": 7507,
  "▁Sunday": 7508,
  "▁tracks": 7509,
  "representing": 7510,
  "▁bifurcation": 7511,
  "▁factorization": 7512,
  "▁chronologically": 7513,
  "ూడ": 7514,
  "▁ఫ": 7515,
  ".\")": 7516,
  "▁CD": 7517,
  "▁asc": 7518,
  "▁fer": 7519,
  "iques": 7520,
  "▁adap": 7521,
  "ything": 7522,
  "▁Hamilt": 7523,
  "▁duplic": 7524,
  "▁mirror": 7525,
  "▁rounds": 7526,
  "▁flushed": 7527,
  "▁lifespan": 7528,
  "▁touchdown": 7529,
  "▁neighborhood": 7530,
  "4}": 7531,
  "నస": 7532,
  "ION": 7533,
  "ung": 7534,
  "▁PR": 7535,
  "▁pub": 7536,
  "▁Repe": 7537,
  "▁WiFi": 7538,
  "ground": 7539,
  "▁State": 7540,
  "▁Trace": 7541,
  "▁cakes": 7542,
  "ountain": 7543,
  "▁counts": 7544,
  "▁Telemetry": 7545,
  "▁sandwiches": 7546,
  "PA": 7547,
  "((-": 7548,
  "Yau": 7549,
  "_12": 7550,
  "▁dp": 7551,
  "ccos": 7552,
  "used": 7553,
  "▁170": 7554,
  "▁nor": 7555,
  "▁Sort": 7556,
  "▁lies": 7557,
  "estamp": 7558,
  "icular": 7559,
  "normal": 7560,
  "onical": 7561,
  "second": 7562,
  "▁Colle": 7563,
  "▁enclo": 7564,
  "▁merge": 7565,
  "▁users": 7566,
  "Scholes": 7567,
  "ontsize": 7568,
  "▁Calabi": 7569,
  "▁dinner": 7570,
  "▁solved": 7571,
  "partment": 7572,
  "▁reaches": 7573,
  "▁geometric": 7574,
  "FI": 7575,
  "cu": 7576,
  "dz": 7577,
  "దా": 7578,
  "190": 7579,
  "300": 7580,
  "che": 7581,
  "ref": 7582,
  "▁70%": 7583,
  "▁Pal": 7584,
  "▁San": 7585,
  "▁die": 7586,
  "▁25.0": 7587,
  "▁west": 7588,
  "cluded": 7589,
  "degree": 7590,
  "▁fence": 7591,
  "▁names": 7592,
  "▁Austral": 7593,
  "ersection": 7594,
  "remaining": 7595,
  "▁Jacobian": 7596,
  "▁projects": 7597,
  "▁symmetry": 7598,
  "▁contribute": 7599,
  "▁expressions": 7600,
  "='": 7601,
  "+15": 7602,
  "=100": 7603,
  "▁Emp": 7604,
  "▁ord": 7605,
  "acing": 7606,
  "▁East": 7607,
  "▁fram": 7608,
  "▁0.000": 7609,
  "▁death": 7610,
  "▁moved": 7611,
  "▁సంగీత": 7612,
  "onsistent": 7613,
  "▁remained": 7614,
  "▁చెరువులు": 7615,
  "pendicular": 7616,
  "▁Immediately": 7617,
  "▁elimination": 7618,
  ",\\": 7619,
  "1]": 7620,
  "SB": 7621,
  "}\"": 7622,
  "వల": 7623,
  "+0.": 7624,
  "3)`": 7625,
  "600": 7626,
  "aro": 7627,
  "win": 7628,
  "▁94": 7629,
  "▁TE": 7630,
  "443/": 7631,
  "mber": 7632,
  "onic": 7633,
  "}{4}": 7634,
  "▁75%": 7635,
  "▁bab": 7636,
  "venth": 7637,
  "▁443.": 7638,
  "▁rope": 7639,
  "=443)`": 7640,
  "▁Glove": 7641,
  "process": 7642,
  "operator": 7643,
  "▁cupcakes": 7644,
  "▁football": 7645,
  "▁magnetic": 7646,
  "▁painting": 7647,
  "▁sentence": 7648,
  "confidence": 7649,
  "▁throughout": 7650,
  "▁commutative": 7651,
  "జ్": 7652,
  "ama": 7653,
  "uzz": 7654,
  "life": 7655,
  "▁bow": 7656,
  "▁wid": 7657,
  "▁told": 7658,
  "Number": 7659,
  "engine": 7660,
  "▁wrong": 7661,
  "▁Jacket": 7662,
  "▁Repeat": 7663,
  "▁powers": 7664,
  "▁connect": 7665,
  "Cl": 7666,
  "ny": 7667,
  "ux": 7668,
  "{7": 7669,
  "▁∞": 7670,
  "two": 7671,
  "▁Gu": 7672,
  "▁Km": 7673,
  "▁rid": 7674,
  "▁web": 7675,
  "▁(200": 7676,
  "▁----": 7677,
  "▁disk": 7678,
  "▁held": 7679,
  "▁1,000": 7680,
  "▁criter": 7681,
  "▁kilograms": 7682,
  "▁residents": 7683,
  "▁selecting": 7684,
  "▁consisting": 7685,
  "=9": 7686,
  "పా": 7687,
  "(8,": 7688,
  ".50": 7689,
  "175": 7690,
  "pol": 7691,
  "మైన": 7692,
  "▁-8": 7693,
  "▁97": 7694,
  "hing": 7695,
  "▁115": 7696,
  "▁mem": 7697,
  "gress": 7698,
  "kutta": 7699,
  "verti": 7700,
  "profit": 7701,
  "▁chain": 7702,
  "▁recip": 7703,
  "▁story": 7704,
  "▁missing": 7705,
  "▁popular": 7706,
  "▁younger": 7707,
  "▁December": 7708,
  "▁although": 7709,
  "▁techniques": 7710,
  ".\\]": 7711,
  "ండి": 7712,
  "్రహ": 7713,
  "dist": 7714,
  "ట్టు": 7715,
  "▁-10": 7716,
  "▁192": 7717,
  "▁24,": 7718,
  "▁Mer": 7719,
  "▁పరి": 7720,
  "▁Path": 7721,
  "▁imag": 7722,
  "▁freed": 7723,
  "▁relig": 7724,
  "▁worst": 7725,
  "▁joined": 7726,
  "function": 7727,
  "ribution": 7728,
  "▁hundred": 7729,
  "▁articles": 7730,
  "▁involved": 7731,
  "▁midpoint": 7732,
  "▁continued": 7733,
  "▁differences": 7734,
  "rs": 7735,
  "tt": 7736,
  "(20": 7737,
  "ING": 7738,
  "phy": 7739,
  "ctic": 7740,
  "ford": 7741,
  "▁90%": 7742,
  "▁bis": 7743,
  "▁lat": 7744,
  "ially": 7745,
  "ishes": 7746,
  "▁poli": 7747,
  "▁Poinc": 7748,
  "▁seeds": 7749,
  "ovember": 7750,
  "▁County": 7751,
  "▁effect": 7752,
  "▁moment": 7753,
  "▁senior": 7754,
  "▁social": 7755,
  "▁temple": 7756,
  "▁calculation": 7757,
  "CO": 7758,
  "-20": 7759,
  "odd": 7760,
  "9999": 7761,
  "mega": 7762,
  "uuid": 7763,
  "▁Bal": 7764,
  "▁mix": 7765,
  "▁pra": 7766,
  "lands": 7767,
  "▁Game": 7768,
  "ograph": 7769,
  "propos": 7770,
  "reason": 7771,
  "▁Start": 7772,
  "▁roses": 7773,
  "▁runge": 7774,
  "▁allows": 7775,
  "▁cheese": 7776,
  "▁counted": 7777,
  "▁leaving": 7778,
  "▁transfer": 7779,
  "▁travelled": 7780,
  "▁transportation": 7781,
  "నం": 7782,
  "ెల": 7783,
  "/30": 7784,
  "ART": 7785,
  "▁Go": 7786,
  "▁(3)": 7787,
  "(1/2)": 7788,
  "oring": 7789,
  "▁ever": 7790,
  "▁nick": 7791,
  "▁pict": 7792,
  "▁dress": 7793,
  "▁earth": 7794,
  "▁minus": 7795,
  "▁quadr": 7796,
  "▁speak": 7797,
  "ections": 7798,
  "▁Symbol": 7799,
  "▁submit": 7800,
  "▁toward": 7801,
  "▁charges": 7802,
  "▁encrypt": 7803,
  "▁medical": 7804,
  "▁package": 7805,
  "▁scaling": 7806,
  "▁subsequ": 7807,
  "▁ascending": 7808,
  "▁scheduled": 7809,
  "▁simplifies": 7810,
  "▁alternative": 7811,
  "`,": 7812,
  ").$": 7813,
  "ాంక": 7814,
  "▁ey": 7815,
  "cong": 7816,
  "gets": 7817,
  "▁LCM": 7818,
  "▁Sto": 7819,
  ",000.": 7820,
  "aylor": 7821,
  "rical": 7822,
  "▁3.14": 7823,
  "▁hard": 7824,
  "▁sugg": 7825,
  "▁seats": 7826,
  "▁stack": 7827,
  "▁subst": 7828,
  "▁tiles": 7829,
  "▁bounds": 7830,
  "▁balloons": 7831,
  "▁patterns": 7832,
  "iterations": 7833,
  "▁Perimeter": 7834,
  "▁contained": 7835,
  "▁reflection": 7836,
  "3))": 7837,
  "Bob": 7838,
  "aré": 7839,
  "omb": 7840,
  "char": 7841,
  "enny": 7842,
  "fish": 7843,
  "gray": 7844,
  "▁1$,": 7845,
  "▁Nor": 7846,
  "▁tro": 7847,
  "sical": 7848,
  "▁bicy": 7849,
  "urches": 7850,
  "vanced": 7851,
  "▁comes": 7852,
  "▁finan": 7853,
  "▁rolls": 7854,
  "▁sqlite": 7855,
  "▁courses": 7856,
  "▁restaur": 7857,
  "▁November": 7858,
  "▁incorpor": 7859,
  "▁planning": 7860,
  "▁recorded": 7861,
  ".7": 7862,
  "(7,": 7863,
  "11}": 7864,
  "144": 7865,
  "16,": 7866,
  "cel": 7867,
  "ker": 7868,
  "▁pm": 7869,
  "▁2))": 7870,
  "▁21.": 7871,
  "▁50,": 7872,
  "▁wat": 7873,
  "▁Mand": 7874,
  "▁bene": 7875,
  "▁send": 7876,
  "coming": 7877,
  "lfloor": 7878,
  "rfloor": 7879,
  "▁ahead": 7880,
  "▁fresh": 7881,
  "▁tools": 7882,
  "▁స్వయం": 7883,
  "▁George": 7884,
  "▁Indian": 7885,
  "▁sculpt": 7886,
  "▁thread": 7887,
  "rollback": 7888,
  "▁Company": 7889,
  "▁forward": 7890,
  "▁freedom": 7891,
  "▁involves": 7892,
  "▁personal": 7893,
  "isomorphic": 7894,
  "▁indicates": 7895,
  "▁materials": 7896,
  "▁travelling": 7897,
  "/-": 7898,
  "`.": 7899,
  "sk": 7900,
  "(1+": 7901,
  "ken": 7902,
  "▁Ke": 7903,
  "(-2)": 7904,
  "apan": 7905,
  "phab": 7906,
  "▁Cho": 7907,
  "▁lap": 7908,
  "ెడ్డి": 7909,
  "▁2500": 7910,
  "▁Oven": 7911,
  "▁deep": 7912,
  "▁ride": 7913,
  "rength": 7914,
  "▁params": 7915,
  "▁applied": 7916,
  "▁uniform": 7917,
  "AI": 7918,
  "\"])": 7919,
  "_{2": 7920,
  "lan": 7921,
  "త్య": 7922,
  "▁91": 7923,
  "▁Ax": 7924,
  "▁మహ": 7925,
  "anda": 7926,
  "band": 7927,
  "four": 7928,
  "isms": 7929,
  "lets": 7930,
  "▁30)": 7931,
  "▁Flo": 7932,
  "▁pul": 7933,
  "▁bran": 7934,
  "▁(2/3)": 7935,
  "▁attra": 7936,
  "▁movie": 7937,
  "▁sleep": 7938,
  "▁thous": 7939,
  "▁topic": 7940,
  "▁cylind": 7941,
  "▁messages": 7942,
  "▁ordinary": 7943,
  "▁periodic": 7944,
  "▁Wednesday": 7945,
  "▁continues": 7946,
  "▁iterative": 7947,
  "▁permutation": 7948,
  "+$": 7949,
  "df": 7950,
  "11,": 7951,
  "ela": 7952,
  "ita": 7953,
  "rho": 7954,
  "onal": 7955,
  "osed": 7956,
  "▁288": 7957,
  "▁5.5": 7958,
  "▁Pat": 7959,
  "▁gum": 7960,
  "▁rad": 7961,
  "input": 7962,
  "integ": 7963,
  "▁flat": 7964,
  "▁photo": 7965,
  "▁straw": 7966,
  "▁శాసనస": 7967,
  "▁సహాయక": 7968,
  "▁though": 7969,
  "▁elapsed": 7970,
  "Entailment": 7971,
  "▁community": 7972,
  "▁dictionary": 7973,
  "▁⇒": 7974,
  "sal": 7975,
  "ాల్": 7976,
  "half": 7977,
  "▁(2/": 7978,
  "▁AND": 7979,
  "iency": 7980,
  "Circle": 7981,
  "ursday": 7982,
  "▁theta": 7983,
  "defined": 7984,
  "▁hyperb": 7985,
  "▁predic": 7986,
  "▁శాసనసభ": 7987,
  "fetchone": 7988,
  "▁Because": 7989,
  "▁Generate": 7990,
  "▁Comparing": 7991,
  "▁attention": 7992,
  "▁inscribed": 7993,
  "▁environment": 7994,
  "పో": 7995,
  ")/(": 7996,
  "/13": 7997,
  "1));": 7998,
  "aken": 7999,
  "hash": 8000,
  "▁iss": 8001,
  "▁∂/∂": 8002,
  "moles": 8003,
  "▁chap": 8004,
  "▁Ticks": 8005,
  "▁super": 8006,
  "▁vehic": 8007,
  "▁experi": 8008,
  "▁fields": 8009,
  "▁living": 8010,
  "▁strike": 8011,
  "▁styles": 8012,
  "▁Another": 8013,
  "▁rounded": 8014,
  "▁Poincaré": 8015,
  "▁reported": 8016,
  "▁separate": 8017,
  "▁mathematics": 8018,
  "▁eigenvectors": 8019,
  "dot": 8020,
  "ugh": 8021,
  "▁),": 8022,
  "▁కె": 8023,
  "0.00": 8024,
  "atin": 8025,
  "otor": 8026,
  "ారాయ": 8027,
  "▁$3.": 8028,
  "▁Bro": 8029,
  "▁Cat": 8030,
  "▁Rus": 8031,
  "▁రామ": 8032,
  "teady": 8033,
  "dashed": 8034,
  "▁accom": 8035,
  "▁loses": 8036,
  "▁saved": 8037,
  "▁window": 8038,
  "▁samples": 8039,
  "▁tetrahedron": 8040,
  "CH": 8041,
  "-4)": 8042,
  "flo": 8043,
  "pez": 8044,
  "ubs": 8045,
  "▁[[": 8046,
  "▁dv": 8047,
  "(-1)": 8048,
  "orig": 8049,
  "rots": 8050,
  "▁45.": 8051,
  "▁hot": 8052,
  "empty": 8053,
  "ivery": 8054,
  "steps": 8055,
  "usion": 8056,
  "hentic": 8057,
  "▁(-1)^": 8058,
  "rounded": 8059,
  "▁Surface": 8060,
  "▁crayons": 8061,
  "▁parabola": 8062,
  "▁competition": 8063,
  "▁considering": 8064,
  "6}": 8065,
  ")):": 8066,
  "75)": 8067,
  "can": 8068,
  "▁Mo": 8069,
  "▁శా": 8070,
  "2,3,": 8071,
  "unit": 8072,
  "▁1)(": 8073,
  "▁kit": 8074,
  "heets": 8075,
  "titude": 8076,
  "▁Emily": 8077,
  "▁moves": 8078,
  "▁promp": 8079,
  "orthern": 8080,
  "▁classif": 8081,
  "▁substitution": 8082,
  "_04": 8083,
  "geq": 8084,
  "▁Ol": 8085,
  "/10)": 8086,
  "_5_5": 8087,
  "▁60.": 8088,
  "▁Squ": 8089,
  "▁piv": 8090,
  "goals": 8091,
  "▁$(1,": 8092,
  "▁1800": 8093,
  "▁LoRa": 8094,
  "▁deck": 8095,
  "▁sure": 8096,
  "▁(4/3)": 8097,
  "▁Betti": 8098,
  "▁explo": 8099,
  "berries": 8100,
  "▁German": 8101,
  "▁Sensor": 8102,
  "▁health": 8103,
  "▁modify": 8104,
  "▁actually": 8105,
  "▁churches": 8106,
  "▁military": 8107,
  "▁Iteration": 8108,
  "▁contradic": 8109,
  "▁generator": 8110,
  "▁inventory": 8111,
  "▁eigenvalue": 8112,
  "▁experiment": 8113,
  "do": 8114,
  "-5)": 8115,
  "192": 8116,
  "=16": 8117,
  "ups": 8118,
  "^2$.": 8119,
  "ises": 8120,
  "sest": 8121,
  "▁$4.": 8122,
  "▁106": 8123,
  "▁BLE": 8124,
  "▁Rev": 8125,
  "▁sci": 8126,
  "anted": 8127,
  "▁Adam": 8128,
  "angers": 8129,
  "reland": 8130,
  "selves": 8131,
  "▁treat": 8132,
  "▁trial": 8133,
  "▁woman": 8134,
  "riction": 8135,
  "▁career": 8136,
  "▁little": 8137,
  "▁reflect": 8138,
  "▁accurate": 8139,
  "▁appropri": 8140,
  "▁stickers": 8141,
  "▁decreased": 8142,
  "▁populations": 8143,
  "▁traditional": 8144,
  "BA": 8145,
  "We": 8146,
  "జీ": 8147,
  "250": 8148,
  "▁Di": 8149,
  "lear": 8150,
  "than": 8151,
  "▁165": 8152,
  "▁260": 8153,
  "rease": 8154,
  "elbrot": 8155,
  "▁Inter": 8156,
  "▁Price": 8157,
  "▁eaten": 8158,
  "outhern": 8159,
  "▁Angela": 8160,
  "▁recomm": 8161,
  "▁predict": 8162,
  "▁puppies": 8163,
  "temporary": 8164,
  "▁centered": 8165,
  "▁economic": 8166,
  "▁quarters": 8167,
  "▁Mandelbrot": 8168,
  "▁interested": 8169,
  "▁Hamiltonian": 8170,
  ")$:": 8171,
  "*12": 8172,
  "tha": 8173,
  "gent": 8174,
  "▁420": 8175,
  "▁Ben": 8176,
  "▁tur": 8177,
  "gener": 8178,
  "rooms": 8179,
  "▁2006": 8180,
  "▁Dict": 8181,
  "▁10^(-": 8182,
  "▁pipes": 8183,
  "▁discre": 8184,
  "▁seventh": 8185,
  "▁Scotland": 8186,
  "▁authentic": 8187,
  "aconsistent": 8188,
  "▁revolution": 8189,
  "▁themselves": 8190,
  "TR": 8191,
  "333": 8192,
  "|^2": 8193,
  "బ్బ": 8194,
  "▁0]": 8195,
  "▁Ac": 8196,
  "▁Vi": 8197,
  "▁hm": 8198,
  "omas": 8199,
  "reek": 8200,
  "teen": 8201,
  "▁(6,": 8202,
  "▁1/7": 8203,
  "▁50)": 8204,
  "▁tip": 8205,
  "ogene": 8206,
  "▁Hall": 8207,
  "▁rice": 8208,
  "▁wait": 8209,
  "▁పచ్చ": 8210,
  "employ": 8211,
  "▁prize": 8212,
  "▁tenth": 8213,
  "▁driver": 8214,
  "▁recogn": 8215,
  "▁trying": 8216,
  "▁driving": 8217,
  "▁relates": 8218,
  "▁knowledge": 8219,
  "▁ప్రాంతాలు": 8220,
  "▁algorithms": 8221,
  "▁encryption": 8222,
  "NW": 8223,
  "_2$": 8224,
  "arm": 8225,
  "pan": 8226,
  "▁ml": 8227,
  "▁$1$": 8228,
  "▁40,": 8229,
  "▁Los": 8230,
  "Glass": 8231,
  "ictor": 8232,
  "marks": 8233,
  "oking": 8234,
  "▁Phil": 8235,
  "▁maps": 8236,
  "ipping": 8237,
  "▁Canad": 8238,
  "▁chall": 8239,
  "▁inner": 8240,
  "connect": 8241,
  "▁1000.0": 8242,
  "▁Mackey": 8243,
  "▁transi": 8244,
  "▁utility": 8245,
  "▁assigned": 8246,
  "▁contribution": 8247,
  ",\"": 8248,
  "{9": 8249,
  "(2\\": 8250,
  "150": 8251,
  "ads": 8252,
  "omy": 8253,
  "(2))": 8254,
  "lish": 8255,
  "span": 8256,
  "▁60,": 8257,
  "▁Its": 8258,
  "▁Lou": 8259,
  "▁emb": 8260,
  "▁hex": 8261,
  "▁లిం": 8262,
  "ieval": 8263,
  "isher": 8264,
  "tered": 8265,
  "▁0.5)": 8266,
  "▁tour": 8267,
  "_00027": 8268,
  "▁occup": 8269,
  "▁pivot": 8270,
  "▁sheep": 8271,
  "▁tests": 8272,
  "▁alphab": 8273,
  "▁drives": 8274,
  "▁floors": 8275,
  "▁symbol": 8276,
  "ximately": 8277,
  "▁Central": 8278,
  "▁accidents": 8279,
  "▁contributed": 8280,
  "(9": 8281,
  "rö": 8282,
  "/(2": 8283,
  "=25": 8284,
  "isa": 8285,
  "uan": 8286,
  "uri": 8287,
  "▁భా": 8288,
  "aker": 8289,
  "irls": 8290,
  "▁28,": 8291,
  "▁Day": 8292,
  "▁hus": 8293,
  "▁pan": 8294,
  "ville": 8295,
  "▁Hill": 8296,
  "▁Mari": 8297,
  "_00008": 8298,
  "assert": 8299,
  "output": 8300,
  "▁knows": 8301,
  "▁almost": 8302,
  "▁worker": 8303,
  "fetchall": 8304,
  "▁achieve": 8305,
  "▁drawing": 8306,
  "▁profits": 8307,
  "▁operator": 8308,
  "▁upcoming": 8309,
  "వే": 8310,
  "bee": 8311,
  "▁).": 8312,
  "▁అడ": 8313,
  "▁తీ": 8314,
  "adem": 8315,
  "ivil": 8316,
  "rban": 8317,
  "▁126": 8318,
  "▁132": 8319,
  "▁Sal": 8320,
  "▁Tra": 8321,
  "▁tag": 8322,
  "▁ఎస్": 8323,
  "^{-1}": 8324,
  "▁1/15": 8325,
  "▁2007": 8326,
  "▁2008": 8327,
  "otimes": 8328,
  "▁bills": 8329,
  "((0,0),": 8330,
  "▁command": 8331,
  "fficiency": 8332,
  "▁industry": 8333,
  "▁proposal": 8334,
  "▁systematic": 8335,
  "▁arrangement": 8336,
  "*8": 8337,
  "\\,": 8338,
  "nu": 8339,
  "▁γ": 8340,
  "101": 8341,
  "onn": 8342,
  "▁2$": 8343,
  "▁93": 8344,
  "____": 8345,
  "risk": 8346,
  "▁22.": 8347,
  "▁pas": 8348,
  "▁spr": 8349,
  "8080/": 8350,
  "Arrow": 8351,
  "కింగు": 8352,
  "ారాయణ": 8353,
  "▁$500": 8354,
  "▁Cast": 8355,
  "▁Play": 8356,
  "overed": 8357,
  "▁avoid": 8358,
  "▁focus": 8359,
  "similar": 8360,
  "▁Center": 8361,
  "▁carpet": 8362,
  "▁served": 8363,
  "▁sports": 8364,
  "▁లింకులు": 8365,
  "▁dominant": 8366,
  "▁బ్యాంకింగు": 8367,
  "▁మార్కెటింగు": 8368,
  ".9": 8369,
  "No": 8370,
  "sl": 8371,
  "+30": 8372,
  "fri": 8373,
  "leg": 8374,
  "olf": 8375,
  "saf": 8376,
  "▁4!": 8377,
  "▁AD": 8378,
  "▁NE": 8379,
  "▁కృ": 8380,
  "▁దీ": 8381,
  "▁∂2": 8382,
  "=(0,": 8383,
  "=808": 8384,
  "_6_5": 8385,
  "blue": 8386,
  "ccer": 8387,
  "umul": 8388,
  "▁1/9": 8389,
  "▁12%": 8390,
  "▁21,": 8391,
  "▁22,": 8392,
  "▁4/3": 8393,
  "▁Mrs": 8394,
  "▁Non": 8395,
  "▁Show": 8396,
  "▁aver": 8397,
  "▁orth": 8398,
  "Engine": 8399,
  "▁8080.": 8400,
  "▁Const": 8401,
  "▁stoch": 8402,
  "=8080)`": 8403,
  "▁centre": 8404,
  "▁Charlie": 8405,
  "▁Ireland": 8406,
  "▁contact": 8407,
  "▁schools": 8408,
  "▁generators": 8409,
  "▁stochastic": 8410,
  "▁triangular": 8411,
  "▁Relationship": 8412,
  "+(": 8413,
  "oday": 8414,
  "tile": 8415,
  "▁Ken": 8416,
  "clean": 8417,
  "▁0.95": 8418,
  "▁Dist": 8419,
  "▁pure": 8420,
  "▁కాలు": 8421,
  "elines": 8422,
  "future": 8423,
  "▁motor": 8424,
  "▁Newton": 8425,
  "▁reduce": 8426,
  "▁street": 8427,
  "▁trapez": 8428,
  "▁College": 8429,
  "▁జిల్లాలోని": 8430,
  ")),": 8431,
  "13.": 8432,
  "=30": 8433,
  "aut": 8434,
  "gen": 8435,
  "both": 8436,
  "▁25)": 8437,
  "▁2^3": 8438,
  "▁3.8": 8439,
  "▁reb": 8440,
  "▁1600": 8441,
  "▁Only": 8442,
  "▁iron": 8443,
  "▁gamma": 8444,
  "▁owner": 8445,
  "▁sizes": 8446,
  "▁trust": 8447,
  "▁usage": 8448,
  "issance": 8449,
  "marbles": 8450,
  "▁batter": 8451,
  "▁litres": 8452,
  "▁marked": 8453,
  "▁silver": 8454,
  "▁morning": 8455,
  "▁studies": 8456,
  "▁subsets": 8457,
  "▁totient": 8458,
  "▁Applying": 8459,
  "▁computed": 8460,
  "▁diagonals": 8461,
  "▁explained": 8462,
  "▁chocolates": 8463,
  "▁cylindrical": 8464,
  "An": 8465,
  "CP": 8466,
  "మె": 8467,
  "105": 8468,
  "6),": 8469,
  "▁\".": 8470,
  "inda": 8471,
  "itan": 8472,
  "వత్స": 8473,
  "▁$45": 8474,
  "▁Wal": 8475,
  "▁ill": 8476,
  "▁రచన": 8477,
  "cohol": 8478,
  "units": 8479,
  "▁0.03": 8480,
  "▁novel": 8481,
  "▁guests": 8482,
  "▁stones": 8483,
  "ogeneous": 8484,
  "▁closest": 8485,
  "▁strength": 8486,
  "కల": 8487,
  "తా": 8488,
  "యో": 8489,
  "▁Γ": 8490,
  "(60": 8491,
  "ube": 8492,
  "anna": 8493,
  "chol": 8494,
  "ingu": 8495,
  "role": 8496,
  "▁6),": 8497,
  "▁Bay": 8498,
  "▁Met": 8499,
  "binom": 8500,
  "echan": 8501,
  "ipped": 8502,
  "▁jack": 8503,
  "▁రోడ్": 8504,
  "▁award": 8505,
  "▁metre": 8506,
  "▁thief": 8507,
  "osition": 8508,
  "▁walked": 8509,
  "▁wanted": 8510,
  "▁request": 8511,
  "▁attended": 8512,
  "Rightarrow": 8513,
  "▁typically": 8514,
  "1=": 8515,
  "▁τ": 8516,
  "700": 8517,
  "ino": 8518,
  "ius": 8519,
  "reg": 8520,
  "zed": 8521,
  "▁RE": 8522,
  "task": 8523,
  "wood": 8524,
  "▁nth": 8525,
  "▁(-0.": 8526,
  "▁0.2,": 8527,
  "▁Cath": 8528,
  "▁Over": 8529,
  "▁cool": 8530,
  "▁Carlo": 8531,
  "▁entry": 8532,
  "▁finds": 8533,
  "▁veget": 8534,
  "▁Sample": 8535,
  "▁chains": 8536,
  "▁detail": 8537,
  "▁orient": 8538,
  "▁relate": 8539,
  "▁shares": 8540,
  "▁spring": 8541,
  "▁steady": 8542,
  "▁changed": 8543,
  "production": 8544,
  "▁extension": 8545,
  "▁published": 8546,
  "▁particularly": 8547,
  "kx": 8548,
  "mm": 8549,
  "▁£": 8550,
  "=0,": 8551,
  "ica": 8552,
  "zer": 8553,
  "ర్ల": 8554,
  "▁},": 8555,
  "▁తి": 8556,
  "▁వీ": 8557,
  "arah": 8558,
  "fall": 8559,
  "icro": 8560,
  "▁3.6": 8561,
  "▁beg": 8562,
  "▁ful": 8563,
  "field": 8564,
  "▁Once": 8565,
  "▁bike": 8566,
  "_00006": 8567,
  "▁Japan": 8568,
  "▁Schrö": 8569,
  "▁chann": 8570,
  "▁trade": 8571,
  "▁రాష్ట": 8572,
  "century": 8573,
  "ipeline": 8574,
  "▁accept": 8575,
  "▁offers": 8576,
  "▁Mathema": 8577,
  "▁combine": 8578,
  "▁himself": 8579,
  "▁Together": 8580,
  "▁describe": 8581,
  "▁election": 8582,
  "▁national": 8583,
  "▁restaurant": 8584,
  "▁transformation": 8585,
  "ua": 8586,
  "(45": 8587,
  "+5)": 8588,
  "lls": 8589,
  "sey": 8590,
  "వలు": 8591,
  "▁==": 8592,
  "▁వె": 8593,
  "[-1]": 8594,
  "plus": 8595,
  "tific": 8596,
  "trust": 8597,
  "white": 8598,
  "▁$120": 8599,
  "▁2011": 8600,
  "▁coll": 8601,
  "▁mush": 8602,
  "dinger": 8603,
  "▁Stock": 8604,
  "▁tomat": 8605,
  "▁corner": 8606,
  "▁formul": 8607,
  "▁shorter": 8608,
  "▁Historic": 8609,
  "▁removing": 8610,
  "▁selection": 8611,
  "▁Schrödinger": 8612,
  "▁convergence": 8613,
  "▁perpendicular": 8614,
  ")?": 8615,
  "(30": 8616,
  "arc": 8617,
  "})$": 8618,
  "స్థ": 8619,
  "▁Tw": 8620,
  "high": 8621,
  "tect": 8622,
  "▁Mor": 8623,
  "▁vot": 8624,
  "--(0,": 8625,
  "delay": 8626,
  "espec": 8627,
  "world": 8628,
  "▁Kate": 8629,
  "▁burn": 8630,
  "▁అడవి": 8631,
  "apples": 8632,
  "mistry": 8633,
  "shirts": 8634,
  "▁Years": 8635,
  "▁designs": 8636,
  "▁thought": 8637,
  "▁calories": 8638,
  "▁covering": 8639,
  "▁canonical": 8640,
  "▁evolution": 8641,
  "▁scenarios": 8642,
  "PD": 8643,
  "▁Ã": 8644,
  "▁డ": 8645,
  "*0.": 8646,
  "▁(14": 8647,
  "▁17.": 8648,
  "▁Cor": 8649,
  "▁fre": 8650,
  "▁2010": 8651,
  "▁join": 8652,
  "▁says": 8653,
  "ricket": 8654,
  "▁radio": 8655,
  "▁stage": 8656,
  "▁stars": 8657,
  "▁yield": 8658,
  "gorithm": 8659,
  "history": 8660,
  "special": 8661,
  "▁drinks": 8662,
  "▁medium": 8663,
  "▁Further": 8664,
  "▁doubled": 8665,
  "▁married": 8666,
  "▁analytic": 8667,
  "▁appeared": 8668,
  "▁employed": 8669,
  "▁chromatic": 8670,
  "▁maximizes": 8671,
  "▁universal": 8672,
  "▁Calculating": 8673,
  "/9)": 8674,
  "1^2": 8675,
  "epis": 8676,
  "ొన్న": 8677,
  "▁(40": 8678,
  "▁168": 8679,
  "▁Tim": 8680,
  "▁Zig": 8681,
  "▁ఇది": 8682,
  "=80)`": 8683,
  "child": 8684,
  "inted": 8685,
  "multi": 8686,
  "▁$150": 8687,
  "▁UART": 8688,
  "▁drop": 8689,
  "▁seat": 8690,
  "scores": 8691,
  "▁River": 8692,
  "▁mango": 8693,
  "plectic": 8694,
  "▁claims": 8695,
  "▁errors": 8696,
  "required": 8697,
  "▁Charles": 8698,
  "▁longest": 8699,
  "▁periods": 8700,
  "▁chemical": 8701,
  "▁discussed": 8702,
  "▁financial": 8703,
  "▁architects": 8704,
  "2/": 8705,
  "900": 8706,
  "{10": 8707,
  "▁గో": 8708,
  ")--(": 8709,
  "otel": 8710,
  "▁3^2": 8711,
  "▁Tri": 8712,
  "▁mos": 8713,
  "▁mps": 8714,
  "▁మేత": 8715,
  "▁Expl": 8716,
  "▁Mike": 8717,
  "antine": 8718,
  "direct": 8719,
  "▁plays": 8720,
  "iration": 8721,
  "▁expend": 8722,
  "▁forget": 8723,
  "▁plates": 8724,
  "▁పచ్చిక": 8725,
  "▁identif": 8726,
  "▁కాలువలు": 8727,
  "▁advanced": 8728,
  "▁entrance": 8729,
  "▁intervals": 8730,
  "▁efficiency": 8731,
  "▁influenced": 8732,
  "▁statistics": 8733,
  "HA": 8734,
  "▁∑": 8735,
  ")!)": 8736,
  "=18": 8737,
  "bus": 8738,
  "ాలి": 8739,
  "▁'{": 8740,
  "hand": 8741,
  "lood": 8742,
  "reen": 8743,
  "కత్వ": 8744,
  "శ్వత": 8745,
  "▁104": 8746,
  "▁230": 8747,
  "▁ess": 8748,
  "clide": 8749,
  "▁0.5,": 8750,
  "▁1/20": 8751,
  "▁bits": 8752,
  "▁flour": 8753,
  "▁outer": 8754,
  "clidean": 8755,
  "▁castle": 8756,
  "▁copies": 8757,
  "▁శాశ్వత": 8758,
  "▁America": 8759,
  "▁payment": 8760,
  "▁usually": 8761,
  "▁carrying": 8762,
  "▁concepts": 8763,
  "▁generates": 8764,
  "▁libraries": 8765,
  "▁initialize": 8766,
  "▁symplectic": 8767,
  "▁appropriate": 8768,
  "▁replacement": 8769,
  "దే": 8770,
  "▁⋊": 8771,
  "▁⟨": 8772,
  "ivp": 8773,
  "lon": 8774,
  "rus": 8775,
  "▁Hy": 8776,
  "▁mm": 8777,
  "▁ur": 8778,
  "((1,": 8779,
  "ర్తి": 8780,
  "▁33.": 8781,
  "alled": 8782,
  "phone": 8783,
  "▁shif": 8784,
  "spring": 8785,
  "▁Apply": 8786,
  "▁Appro": 8787,
  "▁acres": 8788,
  "▁మండలం": 8789,
  "▁attemp": 8790,
  "▁dollar": 8791,
  "▁matter": 8792,
  "▁sheets": 8793,
  "▁weekend": 8794,
  "▁contract": 8795,
  "▁district": 8796,
  "▁frequent": 8797,
  "▁Simplifying": 8798,
  "▁alternating": 8799,
  "▁authentication": 8800,
  "^8": 8801,
  "మణ": 8802,
  "▁∴": 8803,
  "0).": 8804,
  "^2-": 8805,
  "ira": 8806,
  "iri": 8807,
  "▁2}": 8808,
  "rial": 8809,
  "▁(3.": 8810,
  "▁Ant": 8811,
  "▁[2,": 8812,
  "▁anc": 8813,
  "ldots": 8814,
  "tings": 8815,
  "▁(1/2": 8816,
  "▁0.1)": 8817,
  "▁Four": 8818,
  "▁vote": 8819,
  "extend": 8820,
  "▁prism": 8821,
  "▁Zigbee": 8822,
  "▁compan": 8823,
  "▁fertil": 8824,
  "▁marble": 8825,
  "▁queries": 8826,
  "▁affected": 8827,
  "▁converges": 8828,
  "▁households": 8829,
  "LO": 8830,
  "kl": 8831,
  "ox": 8832,
  "▁≅": 8833,
  "▁NU": 8834,
  ")/2,": 8835,
  "ptim": 8836,
  "▁166": 8837,
  "▁30-": 8838,
  "{1}{3": 8839,
  "▁0.12": 8840,
  "▁0.20": 8841,
  "▁Fran": 8842,
  "▁duck": 8843,
  "▁inch": 8844,
  "▁seem": 8845,
  "mathrm": 8846,
  "passed": 8847,
  "పురంలో": 8848,
  "▁lands": 8849,
  "▁invari": 8850,
  "▁రోడ్లు": 8851,
  "▁bounded": 8852,
  "▁suggests": 8853,
  "▁conjugate": 8854,
  "▁incorrect": 8855,
  "▁projection": 8856,
  "▁observation": 8857,
  "={": 8858,
  "^7": 8859,
  "13,": 8860,
  "136": 8861,
  "=14": 8862,
  "hop": 8863,
  "▁8:": 8864,
  "_0_5": 8865,
  "కారం": 8866,
  "▁119": 8867,
  "▁Tem": 8868,
  "▁bur": 8869,
  "▁tom": 8870,
  "iling": 8871,
  "▁adop": 8872,
  "▁Brown": 8873,
  "▁Carol": 8874,
  "▁homot": 8875,
  "▁horse": 8876,
  "agement": 8877,
  "herical": 8878,
  "▁arctan": 8879,
  "▁figures": 8880,
  "▁sitting": 8881,
  "▁దర్శకత్వ": 8882,
  "omorphisms": 8883,
  "▁Euclidean": 8884,
  "▁principle": 8885,
  "▁subtracting": 8886,
  "8}": 8887,
  "TT": 8888,
  "bp": 8889,
  ")^3": 8890,
  "_3,": 8891,
  "ంటి": 8892,
  "్యూ": 8893,
  "▁(∂": 8894,
  "▁6!": 8895,
  "▁sr": 8896,
  "▁lie": 8897,
  "▁అనే": 8898,
  "bling": 8899,
  "iffer": 8900,
  "ising": 8901,
  "ాపూర్": 8902,
  "▁-0.0": 8903,
  "▁0.04": 8904,
  "ampion": 8905,
  "▁dimes": 8906,
  "▁strip": 8907,
  "context": 8908,
  "uniform": 8909,
  "▁Victor": 8910,
  "▁defect": 8911,
  "▁Laplace": 8912,
  "▁Thursday": 8913,
  "▁notebooks": 8914,
  "▁quantities": 8915,
  "▁recurrence": 8916,
  "------------": 8917,
  "arrangements": 8918,
  "AS": 8919,
  "OL": 8920,
  "ca": 8921,
  "రే": 8922,
  "▁~": 8923,
  "/6)": 8924,
  "cil": 8925,
  "oke": 8926,
  "▁8%": 8927,
  "acon": 8928,
  "iors": 8929,
  "odic": 8930,
  "show": 8931,
  "▁$2,": 8932,
  "▁Act": 8933,
  "▁Mid": 8934,
  "▁dry": 8935,
  "▁fly": 8936,
  "▁sib": 8937,
  "minus": 8938,
  "token": 8939,
  "▁8000": 8940,
  "▁Comm": 8941,
  "▁king": 8942,
  "▁meal": 8943,
  "▁scal": 8944,
  "Arrows": 8945,
  "format": 8946,
  "▁brick": 8947,
  "▁calls": 8948,
  "▁sends": 8949,
  "▁Adding": 8950,
  "▁Clevel": 8951,
  "▁Thomas": 8952,
  "▁campus": 8953,
  "▁decide": 8954,
  "▁online": 8955,
  "▁rabbit": 8956,
  "levision": 8957,
  "▁appears": 8958,
  "▁homework": 8959,
  "▁political": 8960,
  "▁magnitudes": 8961,
  "*9": 8962,
  "-15": 8963,
  "eat": 8964,
  "▁[2": 8965,
  "$\",(": 8966,
  "burg": 8967,
  "gain": 8968,
  "nter": 8969,
  "}$\",": 8970,
  "▁Equ": 8971,
  "▁Ros": 8972,
  "▁exc": 8973,
  "▁jun": 8974,
  "sures": 8975,
  "▁Half": 8976,
  "▁adds": 8977,
  "▁cred": 8978,
  "public": 8979,
  "{1}{3}": 8980,
  "▁China": 8981,
  "▁Green": 8982,
  "▁Jerry": 8983,
  "▁Smith": 8984,
  "▁Where": 8985,
  "▁domes": 8986,
  "▁prior": 8987,
  "▁relev": 8988,
  "▁Simple": 8989,
  "▁announ": 8990,
  "▁critic": 8991,
  "▁spread": 8992,
  "▁deliver": 8993,
  "▁portion": 8994,
  "▁sprints": 8995,
  "▁homogeneous": 8996,
  "▁instructions": 8997,
  "&&": 8998,
  "\\%": 8999,
  "gn": 9000,
  "రీ": 9001,
  "ీల": 9002,
  "=24": 9003,
  "_19": 9004,
  "roy": 9005,
  "ర్గ": 9006,
  "▁దు": 9007,
  "-1)(": 9008,
  "_0_2": 9009,
  "seed": 9010,
  "style": 9011,
  "▁16.0": 9012,
  "▁conv": 9013,
  "▁pink": 9014,
  "▁వేరు": 9015,
  "▁homes": 9016,
  "▁songs": 9017,
  "actions": 9018,
  "▁Design": 9019,
  "▁Vertex": 9020,
  "▁మొదలైన": 9021,
  "solutions": 9022,
  "▁applying": 9023,
  "▁visitors": 9024,
  "enaissance": 9025,
  "▁palindrom": 9026,
  "▁defaultpen": 9027,
  "▁hyperplane": 9028,
  "▁separately": 9029,
  "▁participants": 9030,
  "1+": 9031,
  "▁ఖ": 9032,
  "16)": 9033,
  "hab": 9034,
  "has": 9035,
  "సిన": 9036,
  "item": 9037,
  "pret": 9038,
  "uman": 9039,
  "▁(1.": 9040,
  "▁Fil": 9041,
  "▁Hol": 9042,
  "▁bad": 9043,
  "▁fro": 9044,
  "▁rob": 9045,
  "▁thr": 9046,
  "works": 9047,
  "▁1.25": 9048,
  "▁2009": 9049,
  "▁gene": 9050,
  "_00003": 9051,
  "_00004": 9052,
  "▁overt": 9053,
  "▁radii": 9054,
  "▁Program": 9055,
  "▁alcohol": 9056,
  "▁fencing": 9057,
  "▁Cleveland": 9058,
  "▁president": 9059,
  "▁simulated": 9060,
  "▁jellybeans": 9061,
  "▁holomorphic": 9062,
  "PT": 9063,
  "QR": 9064,
  "▁;": 9065,
  "(15": 9066,
  "fin": 9067,
  "▁4\\": 9068,
  "▁ce": 9069,
  "(30)": 9070,
  "MATH": 9071,
  "amin": 9072,
  "boys": 9073,
  "▁$2$": 9074,
  "▁(36": 9075,
  "▁MAT": 9076,
  "▁Sen": 9077,
  "▁inj": 9078,
  "▁lab": 9079,
  "_0023": 9080,
  "eeper": 9081,
  "girls": 9082,
  "uries": 9083,
  "పల్లె": 9084,
  "▁(120": 9085,
  "▁NULL": 9086,
  "▁Rich": 9087,
  "_00009": 9088,
  "choose": 9089,
  "▁brand": 9090,
  "▁typing": 9091,
  "▁dropped": 9092,
  "▁tonight": 9093,
  "▁altitude": 9094,
  "▁formulas": 9095,
  "▁rotation": 9096,
  "▁చిత్రాలు": 9097,
  "ortunately": 9098,
  "▁practical": 9099,
  ")}\\": 9100,
  "15.": 9101,
  "18,": 9102,
  "ams": 9103,
  "dro": 9104,
  "ూరి": 9105,
  "▁Er": 9106,
  "▁నా": 9107,
  "(200": 9108,
  "^2}{": 9109,
  "aked": 9110,
  "amer": 9111,
  "tegy": 9112,
  "▁27.": 9113,
  "▁32.": 9114,
  "▁Ang": 9115,
  "▁Den": 9116,
  "▁dol": 9117,
  "▁condu": 9118,
  "▁picks": 9119,
  "▁schol": 9120,
  "▁solid": 9121,
  "ospital": 9122,
  "▁author": 9123,
  "▁retail": 9124,
  "▁seated": 9125,
  "▁soccer": 9126,
  "▁sticks": 9127,
  "▁Maxwell": 9128,
  "▁creates": 9129,
  "▁midnight": 9130,
  "▁normally": 9131,
  "▁topology": 9132,
  "▁traveler": 9133,
  "▁companies": 9134,
  "▁hyperbolic": 9135,
  "▁trajectory": 9136,
  "▁Renaissance": 9137,
  "▁necessarily": 9138,
  "▁possibility": 9139,
  "జా": 9140,
  "2.5": 9141,
  "ios": 9142,
  "}_{": 9143,
  "▁*=": 9144,
  "▁-=": 9145,
  "▁8!": 9146,
  "))^2": 9147,
  "LETE": 9148,
  "_{-\\": 9149,
  "eder": 9150,
  "fric": 9151,
  "ంధ్ర": 9152,
  "▁RAM": 9153,
  "▁edu": 9154,
  "▁etc": 9155,
  "Ticks": 9156,
  "ennis": 9157,
  "erval": 9158,
  "loads": 9159,
  "store": 9160,
  "▁Brit": 9161,
  "▁func": 9162,
  "calcul": 9163,
  "▁activ": 9164,
  "▁beans": 9165,
  "▁doing": 9166,
  "▁trips": 9167,
  "▁tuple": 9168,
  "▁Robert": 9169,
  "▁adjust": 9170,
  "▁caused": 9171,
  "▁extern": 9172,
  "▁jogger": 9173,
  "▁mechan": 9174,
  "▁museum": 9175,
  "▁husband": 9176,
  "▁mention": 9177,
  "overnance": 9178,
  "▁teachers": 9179,
  "▁altogether": 9180,
  "2]": 9181,
  "▁ట": 9182,
  "/50": 9183,
  "75,": 9184,
  "hot": 9185,
  "}\\]": 9186,
  "ుంట": 9187,
  "1000": 9188,
  "keys": 9189,
  "▁11)": 9190,
  "▁19,": 9191,
  "▁2.7": 9192,
  "▁80,": 9193,
  "▁Pri": 9194,
  "▁Raj": 9195,
  "▁dra": 9196,
  "▁hal": 9197,
  "▁lik": 9198,
  "ffice": 9199,
  "zeros": 9200,
  "▁(0.5": 9201,
  "▁Math": 9202,
  "▁pies": 9203,
  "▁Julia": 9204,
  "▁noted": 9205,
  "▁persp": 9206,
  "▁websi": 9207,
  "acteria": 9208,
  "counter": 9209,
  "▁Combin": 9210,
  "▁closes": 9211,
  "▁easily": 9212,
  "▁forest": 9213,
  "category": 9214,
  "omething": 9215,
  "▁exchange": 9216,
  "▁mutation": 9217,
  "▁crossover": 9218,
  "fortunately": 9219,
  "యి": 9220,
  "+1,": 9221,
  "0**": 9222,
  "umb": 9223,
  "ారం": 9224,
  "▁Ir": 9225,
  "▁kn": 9226,
  "prob": 9227,
  "prom": 9228,
  "umer": 9229,
  "{2}{": 9230,
  "})$.": 9231,
  "▁Cap": 9232,
  "▁Mad": 9233,
  "▁Sus": 9234,
  "▁Wil": 9235,
  "▁దేశ": 9236,
  "(1/3)": 9237,
  "abric": 9238,
  "▁Germ": 9239,
  "▁TEXT": 9240,
  "_00037": 9241,
  "ouncil": 9242,
  "▁usual": 9243,
  "▁కృష్ణ": 9244,
  "▁arccos": 9245,
  "▁biology": 9246,
  "▁contest": 9247,
  "▁village": 9248,
  "▁widgets": 9249,
  "▁argument": 9250,
  "▁Christian": 9251,
  "▁exponents": 9252,
  "▁compounded": 9253,
  "▁underlying": 9254,
  "▁university": 9255,
  "5}": 9256,
  "=-": 9257,
  "TH": 9258,
  "12)": 9259,
  "135": 9260,
  "^3.": 9261,
  "_0(": 9262,
  "las": 9263,
  "oms": 9264,
  "ura": 9265,
  "utf": 9266,
  "(\"$\\": 9267,
  "ecti": 9268,
  "tell": 9269,
  "▁185": 9270,
  "▁2).": 9271,
  "▁23.": 9272,
  "▁lcm": 9273,
  "_{22}": 9274,
  "atory": 9275,
  "licit": 9276,
  "▁-0.5": 9277,
  "▁Cour": 9278,
  "▁hill": 9279,
  "▁upon": 9280,
  "ington": 9281,
  "ptions": 9282,
  "return": 9283,
  "▁$1000": 9284,
  "▁ideas": 9285,
  "▁stops": 9286,
  "▁Daniel": 9287,
  "▁impact": 9288,
  "▁prompt": 9289,
  "possible": 9290,
  "▁Correct": 9291,
  "▁candles": 9292,
  "▁modulus": 9293,
  "▁strings": 9294,
  "▁activity": 9295,
  "▁electron": 9296,
  "▁movement": 9297,
  "▁partners": 9298,
  "▁మొదలైనవి": 9299,
  "▁duplicate": 9300,
  "▁framework": 9301,
  "▁sufficient": 9302,
  "relationship": 9303,
  "2*": 9304,
  "3*": 9305,
  "^9": 9306,
  "()`": 9307,
  "128": 9308,
  "=40": 9309,
  "ida": 9310,
  "▁2%": 9311,
  "▁5]": 9312,
  "▁6*": 9313,
  "▁ni": 9314,
  "(0.7": 9315,
  "ager": 9316,
  "piec": 9317,
  "▁Dar": 9318,
  "▁bit": 9319,
  "▁yet": 9320,
  "_0011": 9321,
  "atial": 9322,
  "lines": 9323,
  "▁Koch": 9324,
  "▁spir": 9325,
  "ilbert": 9326,
  "▁depth": 9327,
  "▁exten": 9328,
  "idirect": 9329,
  "results": 9330,
  "▁Amount": 9331,
  "▁commer": 9332,
  "enchmark": 9333,
  "fontsize": 9334,
  "▁entered": 9335,
  "▁Building": 9336,
  "▁Moreover": 9337,
  "▁computes": 9338,
  "▁explicit": 9339,
  "▁medieval": 9340,
  "▁numbered": 9341,
  "▁attractor": 9342,
  "▁multiplic": 9343,
  "▁regardless": 9344,
  "▁separation": 9345,
  "IV": 9346,
  "్ష": 9347,
  "(8)": 9348,
  "/2.": 9349,
  "ais": 9350,
  "att": 9351,
  "lyn": 9352,
  "▁CO": 9353,
  "3333": 9354,
  "baum": 9355,
  "lymp": 9356,
  "oice": 9357,
  "xmax": 9358,
  "▁$11": 9359,
  "▁$36": 9360,
  "▁330": 9361,
  "▁via": 9362,
  "▁ఉంట": 9363,
  ",000)": 9364,
  "annah": 9365,
  "ckets": 9366,
  "idden": 9367,
  "insky": 9368,
  "▁exec": 9369,
  "_00023": 9370,
  "bottom": 9371,
  "▁Great": 9372,
  "▁Latin": 9373,
  "▁diver": 9374,
  "▁divid": 9375,
  "▁ideal": 9376,
  "▁potat": 9377,
  "▁urban": 9378,
  "▁ఆంధ్ర": 9379,
  "etailed": 9380,
  "quality": 9381,
  "tegrate": 9382,
  "▁animal": 9383,
  "▁attrib": 9384,
  "▁happen": 9385,
  "▁billing": 9386,
  "▁brownies": 9387,
  "▁endpoints": 9388,
  "▁imaginary": 9389,
  "▁generation": 9390,
  "▁importance": 9391,
  "-$": 9392,
  "))]": 9393,
  "ERT": 9394,
  "]]:": 9395,
  "hex": 9396,
  "unn": 9397,
  "▁2/": 9398,
  "▁4%": 9399,
  "▁Cy": 9400,
  "esti": 9401,
  "expr": 9402,
  "▁8/3": 9403,
  "▁Mal": 9404,
  "▁fee": 9405,
  "▁kms": 9406,
  "Total": 9407,
  "itage": 9408,
  "▁\"\"\",": 9409,
  "$\",(0,": 9410,
  "urance": 9411,
  "▁(0,0,": 9412,
  "▁తోటలు": 9413,
  "integer": 9414,
  "nealing": 9415,
  "▁commod": 9416,
  "▁forced": 9417,
  "▁gained": 9418,
  "▁నిర్మా": 9419,
  "▁nickels": 9420,
  "2.168.1.5": 9421,
  "arrowsize": 9422,
  "▁inspired": 9423,
  "especially": 9424,
  "▁Transform": 9425,
  "▁education": 9426,
  "▁integrating": 9427,
  "▁Unfortunately": 9428,
  "▁international": 9429,
  "────────────────": 9430,
  "-|": 9431,
  "3%": 9432,
  "][": 9433,
  "gu": 9434,
  "yi": 9435,
  "హద": 9436,
  "**4": 9437,
  "Res": 9438,
  "cor": 9439,
  "pow": 9440,
  "rab": 9441,
  "▁[1": 9442,
  "bits": 9443,
  "irds": 9444,
  "rast": 9445,
  "star": 9446,
  "yond": 9447,
  "రాజు": 9448,
  "▁-1)": 9449,
  "▁121": 9450,
  "▁3).": 9451,
  "▁Mac": 9452,
  "▁fix": 9453,
  "hakes": 9454,
  "▁Brad": 9455,
  "▁Jose": 9456,
  "▁copy": 9457,
  "▁kept": 9458,
  "tailed": 9459,
  "urgers": 9460,
  "▁10:00": 9461,
  "▁chose": 9462,
  "▁beyond": 9463,
  "▁highly": 9464,
  "▁prison": 9465,
  "▁rolling": 9466,
  "▁Catholic": 9467,
  "▁modified": 9468,
  "▁spherical": 9469,
  "▁stability": 9470,
  "▁decreasing": 9471,
  "▁timesheets": 9472,
  "▁eigenvector": 9473,
  "▁expenditure": 9474,
  "({": 9475,
  "2\\": 9476,
  "US": 9477,
  "iy": 9478,
  "fil": 9479,
  "ద్ధ": 9480,
  "్యా": 9481,
  "▁(?": 9482,
  "▁2]": 9483,
  "▁6%": 9484,
  "▁6-": 9485,
  "▁bc": 9486,
  "phas": 9487,
  "tage": 9488,
  "▁156": 9489,
  "▁186": 9490,
  "▁ODE": 9491,
  "akers": 9492,
  "oidal": 9493,
  "sters": 9494,
  "▁0.99": 9495,
  "▁Vari": 9496,
  "▁corn": 9497,
  "titute": 9498,
  "▁Gener": 9499,
  "▁Monte": 9500,
  "▁minim": 9501,
  "▁semic": 9502,
  "▁వేరుశ": 9503,
  "ativity": 9504,
  "plotlib": 9505,
  "▁belong": 9506,
  "▁expand": 9507,
  "igenbaum": 9508,
  "nowledge": 9509,
  "rational": 9510,
  "umulative": 9511,
  "▁defining": 9512,
  "▁exhibits": 9513,
  "▁priority": 9514,
  "▁pipelines": 9515,
  "▁historical": 9516,
  "▁television": 9517,
  "▁సాగవుతున్న": 9518,
  "FT": 9519,
  "He": 9520,
  "RL": 9521,
  ":05": 9522,
  "=60": 9523,
  "aid": 9524,
  "avg": 9525,
  "రుష": 9526,
  "వాస": 9527,
  "▁bn": 9528,
  "▁గణ": 9529,
  "cape": 9530,
  "foot": 9531,
  "grid": 9532,
  "ours": 9533,
  "▁(80": 9534,
  "▁28.": 9535,
  "▁Rou": 9536,
  "adata": 9537,
  "boxes": 9538,
  "false": 9539,
  "items": 9540,
  "roman": 9541,
  "▁0.08": 9542,
  "▁guar": 9543,
  "▁mill": 9544,
  "▁salt": 9545,
  "elling": 9546,
  "▁Italy": 9547,
  "estment": 9548,
  "▁Recall": 9549,
  "titution": 9550,
  "▁Iterate": 9551,
  "▁Science": 9552,
  "▁minimal": 9553,
  "▁suggest": 9554,
  "▁వేరుశనగ": 9555,
  "▁delivery": 9556,
  "▁decreases": 9557,
  ")+": 9558,
  "SO": 9559,
  "కట": 9560,
  "▁¬": 9561,
  "▁“": 9562,
  "▁⊕": 9563,
  "=50": 9564,
  "fft": 9565,
  "nal": 9566,
  "pex": 9567,
  "ued": 9568,
  "లను": 9569,
  "▁1⁄": 9570,
  "ancy": 9571,
  "ాలలో": 9572,
  "▁123": 9573,
  "▁176": 9574,
  "▁52.": 9575,
  "▁Lag": 9576,
  "▁Pic": 9577,
  "▁fas": 9578,
  "▁que": 9579,
  "onies": 9580,
  "sided": 9581,
  "ారావు": 9582,
  "▁(-1,": 9583,
  "▁1900": 9584,
  "▁1980": 9585,
  "▁1996": 9586,
  "▁Matt": 9587,
  "▁Rose": 9588,
  "▁lose": 9589,
  "fourth": 9590,
  "iments": 9591,
  "▁agree": 9592,
  "▁lists": 9593,
  "▁spots": 9594,
  "radians": 9595,
  "▁France": 9596,
  "▁graphs": 9597,
  "▁resear": 9598,
  "instance": 9599,
  "▁cricket": 9600,
  "▁demonst": 9601,
  "▁progress": 9602,
  "▁reduction": 9603,
  "▁especially": 9604,
  "operatorname": 9605,
  "CF": 9606,
  "}'": 9607,
  "(\"\\": 9608,
  "/35": 9609,
  "196": 9610,
  "2).": 9611,
  "cot": 9612,
  "▁dI": 9613,
  "▁nC": 9614,
  "▁కథ": 9615,
  "(-1,": 9616,
  "0.5)": 9617,
  "^(-1": 9618,
  "^{1,": 9619,
  "post": 9620,
  "▁$80": 9621,
  "▁117": 9622,
  "▁169": 9623,
  "(100)": 9624,
  "PDATE": 9625,
  "▁1990": 9626,
  "▁2016": 9627,
  "▁Stra": 9628,
  "▁lack": 9629,
  "▁mind": 9630,
  "▁mins": 9631,
  "isions": 9632,
  "▁Divid": 9633,
  "▁blood": 9634,
  "▁decay": 9635,
  "atabase": 9636,
  "▁shaded": 9637,
  "▁Without": 9638,
  "▁detailed": 9639,
  "▁unitsize": 9640,
  "▁computers": 9641,
  "▁processing": 9642,
  "IG": 9643,
  "}:": 9644,
  "▁ఘ": 9645,
  "▁ధ": 9646,
  "(7)": 9647,
  "1/2": 9648,
  "=2,": 9649,
  "Hel": 9650,
  "_03": 9651,
  "ikx": 9652,
  "}\",": 9653,
  "▁Mu": 9654,
  "▁ba": 9655,
  "▁జీ": 9656,
  "▁సమ": 9657,
  "50);": 9658,
  "fair": 9659,
  "last": 9660,
  "▁48.": 9661,
  "▁Dri": 9662,
  "▁Old": 9663,
  "▁SHA": 9664,
  "▁వెం": 9665,
  "built": 9666,
  "ilies": 9667,
  "image": 9668,
  "pages": 9669,
  "▁Five": 9670,
  "▁capt": 9671,
  "▁loan": 9672,
  "▁10:05": 9673,
  "▁annot": 9674,
  "▁imple": 9675,
  "▁steel": 9676,
  "▁Castle": 9677,
  "▁compar": 9678,
  "▁cooper": 9679,
  "▁losing": 9680,
  "▁orthog": 9681,
  "▁Between": 9682,
  "▁modular": 9683,
  "▁Republic": 9684,
  "▁everyone": 9685,
  "▁provides": 9686,
  "▁completes": 9687,
  "▁infinitely": 9688,
  "▁membership": 9689,
  ")'": 9690,
  "7%": 9691,
  "_20": 9692,
  "ova": 9693,
  "tig": 9694,
  "}$?": 9695,
  "▁6}": 9696,
  "▁CI": 9697,
  "▁Do": 9698,
  "▁జా": 9699,
  "▁శి": 9700,
  "(-3)": 9701,
  "chen": 9702,
  "enne": 9703,
  "▁0).": 9704,
  "▁189": 9705,
  "▁27,": 9706,
  "▁31.": 9707,
  "▁Sti": 9708,
  "▁∫[-": 9709,
  "iquid": 9710,
  "▁john": 9711,
  "▁sums": 9712,
  "▁whom": 9713,
  "_00007": 9714,
  "antity": 9715,
  "uction": 9716,
  "▁Greek": 9717,
  "▁Royal": 9718,
  "▁tooth": 9719,
  "▁League": 9720,
  "▁league": 9721,
  "▁wooden": 9722,
  "▁foreign": 9723,
  "▁heights": 9724,
  "▁declared": 9725,
  "▁situation": 9726,
  "▁Feigenbaum": 9727,
  "distribution": 9728,
  "▁ȳ": 9729,
  "169": 9730,
  "2):": 9731,
  "455": 9732,
  "ias": 9733,
  "▁$-": 9734,
  "▁dV": 9735,
  ")^2)": 9736,
  "Step": 9737,
  "What": 9738,
  "enty": 9739,
  "fold": 9740,
  "oded": 9741,
  "only": 9742,
  "tein": 9743,
  "tier": 9744,
  "దేశ్": 9745,
  "▁(-3": 9746,
  "▁1.6": 9747,
  "▁114": 9748,
  "▁118": 9749,
  "▁194": 9750,
  "▁Joe": 9751,
  "▁Que": 9752,
  "▁aug": 9753,
  "▁eng": 9754,
  "▁oct": 9755,
  "ciety": 9756,
  "essor": 9757,
  "hline": 9758,
  "isson": 9759,
  "large": 9760,
  "▁Prov": 9761,
  "▁Spec": 9762,
  "▁fell": 9763,
  "_00002": 9764,
  "▁(3/2)": 9765,
  "▁Afric": 9766,
  "▁moles": 9767,
  "▁refer": 9768,
  "▁పురుష": 9769,
  "▁పెద్ద": 9770,
  "▁eighth": 9771,
  "▁stands": 9772,
  "▁towers": 9773,
  "pression": 9774,
  "response": 9775,
  "▁adverti": 9776,
  "▁primary": 9777,
  "▁purpose": 9778,
  "▁quickly": 9779,
  "▁residue": 9780,
  ".123456',": 9781,
  "▁Chemical": 9782,
  "▁southern": 9783,
  "intercepts": 9784,
  "▁Architect": 9785,
  "▁extensive": 9786,
  "▁itertools": 9787,
  "▁locations": 9788,
  "▁religious": 9789,
  "▁satisfied": 9790,
  "▁specified": 9791,
  "overrightarrow": 9792,
  "9%": 9793,
  "yx": 9794,
  "+4)": 9795,
  "265": 9796,
  "290": 9797,
  "=0$": 9798,
  "LAB": 9799,
  "^(3": 9800,
  "_02": 9801,
  "_13": 9802,
  "_3)": 9803,
  "arg": 9804,
  "rap": 9805,
  "▁8-": 9806,
  "▁TV": 9807,
  "▁గా": 9808,
  "▁మధ": 9809,
  "None": 9810,
  "norm": 9811,
  "▁35%": 9812,
  "▁URL": 9813,
  "▁cow": 9814,
  "print": 9815,
  "tempt": 9816,
  "▁(500": 9817,
  "▁0.10": 9818,
  "▁Last": 9819,
  "▁rich": 9820,
  "▁విడు": 9821,
  "Option": 9822,
  "▁chaos": 9823,
  "seconds": 9824,
  "▁Choose": 9825,
  "▁cycles": 9826,
  "▁expect": 9827,
  "▁implic": 9828,
  "▁nearby": 9829,
  "▁termin": 9830,
  "▁doubles": 9831,
  "▁weather": 9832,
  "▁alphabet": 9833,
  "▁bacteria": 9834,
  "▁crossing": 9835,
  "▁vehicles": 9836,
  "▁commodity": 9837,
  "▁hundredth": 9838,
  "▁cumulative": 9839,
  "▁isinstance": 9840,
  "▁semidirect": 9841,
  "approximately": 9842,
  "MP": 9843,
  "SS": 9844,
  "*20": 9845,
  "ban": 9846,
  "neq": 9847,
  "sor": 9848,
  "▁9:": 9849,
  "▁ru": 9850,
  "desc": 9851,
  "egis": 9852,
  "ites": 9853,
  "misp": 9854,
  "▁$19": 9855,
  "▁111": 9856,
  "▁23,": 9857,
  "▁SET": 9858,
  "▁Ter": 9859,
  "orage": 9860,
  "ంచాడు": 9861,
  "▁6000": 9862,
  "▁Mart": 9863,
  "▁Type": 9864,
  "▁asks": 9865,
  "▁feel": 9866,
  "▁reti": 9867,
  "_00070": 9868,
  "keeper": 9869,
  "ported": 9870,
  "▁(1/4)": 9871,
  "▁Floer": 9872,
  "▁chair": 9873,
  "▁gains": 9874,
  "▁lemon": 9875,
  "▁ranks": 9876,
  "▁royal": 9877,
  "▁sheaf": 9878,
  "▁చిత్ర": 9879,
  "oration": 9880,
  "student": 9881,
  "▁Office": 9882,
  "▁branch": 9883,
  "▁emphas": 9884,
  "▁photos": 9885,
  "▁Poisson": 9886,
  "▁typical": 9887,
  "▁ప్రత్తి": 9888,
  "▁challeng": 9889,
  "▁mushrooms": 9890,
  "▁దర్శకత్వం": 9891,
  "▁ValueError": 9892,
  "▁committees": 9893,
  "▁profession": 9894,
  "▁oscillation": 9895,
  "▁perspective": 9896,
  "లే": 9897,
  "126": 9898,
  "oud": 9899,
  "}}{": 9900,
  "ంకర": 9901,
  "శాల": 9902,
  "(20,": 9903,
  "args": 9904,
  "reme": 9905,
  "same": 9906,
  "tree": 9907,
  "▁162": 9908,
  "▁3/8": 9909,
  "▁ANS": 9910,
  "▁Due": 9911,
  "▁Nav": 9912,
  "▁pil": 9913,
  "apers": 9914,
  "rocal": 9915,
  "▁rose": 9916,
  "▁slow": 9917,
  "bility": 9918,
  "ulated": 9919,
  "▁storm": 9920,
  "▁moduli": 9921,
  "▁Example": 9922,
  "▁genetic": 9923,
  "▁painted": 9924,
  "▁approved": 9925,
  "▁baseball": 9926,
  "▁bootstra": 9927,
  "▁harmonic": 9928,
  "▁maintain": 9929,
  "▁measured": 9930,
  "▁numerous": 9931,
  "▁observed": 9932,
  "▁policeman": 9933,
  "▁predicted": 9934,
  "▁annotations": 9935,
  "▁description": 9936,
  "▁destination": 9937,
  "1%": 9938,
  "1*": 9939,
  "AG": 9940,
  "[-": 9941,
  "rx": 9942,
  "▁ψ": 9943,
  "(16": 9944,
  "15:": 9945,
  "76.": 9946,
  "ALU": 9947,
  "agn": 9948,
  "ani": 9949,
  "dou": 9950,
  "elt": 9951,
  "lde": 9952,
  "lig": 9953,
  "ట్ల": 9954,
  "్రమ": 9955,
  "▁SD": 9956,
  "▁అత": 9957,
  "(20)": 9958,
  "HELL": 9959,
  "This": 9960,
  "fail": 9961,
  "offs": 9962,
  "roke": 9963,
  "semb": 9964,
  "ymax": 9965,
  "ymin": 9966,
  "▁Air": 9967,
  "▁Dem": 9968,
  "▁Not": 9969,
  "▁Ric": 9970,
  "▁rub": 9971,
  "_0_10": 9972,
  "ascal": 9973,
  "plate": 9974,
  "tilde": 9975,
  "▁2012": 9976,
  "▁Data": 9977,
  "▁Town": 9978,
  "▁exer": 9979,
  "▁owns": 9980,
  "▁వచ్చ": 9981,
  "_00095": 9982,
  "cepted": 9983,
  "health": 9984,
  "otonic": 9985,
  "string": 9986,
  "▁Among": 9987,
  "▁cable": 9988,
  "▁coach": 9989,
  "▁fully": 9990,
  "titions": 9991,
  "▁caches": 9992,
  "▁planar": 9993,
  "▁purple": 9994,
  "▁showed": 9995,
  "▁visual": 9996,
  "════════": 9997,
  "▁Revival": 9998,
  "▁delayed": 9999,
  "▁railway": 10000,
  "▁commercial": 10001,
  "▁department": 10002,
  "▁introduced": 10003,
  "▁theoretical": 10004,
  "*$": 10005,
  "NO": 10006,
  "_(": 10007,
  "vu": 10008,
  "పే": 10009,
  "/40": 10010,
  "168": 10011,
  "Note": 10012,
  "illa": 10013,
  "▁550": 10014,
  "▁Bur": 10015,
  "▁why": 10016,
  "Cache": 10017,
  "Point": 10018,
  "given": 10019,
  "itake": 10020,
  "pling": 10021,
  "▁poet": 10022,
  "aclass": 10023,
  "primes": 10024,
  "▁grass": 10025,
  "▁sense": 10026,
  "▁tails": 10027,
  "aligned": 10028,
  "minutes": 10029,
  "▁donuts": 10030,
  "▁transl": 10031,
  "▁hexagon": 10032,
  "▁metrics": 10033,
  "▁nonzero": 10034,
  "▁reverse": 10035,
  "▁sources": 10036,
  "▁spatial": 10037,
  "positions": 10038,
  "▁calculates": 10039,
  "▁preference": 10040,
  "▁researcher": 10041,
  "UL": 10042,
  "{8": 10043,
  "సా": 10044,
  "ోహ": 10045,
  "(18": 10046,
  ")\",": 10047,
  "288": 10048,
  "hay": 10049,
  "ila": 10050,
  "▁AS": 10051,
  "▁మె": 10052,
  "alla": 10053,
  "aped": 10054,
  "illy": 10055,
  "osce": 10056,
  "reat": 10057,
  "▁$\\$": 10058,
  "▁(2.": 10059,
  "▁10!": 10060,
  "▁187": 10061,
  "▁3.2": 10062,
  "▁Ber": 10063,
  "(6));": 10064,
  "forms": 10065,
  "split": 10066,
  "sword": 10067,
  "▁died": 10068,
  "▁poem": 10069,
  "▁tens": 10070,
  "_00048": 10071,
  "olving": 10072,
  "స్తారు": 10073,
  "▁Senna": 10074,
  "▁broad": 10075,
  "▁owned": 10076,
  "▁relay": 10077,
  "osceles": 10078,
  "▁Intern": 10079,
  "▁Select": 10080,
  "▁Taking": 10081,
  "▁couple": 10082,
  "▁routes": 10083,
  "▁highway": 10084,
  "▁payoffs": 10085,
  "▁duration": 10086,
  "▁proposed": 10087,
  "▁training": 10088,
  "▁isosceles": 10089,
  "▁eventually": 10090,
  "2=": 10091,
  "Be": 10092,
  "75.": 10093,
  "bro": 10094,
  "oop": 10095,
  "{11": 10096,
  "}=\\": 10097,
  "▁(√": 10098,
  "▁అవ": 10099,
  ").$$": 10100,
  "-1)!": 10101,
  "2));": 10102,
  "ABCD": 10103,
  "^{2}": 10104,
  "_011": 10105,
  "iana": 10106,
  "mosp": 10107,
  "క్ష్": 10108,
  "▁(17": 10109,
  "▁136": 10110,
  "▁19.": 10111,
  "▁gar": 10112,
  "▁క్ష": 10113,
  "False": 10114,
  "ippet": 10115,
  "thing": 10116,
  "▁(0.2": 10117,
  "▁prem": 10118,
  "_00090": 10119,
  "member": 10120,
  "salary": 10121,
  "schema": 10122,
  "▁10:10": 10123,
  "▁10:30": 10124,
  "▁Incre": 10125,
  "▁blank": 10126,
  "▁pants": 10127,
  "▁teach": 10128,
  "inguish": 10129,
  "▁Engine": 10130,
  "▁mutual": 10131,
  "increase": 10132,
  "▁balloon": 10133,
  "▁culture": 10134,
  "▁ensures": 10135,
  "▁breaking": 10136,
  "▁expanded": 10137,
  "▁announced": 10138,
  "▁criterion": 10139,
  "▁describes": 10140,
  "▁resources": 10141,
  "▁frequencies": 10142,
  "▁investments": 10143,
  "▁contemporary": 10144,
  "vy": 10145,
  "జయ": 10146,
  "(\"%": 10147,
  "),$": 10148,
  "20.": 10149,
  "25.": 10150,
  "idx": 10151,
  "tin": 10152,
  "uce": 10153,
  "▁కళ": 10154,
  "(1))": 10155,
  "also": 10156,
  "chat": 10157,
  "cook": 10158,
  "olly": 10159,
  "▁145": 10160,
  "▁5/6": 10161,
  "▁Ice": 10162,
  "▁Kar": 10163,
  "▁toy": 10164,
  "ander": 10165,
  "clock": 10166,
  "joint": 10167,
  "tible": 10168,
  "}{2}\\": 10169,
  "ందులో": 10170,
  "▁0.85": 10171,
  "▁Just": 10172,
  "▁Noah": 10173,
  "▁door": 10174,
  "▁emer": 10175,
  "▁grew": 10176,
  "_00038": 10177,
  "_00066": 10178,
  "_00075": 10179,
  "_00099": 10180,
  "before": 10181,
  "▁Sarah": 10182,
  "▁alloy": 10183,
  "▁tasks": 10184,
  "parents": 10185,
  "traffic": 10186,
  "▁merged": 10187,
  "▁yields": 10188,
  "ensation": 10189,
  "▁carried": 10190,
  "▁descent": 10191,
  "▁indices": 10192,
  "▁temples": 10193,
  "▁ప్రకారం": 10194,
  "▁Kattappa": 10195,
  "▁allowing": 10196,
  "▁hospital": 10197,
  "▁shopping": 10198,
  "▁passenger": 10199,
  "▁repeating": 10200,
  "▁connecting": 10201,
  "▁polynomials": 10202,
  "3(": 10203,
  "డే": 10204,
  "▁∅": 10205,
  "))$": 10206,
  "166": 10207,
  "176": 10208,
  "178": 10209,
  "ala": 10210,
  "cis": 10211,
  "fun": 10212,
  "kov": 10213,
  "rad": 10214,
  "ras": 10215,
  "sam": 10216,
  "▁3\\": 10217,
  "▁Ma": 10218,
  "▁ly": 10219,
  "}.$$": 10220,
  "▁$(\\": 10221,
  "▁tin": 10222,
  "▁రహద": 10223,
  "Aegis": 10224,
  "ector": 10225,
  "ettes": 10226,
  "▁1100": 10227,
  "▁1970": 10228,
  "▁2005": 10229,
  "▁3/10": 10230,
  "▁Jill": 10231,
  "▁jobs": 10232,
  "▁puts": 10233,
  "_00076": 10234,
  "astern": 10235,
  "▁0.05.": 10236,
  "▁10:15": 10237,
  "▁Union": 10238,
  "▁deals": 10239,
  "▁slice": 10240,
  "▁tells": 10241,
  "factory": 10242,
  "▁grapes": 10243,
  "▁tennis": 10244,
  "original": 10245,
  "▁Italian": 10246,
  "▁aspects": 10247,
  "▁voltage": 10248,
  "▁Triangle": 10249,
  "▁external": 10250,
  "▁schedule": 10251,
  "▁tomatoes": 10252,
  "▁Intersection": 10253,
  "▁homomorphism": 10254,
  "1-": 10255,
  "7_": 10256,
  "UN": 10257,
  ".12": 10258,
  "11.": 10259,
  "147": 10260,
  "1}(": 10261,
  "SON": 10262,
  "_0,": 10263,
  "_18": 10264,
  "sinh": 10265,
  "ేశ్వ": 10266,
  "▁(2*": 10267,
  "▁5/2": 10268,
  "▁Fin": 10269,
  "▁Vir": 10270,
  "ALUES": 10271,
  "Store": 10272,
  "apped": 10273,
  "crete": 10274,
  "ransp": 10275,
  "stone": 10276,
  "unchi": 10277,
  "▁18.0": 10278,
  "▁Many": 10279,
  "▁cart": 10280,
  "▁flav": 10281,
  "▁groc": 10282,
  "▁tele": 10283,
  "_00065": 10284,
  "▁ducks": 10285,
  "▁meets": 10286,
  "▁ounce": 10287,
  "▁Square": 10288,
  "▁hypers": 10289,
  "▁nunchi": 10290,
  "▁రహదారి": 10291,
  "▁adopted": 10292,
  "▁attempt": 10293,
  "▁nothing": 10294,
  "▁picture": 10295,
  "▁release": 10296,
  "monotonic": 10297,
  "▁changing": 10298,
  "▁enclosed": 10299,
  "▁languages": 10300,
  "▁paintings": 10301,
  "▁recommend": 10302,
  "▁something": 10303,
  "▁strangers": 10304,
  "▁curvatures": 10305,
  "▁distribute": 10306,
  "▁matplotlib": 10307,
  "▁vegetables": 10308,
  "▁trigonometric": 10309,
  "AE": 10310,
  "AF": 10311,
  "+11": 10312,
  "-19": 10313,
  ".05": 10314,
  "163": 10315,
  "408": 10316,
  "_15": 10317,
  "job": 10318,
  "▁2!": 10319,
  "▁డి": 10320,
  "▁వై": 10321,
  "-256": 10322,
  "0)))": 10323,
  "gall": 10324,
  "qual": 10325,
  "tons": 10326,
  "umes": 10327,
  "క్కు": 10328,
  "▁(4)": 10329,
  "▁1],": 10330,
  "▁32,": 10331,
  "▁650": 10332,
  "▁Fre": 10333,
  "▁ask": 10334,
  "▁అని": 10335,
  "NSERT": 10336,
  "aging": 10337,
  "assic": 10338,
  "berry": 10339,
  "color": 10340,
  "deriv": 10341,
  "obile": 10342,
  "tfrac": 10343,
  "▁Goal": 10344,
  "▁bath": 10345,
  "▁love": 10346,
  "▁meta": 10347,
  "▁pile": 10348,
  "▁resi": 10349,
  "minist": 10350,
  "▁Earth": 10351,
  "▁civil": 10352,
  "▁evenly": 10353,
  "arehouse": 10354,
  "evidence": 10355,
  "manifold": 10356,
  "▁Percent": 10357,
  "▁actions": 10358,
  "▁arrived": 10359,
  "▁chicken": 10360,
  "▁decrypt": 10361,
  "▁reasons": 10362,
  "▁annually": 10363,
  "▁favorite": 10364,
  "▁official": 10365,
  "▁measuring": 10366,
  "▁consumption": 10367,
  "▁differentiate": 10368,
  "(-3": 10369,
  "17,": 10370,
  "198": 10371,
  "^4)": 10372,
  "sho": 10373,
  "tis": 10374,
  "ర్మ": 10375,
  "▁fa": 10376,
  "▁దా": 10377,
  "▁బయ": 10378,
  "▁మి": 10379,
  "(0.0": 10380,
  "^2))": 10381,
  "hbar": 10382,
  "west": 10383,
  "ytop": 10384,
  "పాడు": 10385,
  "▁$3$": 10386,
  "▁(0)": 10387,
  "▁-3.": 10388,
  "▁113": 10389,
  "▁Cel": 10390,
  "▁Ref": 10391,
  "▁orn": 10392,
  "▁కలి": 10393,
  "▁తార": 10394,
  "allad": 10395,
  "estim": 10396,
  "్త్రీ": 10397,
  "▁$300": 10398,
  "▁Anna": 10399,
  "▁INTO": 10400,
  "▁conc": 10401,
  "▁reve": 10402,
  "▁subt": 10403,
  "▁succ": 10404,
  "_00040": 10405,
  "_00050": 10406,
  "import": 10407,
  "lowing": 10408,
  "▁heart": 10409,
  "▁signs": 10410,
  "▁throw": 10411,
  "▁agreed": 10412,
  "▁atmosp": 10413,
  "▁liquid": 10414,
  "▁rating": 10415,
  "▁respon": 10416,
  "▁summer": 10417,
  "Database": 10418,
  "▁TicksAr": 10419,
  "▁Western": 10420,
  "▁charged": 10421,
  "▁diamond": 10422,
  "▁indexes": 10423,
  "▁planned": 10424,
  "▁squared": 10425,
  "▁northern": 10426,
  "▁predator": 10427,
  "▁adjacency": 10428,
  "▁exception": 10429,
  "▁increment": 10430,
  "▁volunteer": 10431,
  "▁orthogonal": 10432,
  "▁principles": 10433,
  "▁volunteers": 10434,
  "▁recursively": 10435,
  "Rs": 10436,
  "▁ఓ": 10437,
  "((1": 10438,
  "1**": 10439,
  "108": 10440,
  "124": 10441,
  "14.": 10442,
  "143": 10443,
  "167": 10444,
  "184": 10445,
  "707": 10446,
  "CON": 10447,
  "▁\",": 10448,
  "▁3%": 10449,
  "▁Ku": 10450,
  "▁వర": 10451,
  "^2$,": 10452,
  "iers": 10453,
  "mile": 10454,
  "plac": 10455,
  "xmin": 10456,
  "్రహ్": 10457,
  "▁(?,": 10458,
  "▁2$.": 10459,
  "▁GCD": 10460,
  "▁Hom": 10461,
  "▁zoo": 10462,
  "_0025": 10463,
  "arian": 10464,
  "green": 10465,
  "matic": 10466,
  "optim": 10467,
  "rates": 10468,
  "stack": 10469,
  "▁1960": 10470,
  "▁50/3": 10471,
  "▁Oliv": 10472,
  "▁Orig": 10473,
  "▁laid": 10474,
  "▁pean": 10475,
  "▁prey": 10476,
  "▁puzz": 10477,
  "_00078": 10478,
  "_00080": 10479,
  "▁10:20": 10480,
  "▁Gauss": 10481,
  "▁cells": 10482,
  "▁omega": 10483,
  "▁చంద్ర": 10484,
  "▁పాటలు": 10485,
  "placian": 10486,
  "squares": 10487,
  "uristic": 10488,
  "▁cancel": 10489,
  "▁నిర్మి": 10490,
  "▁100,000": 10491,
  "▁fastest": 10492,
  "▁limited": 10493,
  "▁opening": 10494,
  "▁preserve": 10495,
  "▁swimming": 10496,
  "▁thousand": 10497,
  "▁assistant": 10498,
  "▁dependent": 10499,
  "▁minimizes": 10500,
  "▁performed": 10501,
  "▁statistic": 10502,
  "▁reciprocal": 10503,
  "▁subsequent": 10504,
  "చు": 10505,
  "జి": 10506,
  "రో": 10507,
  "ACT": 10508,
  "PRO": 10509,
  "WER": 10510,
  "avu": 10511,
  "ona": 10512,
  "×0.": 10513,
  "ద్ర": 10514,
  "▁Dy": 10515,
  "▁Gr": 10516,
  "▁MP": 10517,
  "▁NW": 10518,
  "1)--": 10519,
  "elan": 10520,
  "uvvu": 10521,
  "writ": 10522,
  "▁$0$": 10523,
  "▁102": 10524,
  "▁122": 10525,
  "▁90,": 10526,
  "evalf": 10527,
  "othes": 10528,
  "▁45.0": 10529,
  "▁lawn": 10530,
  "▁పేరు": 10531,
  "▁∫[0,": 10532,
  "_00060": 10533,
  "teenth": 10534,
  "▁1000)": 10535,
  "▁merch": 10536,
  "▁react": 10537,
  "▁thick": 10538,
  "vmatrix": 10539,
  "▁MATLAB": 10540,
  "▁Notice": 10541,
  "▁broken": 10542,
  "▁bicycle": 10543,
  "▁colored": 10544,
  "▁torsion": 10545,
  "▁homotopy": 10546,
  "▁Expanding": 10547,
  "▁configure": 10548,
  "▁mentioned": 10549,
  "▁particles": 10550,
  "▁preserved": 10551,
  "▁everything": 10552,
  ")!": 10553,
  "7}": 10554,
  "MO": 10555,
  "చే": 10556,
  "ప్": 10557,
  "+25": 10558,
  "133": 10559,
  "15)": 10560,
  "^10": 10561,
  "ean": 10562,
  "▁నే": 10563,
  "cast": 10564,
  "heni": 10565,
  "loss": 10566,
  "oura": 10567,
  "నికి": 10568,
  "▁$4$": 10569,
  "▁-12": 10570,
  "▁155": 10571,
  "▁2(1": 10572,
  "▁340": 10573,
  "▁Tru": 10574,
  "▁అను": 10575,
  "▁నాగ": 10576,
  "▁భాష": 10577,
  "_0099": 10578,
  "chest": 10579,
  "inalg": 10580,
  "posed": 10581,
  "shirt": 10582,
  "silon": 10583,
  "{1}{4": 10584,
  "▁$400": 10585,
  "▁fort": 10586,
  "▁idea": 10587,
  "▁vice": 10588,
  "_00044": 10589,
  "_00085": 10590,
  "_00098": 10591,
  "letter": 10592,
  "▁10:25": 10593,
  "▁Dheni": 10594,
  "▁hotel": 10595,
  "▁penal": 10596,
  "▁valla": 10597,
  "players": 10598,
  "section": 10599,
  "{1}{2}\\": 10600,
  "▁Museum": 10601,
  "▁VALUES": 10602,
  "▁fisher": 10603,
  "▁stated": 10604,
  "▁Physics": 10605,
  "▁ancient": 10606,
  "▁matched": 10607,
  "▁Function": 10608,
  "▁Optional": 10609,
  "▁achieved": 10610,
  "▁birthday": 10611,
  "▁chickens": 10612,
  "▁filldraw": 10613,
  "▁velocities": 10614,
  ".\\": 10615,
  "డం": 10616,
  "వర": 10617,
  "▁⊗": 10618,
  "\"))": 10619,
  "/7)": 10620,
  "Ret": 10621,
  "ald": 10622,
  "dev": 10623,
  "usi": 10624,
  "{12": 10625,
  "ధార": 10626,
  "స్ట": 10627,
  "'(0)": 10628,
  "(0))": 10629,
  "Roch": 10630,
  "cosh": 10631,
  "road": 10632,
  "▁17)": 10633,
  "▁252": 10634,
  "▁Ell": 10635,
  "▁Jes": 10636,
  "adium": 10637,
  "lings": 10638,
  "uckoo": 10639,
  "▁18/5": 10640,
  "▁1998": 10641,
  "▁Fund": 10642,
  "▁bowl": 10643,
  "▁cere": 10644,
  "▁lift": 10645,
  "▁stag": 10646,
  "DELETE": 10647,
  "_00034": 10648,
  "_00045": 10649,
  "_00055": 10650,
  "_00200": 10651,
  "ennies": 10652,
  "linalg": 10653,
  "period": 10654,
  "▁(1000": 10655,
  "▁0.001": 10656,
  "▁Party": 10657,
  "▁Prove": 10658,
  "▁clubs": 10659,
  "▁polar": 10660,
  "▁quite": 10661,
  "▁Pallad": 10662,
  "▁fabric": 10663,
  "▁Kingdom": 10664,
  "▁castles": 10665,
  "▁keeping": 10666,
  "▁planted": 10667,
  "▁snippet": 10668,
  "▁dynamics": 10669,
  "▁shipping": 10670,
  "▁Laplacian": 10671,
  "▁centuries": 10672,
  "▁iterating": 10673,
  "▁Mathematics": 10674,
  "oy": 10675,
  "\"):": 10676,
  "+40": 10677,
  "-90": 10678,
  "165": 10679,
  "185": 10680,
  "987": 10681,
  "pid": 10682,
  "ros": 10683,
  "ums": 10684,
  "▁PM": 10685,
  "Then": 10686,
  "doll": 10687,
  "ette": 10688,
  "haru": 10689,
  "hayi": 10690,
  "odel": 10691,
  "▁$6.": 10692,
  "▁193": 10693,
  "▁540": 10694,
  "▁Pop": 10695,
  "▁neg": 10696,
  "HELLO": 10697,
  "anish": 10698,
  "centi": 10699,
  "dumps": 10700,
  "least": 10701,
  "ppers": 10702,
  "topic": 10703,
  "ూర్తి": 10704,
  "▁2004": 10705,
  "▁laga": 10706,
  "▁rock": 10707,
  "Beacon": 10708,
  "_00022": 10709,
  "_00113": 10710,
  "iology": 10711,
  "istern": 10712,
  "త్తులు": 10713,
  "▁Brian": 10714,
  "▁Class": 10715,
  "▁Georg": 10716,
  "▁Nuvvu": 10717,
  "▁Today": 10718,
  "▁bases": 10719,
  "▁court": 10720,
  "▁meals": 10721,
  "▁sinus": 10722,
  "▁tourn": 10723,
  "▁Pascal": 10724,
  "▁hemisp": 10725,
  "▁scheme": 10726,
  "Pointers": 10727,
  "▁cheyavu": 10728,
  "▁entries": 10729,
  "perimeter": 10730,
  "▁overtime": 10731,
  "▁Principal": 10732,
  "▁chestharu": 10733,
  "▁chesthayi": 10734,
  "▁establish": 10735,
  "▁neighbors": 10736,
  "▁demonstrate": 10737,
  "4%": 10738,
  "ET": 10739,
  "కీ": 10740,
  "ణా": 10741,
  "పై": 10742,
  "▁ε": 10743,
  "/17": 10744,
  "12:": 10745,
  "16.": 10746,
  "2^2": 10747,
  "704": 10748,
  "785": 10749,
  "alk": 10750,
  "awn": 10751,
  "ili": 10752,
  "oto": 10753,
  "▁=2": 10754,
  "▁Ap": 10755,
  "▁SW": 10756,
  "▁dR": 10757,
  "fast": 10758,
  "rary": 10759,
  "ruce": 10760,
  "uchy": 10761,
  "wind": 10762,
  "కుడు": 10763,
  "▁40)": 10764,
  "▁Get": 10765,
  "▁Mia": 10766,
  "▁Ser": 10767,
  "▁Van": 10768,
  "▁fle": 10769,
  "▁tau": 10770,
  "(100,": 10771,
  ",000,": 10772,
  "exual": 10773,
  "faces": 10774,
  "iting": 10775,
  "olden": 10776,
  "under": 10777,
  "▁Wind": 10778,
  "▁bulb": 10779,
  "▁rhom": 10780,
  "▁tons": 10781,
  "_00046": 10782,
  "_00100": 10783,
  "gested": 10784,
  "pyplot": 10785,
  "ricult": 10786,
  "xlabel": 10787,
  "▁$100.": 10788,
  "▁climb": 10789,
  "▁micro": 10790,
  "▁proof": 10791,
  "▁గణాంక": 10792,
  "summary": 10793,
  "▁academ": 10794,
  "▁begins": 10795,
  "▁reserv": 10796,
  "▁treats": 10797,
  "interest": 10798,
  "▁Germany": 10799,
  "▁earthqu": 10800,
  "▁rhombus": 10801,
  "▁Lagrange": 10802,
  "▁potatoes": 10803,
  "▁simulate": 10804,
  "▁favorable": 10805,
  "▁invariant": 10806,
  "▁intersects": 10807,
  "▁satisfying": 10808,
  "▁significantly": 10809,
  "ంబ": 10810,
  "-5,": 10811,
  "156": 10812,
  "Phi": 10813,
  "_11": 10814,
  "ado": 10815,
  "mel": 10816,
  "neg": 10817,
  "unk": 10818,
  "{2\\": 10819,
  "ఎస్": 10820,
  "▁\\]": 10821,
  "▁జయ": 10822,
  "▁బె": 10823,
  "(0.8": 10824,
  "3)^2": 10825,
  "Apex": 10826,
  "Tick": 10827,
  "Time": 10828,
  "aled": 10829,
  "aska": 10830,
  "clic": 10831,
  "ider": 10832,
  "▁$(-": 10833,
  "▁$8.": 10834,
  "▁-2,": 10835,
  "▁138": 10836,
  "▁16)": 10837,
  "▁299": 10838,
  "▁=\",": 10839,
  "▁pun": 10840,
  "▁జాత": 10841,
  "Equal": 10842,
  "roots": 10843,
  "కృష్ణ": 10844,
  "▁$10.": 10845,
  "▁24.0": 10846,
  "▁Lake": 10847,
  "▁Shar": 10848,
  "0,0)--": 10849,
  "_00114": 10850,
  "_00119": 10851,
  "_00120": 10852,
  "_00130": 10853,
  "_00180": 10854,
  "object": 10855,
  "ylabel": 10856,
  "▁Analy": 10857,
  "▁Optim": 10858,
  "▁Steve": 10859,
  "▁వెంకట": 10860,
  "between": 10861,
  "decimal": 10862,
  "viation": 10863,
  "▁Island": 10864,
  "▁System": 10865,
  "▁Temple": 10866,
  "▁formal": 10867,
  "▁recall": 10868,
  "▁involve": 10869,
  "▁parking": 10870,
  "▁extended": 10871,
  "▁lyapunov": 10872,
  "▁rejected": 10873,
  "▁concluded": 10874,
  "▁threading": 10875,
  "▁appearance": 10876,
  "▁tournament": 10877,
  "▁paraconsistent": 10878,
  "SD": 10879,
  "UT": 10880,
  "పె": 10881,
  "మే": 10882,
  "▁€": 10883,
  "-1.": 10884,
  "145": 10885,
  "sem": 10886,
  "ంటే": 10887,
  "▁4(": 10888,
  "▁IF": 10889,
  "▁XY": 10890,
  "▁je": 10891,
  "▁yx": 10892,
  "turb": 10893,
  "▁$4,": 10894,
  "▁(11": 10895,
  "▁1.8": 10896,
  "▁18)": 10897,
  "▁375": 10898,
  "▁45%": 10899,
  "▁72.": 10900,
  "▁840": 10901,
  "▁Rob": 10902,
  "▁Tex": 10903,
  "0,0),": 10904,
  "_0050": 10905,
  "acted": 10906,
  "oming": 10907,
  "oured": 10908,
  "sight": 10909,
  "▁(150": 10910,
  "▁Bang": 10911,
  "▁Liam": 10912,
  "▁Wash": 10913,
  "▁desp": 10914,
  "▁shot": 10915,
  "_00088": 10916,
  "_00110": 10917,
  "_00115": 10918,
  "_00170": 10919,
  "irikov": 10920,
  "▁Sally": 10921,
  "▁shall": 10922,
  "▁wages": 10923,
  "forward": 10924,
  "payload": 10925,
  "▁0.0000": 10926,
  "▁Modern": 10927,
  "▁Virgin": 10928,
  "▁arrive": 10929,
  "▁cursor": 10930,
  "▁issues": 10931,
  "▁nearly": 10932,
  "▁pupils": 10933,
  "atherine": 10934,
  "▁offered": 10935,
  "▁website": 10936,
  "▁రాష్ట్ర": 10937,
  "▁accommod": 10938,
  "▁document": 10939,
  "▁gumballs": 10940,
  "▁Remaining": 10941,
  "▁decisions": 10942,
  "▁sculpture": 10943,
  "▁sometimes": 10944,
  "▁frameworks": 10945,
  "▁performing": 10946,
  "▁strategies": 10947,
  "▁generations": 10948,
  "fe": 10949,
  "గొ": 10950,
  "\").": 10951,
  "((2": 10952,
  "+13": 10953,
  "1);": 10954,
  "452": 10955,
  "ava": 10956,
  "lst": 10957,
  "ocr": 10958,
  "oot": 10959,
  "ria": 10960,
  "una": 10961,
  "▁-9": 10962,
  "▁2'": 10963,
  "▁4]": 10964,
  "▁మన": 10965,
  "Find": 10966,
  "abad": 10967,
  "aren": 10968,
  "ican": 10969,
  "ంత్ర": 10970,
  "▁$3,": 10971,
  "▁$\\{": 10972,
  "▁(7,": 10973,
  "▁266": 10974,
  "▁3))": 10975,
  "▁3/7": 10976,
  "▁35,": 10977,
  "▁5^2": 10978,
  "▁6.5": 10979,
  "▁Byz": 10980,
  "▁Def": 10981,
  "▁Fol": 10982,
  "▁Mus": 10983,
  "▁jud": 10984,
  "▁rup": 10985,
  "▁ఉండ": 10986,
  "_0026": 10987,
  "_0030": 10988,
  "_0036": 10989,
  "exper": 10990,
  "onial": 10991,
  "ంలోని": 10992,
  "▁(-2)": 10993,
  "▁14.0": 10994,
  "▁Bell": 10995,
  "▁Camp": 10996,
  "▁Hind": 10997,
  "▁fine": 10998,
  "▁guit": 10999,
  "▁prep": 11000,
  "▁toss": 11001,
  "_00117": 11002,
  "_00118": 11003,
  "_00140": 11004,
  "_00150": 11005,
  "sorted": 11006,
  "▁Water": 11007,
  "tickets": 11008,
  "▁Arrows": 11009,
  "▁Martin": 11010,
  "▁indeed": 11011,
  "▁junior": 11012,
  "▁oldest": 11013,
  "▁palace": 11014,
  "▁స్త్రీ": 11015,
  "proposal": 11016,
  "requency": 11017,
  "smallest": 11018,
  "▁Britain": 11019,
  "▁commute": 11020,
  "▁effects": 11021,
  "integrate": 11022,
  "timestamp": 11023,
  "▁Scottish": 11024,
  "▁linearly": 11025,
  "▁officers": 11026,
  "▁plugging": 11027,
  "▁interpret": 11028,
  "▁threshold": 11029,
  "▁descending": 11030,
  "▁indicating": 11031,
  "▁subtracted": 11032,
  "sn": 11033,
  "వీ": 11034,
  "సే": 11035,
  "(2.": 11036,
  "1.2": 11037,
  "134": 11038,
  "=36": 11039,
  "For": 11040,
  "eon": 11041,
  "zes": 11042,
  "▁3^": 11043,
  "▁తన": 11044,
  "(500": 11045,
  "each": 11046,
  "onac": 11047,
  "quar": 11048,
  "rist": 11049,
  "కాలు": 11050,
  "▁26,": 11051,
  "▁9/2": 11052,
  "▁fir": 11053,
  "▁pie": 11054,
  "_0022": 11055,
  "_0035": 11056,
  "eting": 11057,
  "names": 11058,
  "oline": 11059,
  "onnet": 11060,
  "▁1995": 11061,
  "▁Bank": 11062,
  "▁leak": 11063,
  "▁mist": 11064,
  "_00116": 11065,
  "_00190": 11066,
  "ership": 11067,
  "partic": 11068,
  "prompt": 11069,
  "▁ended": 11070,
  "▁roman": 11071,
  "▁turns": 11072,
  "▁వ్యాస": 11073,
  "1_00040": 11074,
  "▁Cauchy": 11075,
  "▁Olivia": 11076,
  "▁lorenz": 11077,
  "▁settle": 11078,
  "▁catches": 11079,
  "▁cistern": 11080,
  "▁largely": 11081,
  "▁mangoes": 11082,
  "▁physics": 11083,
  "▁storage": 11084,
  "▁Register": 11085,
  "▁managers": 11086,
  "ampionship": 11087,
  "▁insurance": 11088,
  "▁separated": 11089,
  "▁substance": 11090,
  "192.168.1.5": 11091,
  "▁discounted": 11092,
  "▁fertilizer": 11093,
  "▁identified": 11094,
  "▁examination": 11095,
  "▁revolutions": 11096,
  "▁presentation": 11097,
  "FA": 11098,
  "XX": 11099,
  "oe": 11100,
  "pu": 11101,
  "|,": 11102,
  "13}": 11103,
  "148": 11104,
  "488": 11105,
  "756": 11106,
  "=11": 11107,
  "UST": 11108,
  "she": 11109,
  "umn": 11110,
  "{20": 11111,
  "}{(": 11112,
  "వలస": 11113,
  "▁8*": 11114,
  "▁Py": 11115,
  "▁|-": 11116,
  "▁బు": 11117,
  "(3),": 11118,
  "-1),": 11119,
  "^{2,": 11120,
  "aign": 11121,
  "rons": 11122,
  "}{5}": 11123,
  "▁127": 11124,
  "▁ign": 11125,
  "_0090": 11126,
  "_0130": 11127,
  "break": 11128,
  "const": 11129,
  "oplus": 11130,
  "▁0.30": 11131,
  "▁Plot": 11132,
  "▁cuts": 11133,
  "▁viol": 11134,
  "_00112": 11135,
  "_00160": 11136,
  "apshot": 11137,
  "▁Eigen": 11138,
  "▁clust": 11139,
  "▁codes": 11140,
  "1_00045": 11141,
  "ritical": 11142,
  "surface": 11143,
  "tection": 11144,
  "▁absent": 11145,
  "▁concer": 11146,
  "▁margin": 11147,
  "▁proced": 11148,
  "▁Hilbert": 11149,
  "▁Spanish": 11150,
  "▁bundles": 11151,
  "▁destroy": 11152,
  "▁earning": 11153,
  "▁paramet": 11154,
  "▁District": 11155,
  "▁Japanese": 11156,
  "▁attempts": 11157,
  "▁believed": 11158,
  "▁landmark": 11159,
  "▁mountain": 11160,
  "▁percenti": 11161,
  "▁semantic": 11162,
  "▁speaking": 11163,
  "▁surround": 11164,
  "arithmetic": 11165,
  "derivative": 11166,
  "▁covariant": 11167,
  "▁timestamp": 11168,
  "▁travelers": 11169,
  "▁assumption": 11170,
  "▁Furthermore": 11171,
  "▁contradicts": 11172,
  "▁compensation": 11173,
  "PL": 11174,
  "Un": 11175,
  "(25": 11176,
  "001": 11177,
  "122": 11178,
  "_3(": 11179,
  "_5,": 11180,
  "env": 11181,
  "fru": 11182,
  "pon": 11183,
  "ంతో": 11184,
  "లకు": 11185,
  "హిత": 11186,
  "▁3$": 11187,
  "▁\\{": 11188,
  "▁ది": 11189,
  ",)).": 11190,
  "▁(2^": 11191,
  "▁29.": 11192,
  "▁3.7": 11193,
  "▁324": 11194,
  "▁Lit": 11195,
  "▁Sta": 11196,
  "▁phy": 11197,
  "▁ves": 11198,
  "▁{4,": 11199,
  "_0066": 11200,
  "abled": 11201,
  "bulbs": 11202,
  "grade": 11203,
  "heads": 11204,
  "icine": 11205,
  "ordan": 11206,
  "ేత్రం": 11207,
  "▁120)": 11208,
  "▁Conf": 11209,
  "▁Line": 11210,
  "▁Rear": 11211,
  "▁beat": 11212,
  "▁hair": 11213,
  "▁pric": 11214,
  "center": 11215,
  "common": 11216,
  "vement": 11217,
  "నారాయణ": 11218,
  "▁arbit": 11219,
  "▁queue": 11220,
  "▁smart": 11221,
  "▁young": 11222,
  "estival": 11223,
  "ircraft": 11224,
  "rations": 11225,
  "▁border": 11226,
  "▁census": 11227,
  "▁cereal": 11228,
  "▁coming": 11229,
  "▁flower": 11230,
  "▁repeat": 11231,
  "▁saying": 11232,
  "▁turned": 11233,
  "---|---|": 11234,
  "duration": 11235,
  "quarters": 11236,
  "▁Dividing": 11237,
  "▁cardinal": 11238,
  "▁internal": 11239,
  "▁majority": 11240,
  "▁probably": 11241,
  "▁semester": 11242,
  "▁Washington": 11243,
  "▁iteratively": 11244,
  "BD": 11245,
  "CA": 11246,
  "hy": 11247,
  "yz": 11248,
  "002": 11249,
  "16:": 11250,
  "187": 11251,
  "28,": 11252,
  "=1$": 11253,
  "sup": 11254,
  "ync": 11255,
  "ాలా": 11256,
  "▁మే": 11257,
  "▁యు": 11258,
  "hole": 11259,
  "ర్గం": 11260,
  "▁((1": 11261,
  "▁137": 11262,
  "▁36,": 11263,
  "▁432": 11264,
  "▁4}.": 11265,
  "▁999": 11266,
  "▁Rad": 11267,
  "▁Rav": 11268,
  "▁ath": 11269,
  "▁kgs": 11270,
  "apple": 11271,
  "encil": 11272,
  "ewise": 11273,
  "ighed": 11274,
  "rling": 11275,
  "▁10%.": 11276,
  "▁11.0": 11277,
  "▁1950": 11278,
  "▁90.0": 11279,
  "▁cash": 11280,
  "▁ethn": 11281,
  "▁eyes": 11282,
  "▁jump": 11283,
  "▁shar": 11284,
  "▁vict": 11285,
  "Bonnet": 11286,
  "ategor": 11287,
  "gallon": 11288,
  "ibonac": 11289,
  "inders": 11290,
  "▁Cross": 11291,
  "▁Error": 11292,
  "▁drain": 11293,
  "▁kinds": 11294,
  "▁rever": 11295,
  "▁county": 11296,
  "▁forces": 11297,
  "expected": 11298,
  "ibonacci": 11299,
  "▁Iceland": 11300,
  "▁awarded": 11301,
  "▁picking": 11302,
  "▁praised": 11303,
  "▁families": 11304,
  "▁graphing": 11305,
  "▁Institute": 11306,
  "▁annealing": 11307,
  "▁otherwise": 11308,
  "▁preferred": 11309,
  "▁preserves": 11310,
  "▁rearrange": 11311,
  "▁supported": 11312,
  "▁Difference": 11313,
  "▁management": 11314,
  "CR": 11315,
  "Py": 11316,
  "\\|": 11317,
  ")*(": 11318,
  "/21": 11319,
  "/24": 11320,
  "146": 11321,
  "199": 11322,
  "8),": 11323,
  "cup": 11324,
  "▁3]": 11325,
  "▁Na": 11326,
  "▁ఉప": 11327,
  "▁రే": 11328,
  "anta": 11329,
  "fits": 11330,
  "note": 11331,
  "rema": 11332,
  "▁(-4": 11333,
  "▁(3*": 11334,
  "▁2.8": 11335,
  "▁Amy": 11336,
  "▁Lar": 11337,
  "▁gap": 11338,
  "▁lic": 11339,
  "▁vir": 11340,
  "(0.5)": 11341,
  "anger": 11342,
  "ident": 11343,
  "ouses": 11344,
  "▁(199": 11345,
  "▁1024": 11346,
  "▁2002": 11347,
  "▁2400": 11348,
  "▁Arts": 11349,
  "▁Cong": 11350,
  "▁Item": 11351,
  "▁JSON": 11352,
  "▁acid": 11353,
  "▁shel": 11354,
  "▁stem": 11355,
  "^2)/2)": 11356,
  "_{0}^{": 11357,
  "ridges": 11358,
  "▁Harry": 11359,
  "▁Jason": 11360,
  "▁Susan": 11361,
  "▁Third": 11362,
  "▁displ": 11363,
  "▁snack": 11364,
  "ctivity": 11365,
  "venance": 11366,
  "▁Cannot": 11367,
  "▁Middle": 11368,
  "▁affect": 11369,
  "▁bricks": 11370,
  "▁stores": 11371,
  "▁3.14159": 11372,
  "▁Francis": 11373,
  "▁herself": 11374,
  "▁observe": 11375,
  "▁పురుషుల": 11376,
  "available": 11377,
  "▁concrete": 11378,
  "▁director": 11379,
  "▁gasoline": 11380,
  "▁handling": 11381,
  "▁Algorithm": 11382,
  "▁converted": 11383,
  "▁expensive": 11384,
  "▁గ్రామానికి": 11385,
  "▁Multiplying": 11386,
  "▁maintaining": 11387,
  "hm": 11388,
  "102": 11389,
  "36,": 11390,
  "465": 11391,
  "76,": 11392,
  "\\%$": 11393,
  "^3+": 11394,
  "die": 11395,
  "eck": 11396,
  "kes": 11397,
  "పంచ": 11398,
  "వరి": 11399,
  "శీల": 11400,
  "▁AE": 11401,
  "▁PQ": 11402,
  "▁{'": 11403,
  "▁బి": 11404,
  ")}{\\": 11405,
  "Size": 11406,
  "_3_3": 11407,
  "arse": 11408,
  "tens": 11409,
  "tios": 11410,
  "zens": 11411,
  "పూర్": 11412,
  "ించి": 11413,
  "▁$75": 11414,
  "▁(35": 11415,
  "▁157": 11416,
  "▁38.": 11417,
  "▁4.8": 11418,
  "▁60)": 11419,
  "▁gym": 11420,
  "_0100": 11421,
  "urric": 11422,
  "▁Carl": 11423,
  "▁Keep": 11424,
  "▁Part": 11425,
  "▁damp": 11426,
  "▁drug": 11427,
  "▁hits": 11428,
  "▁mail": 11429,
  "▁pref": 11430,
  "▁tabu": 11431,
  "▁లేదా": 11432,
  "_00096": 11433,
  "aroque": 11434,
  "domain": 11435,
  "logram": 11436,
  "uffing": 11437,
  "▁Annie": 11438,
  "▁Limit": 11439,
  "▁Route": 11440,
  "▁Tower": 11441,
  "▁cause": 11442,
  "▁funds": 11443,
  "▁ingre": 11444,
  "▁minor": 11445,
  "▁oblig": 11446,
  "▁sound": 11447,
  "cookies": 11448,
  "itation": 11449,
  "rackers": 11450,
  "▁(0,0);": 11451,
  "▁Canada": 11452,
  "▁promin": 11453,
  "identity": 11454,
  "▁battery": 11455,
  "▁glasses": 11456,
  "▁భారతదేశ": 11457,
  "including": 11458,
  "▁brothers": 11459,
  "▁క్షేత్రం": 11460,
  "▁generally": 11461,
  "▁investing": 11462,
  "▁variation": 11463,
  "▁handshakes": 11464,
  "▁orientable": 11465,
  "dh": 11466,
  "va": 11467,
  "°.": 11468,
  "యు": 11469,
  "1):": 11470,
  "129": 11471,
  "137": 11472,
  "138": 11473,
  "177": 11474,
  "485": 11475,
  "788": 11476,
  "exc": 11477,
  "ugg": 11478,
  "వ్వ": 11479,
  "▁&\\": 11480,
  "▁++": 11481,
  "▁aw": 11482,
  "▁dP": 11483,
  "▁dW": 11484,
  "▁dh": 11485,
  "▁ic": 11486,
  "gate": 11487,
  "heel": 11488,
  "safe": 11489,
  "sole": 11490,
  "ంగాణ": 11491,
  "వారి": 11492,
  "▁$5.": 11493,
  "▁0],": 11494,
  "▁10*": 11495,
  "▁Bas": 11496,
  "▁Han": 11497,
  "▁Six": 11498,
  "▁dim": 11499,
  "▁ham": 11500,
  "▁దేవ": 11501,
  "going": 11502,
  "▁10.8": 11503,
  "▁100-": 11504,
  "▁120,": 11505,
  "▁1999": 11506,
  "▁80.0": 11507,
  "▁Flor": 11508,
  "▁bake": 11509,
  "▁caps": 11510,
  "▁didn": 11511,
  "▁furn": 11512,
  "▁spot": 11513,
  "▁విజయ": 11514,
  "0,000.": 11515,
  "=1}^{\\": 11516,
  "andbox": 11517,
  "ensory": 11518,
  "equals": 11519,
  "rative": 11520,
  "▁Louis": 11521,
  "▁dolls": 11522,
  "coeffic": 11523,
  "▁Norway": 11524,
  "▁Theory": 11525,
  "▁ఇందులో": 11526,
  "children": 11527,
  "exponent": 11528,
  "▁Richard": 11529,
  "▁burgers": 11530,
  "▁clothes": 11531,
  "▁mission": 11532,
  "▁someone": 11533,
  "▁intended": 11534,
  "▁internet": 11535,
  "▁stopping": 11536,
  "▁Americans": 11537,
  "▁Australia": 11538,
  "▁arbitrary": 11539,
  "▁installed": 11540,
  "▁repeatedly": 11541,
  "▁sinusoidal": 11542,
  "▁radioactive": 11543,
  "/\\": 11544,
  "ya": 11545,
  "▁Φ": 11546,
  "▁ష": 11547,
  "45.": 11548,
  "789": 11549,
  "_1}": 11550,
  "don": 11551,
  "సాల": 11552,
  "▁{(": 11553,
  "0,0)": 11554,
  "=0.0": 11555,
  "card": 11556,
  "▁$17": 11557,
  "▁(13": 11558,
  "▁(24": 11559,
  "▁1.7": 11560,
  "▁146": 11561,
[...]
